<pad>	0
<s>	0
</s>	0
<unk>	0
▁이	-0
했다	-1
▁있	-2
에서	-3
▁대	-4
▁사	-5
▁지	-6
▁것	-7
▁그	-8
으로	-9
▁1	-10
▁수	-11
▁전	-12
▁2	-13
▁미	-14
▁“	-15
▁있다	-16
▁아	-17
▁한	-18
▁가	-19
▁주	-20
▁보	-21
▁시	-22
▁위	-23
▁경	-24
▁정	-25
▁말	-26
▁중	-27
▁인	-28
하고	-29
▁기	-30
00	-31
▁자	-32
라고	-33
하는	-34
▁밝	-35
다고	-36
▁부	-37
▁발	-38
▁일	-39
▁공	-40
▁관	-41
▁밝혔	-42
▁국	-43
들이	-44
▁오	-45
들은	-46
▁다	-47
▁유	-48
▁밝혔다	-49
▁말했다	-50
▁것이	-51
▁않	-52
▁미국	-53
▁의	-54
▁비	-55
▁상	-56
니다	-57
▁조	-58
▁하	-59
▁여	-60
▁제	-61
▁3	-62
▁소	-63
▁있는	-64
▁나	-65
통령	-66
▁연	-67
▁마	-68
▁모	-69
▁영	-70
▁동	-71
▁대통령	-72
으며	-73
▁선	-74
▁지난	-75
었다	-76
▁내	-77
에게	-78
▁해	-79
▁무	-80
▁그는	-81
▁최	-82
▁후	-83
▁고	-84
▁방	-85
▁당	-86
▁우	-87
▁바	-88
▁위해	-89
▁알	-90
▁200	-91
▁예	-92
▁파	-93
▁받	-94
▁북	-95
▁스	-96
▁대한	-97
시간	-98
▁결	-99
▁세	-100
현지	-101
▁없	-102
▁도	-103
▁총	-104
▁남	-105
▁회	-106
▁4	-107
▁정부	-108
▁통	-109
▁성	-110
▁전했다	-111
습니다	-112
지만	-113
했다고	-114
▁구	-115
▁5	-116
이다	-117
▁이번	-118
▁반	-119
▁개	-120
적인	-121
▁신	-122
▁불	-123
▁대해	-124
명이	-125
▁노	-126
▁어	-127
현지시간	-128
라크	-129
하기	-130
▁거	-131
▁계	-132
▁생	-133
▁장	-134
이라고	-135
▁만	-136
▁6	-137
▁또	-138
들을	-139
리는	-140
▁실	-141
까지	-142
▁프	-143
▁강	-144
▁포	-145
▁차	-146
▁이라크	-147
됐다	-148
▁폭	-149
▁경찰	-150
▁매	-151
명의	-152
▁올	-153
들의	-154
▁것으로	-155
▁사람	-156
▁"	-157
▁‘	-158
▁에	-159
▁서	-160
▁감	-161
▁때	-162
▁원	-163
▁재	-164
▁교	-165
▁것이라고	-166
▁안	-167
▁요	-168
▁문	-169
하지	-170
▁더	-171
▁있다고	-172
러나	-173
▁현	-174
▁진	-175
▁피	-176
▁북한	-177
▁중국	-178
한다	-179
▁19	-180
▁외	-181
▁것을	-182
▁달	-183
▁입	-184
▁자신	-185
았다	-186
였다	-187
▁열	-188
▁추	-189
▁사망	-190
▁한국	-191
in	-192
▁주장	-193
▁출	-194
▁발생	-195
적으로	-196
부터	-197
▁확	-198
에는	-199
▁많	-200
▁7	-201
▁로	-202
인은	-203
▁그러나	-204
▁군	-205
▁등	-206
▁약	-207
▁행	-208
▁민	-209
▁호	-210
▁테	-211
on	-212
시아	-213
하게	-214
▁다른	-215
▁카	-216
re	-217
▁같	-218
▁지역	-219
▁라	-220
▁8	-221
▁관계	-222
▁두	-223
▁영국	-224
an	-225
▁10	-226
▁예정	-227
▁증	-228
▁t	-229
▁분	-230
▁작	-231
▁발표	-232
▁대변	-233
▁투	-234
사는	-235
▁설	-236
장은	-237
리아	-238
▁한편	-239
er	-240
▁목	-241
바마	-242
▁집	-243
▁법	-244
기를	-245
라는	-246
▁되	-247
▁단	-248
▁타	-249
▁리	-250
▁문제	-251
▁베	-252
▁승	-253
들에게	-254
▁새	-255
졌다	-256
▁오바마	-257
▁살	-258
▁보도	-259
▁화	-260
▁과	-261
▁9	-262
▁이후	-263
▁배	-264
에따	-265
▁못	-266
▁C	-267
▁뉴	-268
▁후보	-269
▁일본	-270
에서는	-271
▁처	-272
▁참	-273
▁건	-274
자는	-275
▁A	-276
▁할	-277
다는	-278
▁관련	-279
▁판	-280
▁독	-281
▁치	-282
ti	-283
면서	-284
▁금	-285
▁통해	-286
.0	-287
▁심	-288
▁평	-289
▁버	-290
▁들	-291
▁세계	-292
▁적	-293
리고	-294
▁코	-295
하며	-296
▁많은	-297
스탄	-298
▁대통령은	-299
▁앞	-300
▁협	-301
▁'	-302
▁핵	-303
▁위한	-304
▁검	-305
▁체	-306
ar	-307
명을	-308
▁언	-309
▁크	-310
자가	-311
관은	-312
했으며	-313
▁데	-314
▁병	-315
사를	-316
▁국가	-317
레이	-318
▁부시	-319
▁클	-320
▁물	-321
▁벌	-322
▁운	-323
▁변	-324
▁합	-325
▁가장	-326
▁동안	-327
리가	-328
▁필	-329
▁저	-330
스트	-331
▁같은	-332
▁것이다	-333
▁사건	-334
▁시작	-335
스는	-336
▁대변인은	-337
▁산	-338
▁그의	-339
▁학	-340
▁경제	-341
▁공격	-342
▁테러	-343
문에	-344
된다	-345
▁이상	-346
원의	-347
▁영화	-348
▁항	-349
리를	-350
▁양	-351
or	-352
자들은	-353
들과	-354
▁브	-355
▁직	-356
▁12	-357
he	-358
▁계획	-359
▁보고	-360
▁아프	-361
al	-362
en	-363
▁임	-364
▁초	-365
▁될	-366
▁연구	-367
▁역	-368
▁아이	-369
혐의	-370
▁사용	-371
▁현재	-372
▁20	-373
▁민주	-374
▁것은	-375
▁주장했다	-376
▁한다	-377
지는	-378
▁선거	-379
000	-380
▁존	-381
▁국제	-382
달러	-383
▁T	-384
이트	-385
도록	-386
요일	-387
▁미군	-388
하다	-389
상을	-390
▁또한	-391
▁인터	-392
▁함	-393
▁뒤	-394
▁명	-395
▁조사	-396
▁지지	-397
스라	-398
▁했다	-399
▁돌	-400
되는	-401
었다고	-402
▁발견	-403
으나	-404
▁덧	-405
▁야	-406
▁덧붙	-407
▁혐의	-408
▁메	-409
▁계속	-410
▁시위	-411
▁최근	-412
▁일부	-413
레스	-414
했습니다	-415
▁경우	-416
▁보도했다	-417
▁포함	-418
▁토	-419
력을	-420
▁덧붙였다	-421
▁S	-422
▁11	-423
▁및	-424
▁취	-425
▁회담	-426
스라엘	-427
▁특	-428
le	-429
▁요구	-430
▁않았다	-431
▁사실	-432
라이	-433
원은	-434
▁여성	-435
▁페	-436
했던	-437
▁러	-438
▁경기	-439
▁생각	-440
▁태	-441
▁결정	-442
▁방문	-443
▁환	-444
장을	-445
st	-446
자들이	-447
▁설명	-448
▁(	-449
로운	-450
▁비난	-451
▁지도	-452
▁줄	-453
▁이스라엘	-454
▁자신의	-455
200	-456
▁박	-457
▁복	-458
리스	-459
키스탄	-460
▁당국	-461
▁탈	-462
▁몇	-463
르면	-464
니아	-465
▁레	-466
.”	-467
▁함께	-468
주의	-469
▁프로	-470
되고	-471
인이	-472
▁결과	-473
▁표	-474
보다	-475
▁가능	-476
▁당시	-477
▁활	-478
▁종	-479
사가	-480
▁이란	-481
입니다	-482
▁프랑	-483
▁모든	-484
해야	-485
▁논	-486
▁그리고	-487
에따르면	-488
▁게	-489
원이	-490
▁허	-491
▁맞	-492
▁석	-493
▁때문에	-494
▁파키스탄	-495
시키	-496
회의	-497
▁근	-498
▁음	-499
▁수도	-500
▁높	-501
▁하는	-502
▁15	-503
▁걸	-504
▁N	-505
랜드	-506
▁인도	-507
▁팔	-508
▁대선	-509
▁예정이다	-510
▁필요	-511
▁간	-512
▁모두	-513
▁있습니다	-514
▁F	-515
▁설명했다	-516
지를	-517
린턴	-518
지고	-519
▁지원	-520
▁드	-521
번째	-522
▁달러	-523
▁러시아	-524
자인	-525
에도	-526
▁새로운	-527
▁있으며	-528
▁정치	-529
▁충	-530
▁숨	-531
▁경찰은	-532
▁처음	-533
▁프랑스	-534
▁떨	-535
▁유엔	-536
▁갖	-537
부는	-538
at	-539
▁채	-540
▁30	-541
▁정부는	-542
▁알려	-543
▁열린	-544
왔다	-545
▁P	-546
은행	-547
▁클린턴	-548
es	-549
▁사이	-550
▁기록	-551
▁들어	-552
▁피해	-553
▁본	-554
▁애	-555
▁친	-556
서는	-557
기가	-558
장이	-559
▁기자	-560
▁민주당	-561
▁있었다	-562
▁떨어	-563
▁사고	-564
▁점	-565
▁o	-566
▁철	-567
▁용	-568
▁찾	-569
▁B	-570
▁규	-571
▁큰	-572
▁터	-573
안을	-574
▁않았	-575
원회	-576
라며	-577
▁아직	-578
▁없다	-579
▁I	-580
▁케	-581
.1	-582
▁블	-583
▁좋	-584
▁M	-585
▁유럽	-586
▁질	-587
▁2005	-588
▁백	-589
▁않는	-590
▁폭탄	-591
▁상황	-592
▁대표	-593
치를	-594
비아	-595
▁뉴욕	-596
▁담	-597
▁휴	-598
▁지난해	-599
▁대통령이	-600
▁우주	-601
▁플	-602
되어	-603
▁않을	-604
▁하고	-605
▁아니	-606
기에	-607
▁합의	-608
it	-609
▁s	-610
리의	-611
▁곳	-612
▁손	-613
▁디	-614
▁U	-615
▁압	-616
▁쿠	-617
▁그녀	-618
▁나타	-619
▁상원의	-620
▁최고	-621
▁날	-622
▁16	-623
▁c	-624
▁준	-625
▁식	-626
됐다고	-627
▁이에	-628
▁김	-629
▁무장	-630
▁권	-631
▁청	-632
▁월	-633
▁W	-634
▁올해	-635
▁온	-636
화를	-637
▁a	-638
▁힐	-639
▁시간	-640
그램	-641
▁199	-642
▁총리는	-643
▁있을	-644
▁이날	-645
▁침	-646
부분	-647
▁있었	-648
▁체포	-649
▁미국의	-650
▁따	-651
전을	-652
하여	-653
이며	-654
이고	-655
▁가족	-656
▁the	-657
▁광	-658
정부	-659
▁네	-660
▁접	-661
▁첫	-662
▁발생한	-663
▁위치	-664
▁속	-665
수는	-666
▁확인	-667
▁반대	-668
▁발표했다	-669
이는	-670
▁국민	-671
▁진행	-672
▁완	-673
과의	-674
▁K	-675
거나	-676
자를	-677
▁부상	-678
▁정보	-679
tion	-680
▁13	-681
▁원문	-682
.08	-683
▁끝	-684
▁받고	-685
om	-686
동을	-687
▁25	-688
스의	-689
▁18	-690
▁루	-691
▁대학	-692
▁비행	-693
ou	-694
성이	-695
▁f	-696
▁있다는	-697
▁소식	-698
is	-699
NN	-700
▁폐	-701
▁이미	-702
▁공개	-703
▁만들	-704
▁얻	-705
자의	-706
ic	-707
▁범	-708
이나	-709
▁다시	-710
▁이용	-711
▁잘	-712
이스	-713
▁증가	-714
에따라	-715
▁p	-716
▁14	-717
▁각	-718
▁난	-719
▁희	-720
▁주민	-721
운데	-722
▁다음	-723
▁to	-724
ed	-725
렸다	-726
▁대부분	-727
▁가운데	-728
▁of	-729
▁패	-730
▁아프간	-731
지역	-732
원을	-733
▁중단	-734
▁순	-735
단체	-736
▁이슬	-737
와의	-738
▁예상	-739
▁넘	-740
▁빠	-741
ing	-742
▁정부가	-743
사의	-744
▁항공	-745
성을	-746
타인	-747
정을	-748
▁사람들이	-749
▁밝혀	-750
▁의해	-751
▁워	-752
▁왕	-753
스가	-754
레반	-755
▁투표	-756
하면서	-757
하면	-758
▁방송	-759
)’	-760
▁트	-761
▁전문	-762
▁D	-763
▁주요	-764
▁프로그램	-765
▁막	-766
간의	-767
▁실시	-768
▁축	-769
▁내용	-770
▁2006	-771
▁된다	-772
▁된	-773
▁감독	-774
▁인해	-775
▁차량	-776
로부터	-777
▁콜	-778
▁누	-779
인을	-780
들에	-781
무장	-782
▁공화	-783
스를	-784
▁않은	-785
테러	-786
▁상태	-787
▁L	-788
▁암	-789
▁지적	-790
▁해결	-791
▁절	-792
▁병원	-793
▁외교	-794
났다	-795
▁납	-796
나는	-797
하려	-798
▁받아	-799
▁그가	-800
▁책	-801
▁in	-802
▁언급	-803
▁이는	-804
는데	-805
▁됐다	-806
▁혐의로	-807
▁E	-808
금을	-809
▁탈레반	-810
▁인터뷰	-811
▁얼	-812
▁홍	-813
했지만	-814
▁밀	-815
▁우리	-816
▁머	-817
▁향	-818
장에서	-819
▁농	-820
▁의회	-821
대로	-822
▁이어	-823
▁조지	-824
▁17	-825
▁여러	-826
▁언론	-827
▁중요	-828
위원회	-829
▁돌아	-830
▁전쟁	-831
▁독일	-832
▁폭발	-833
림픽	-834
▁국방	-835
▁대통령의	-836
동차	-837
드는	-838
▁도시	-839
▁2008	-840
▁변호	-841
무부	-842
위를	-843
▁정상	-844
▁급	-845
되지	-846
▁요청	-847
▁이슬람	-848
▁잡	-849
▁형	-850
km	-851
디오	-852
▁단체	-853
개월	-854
처럼	-855
▁살해	-856
레스타인	-857
기로	-858
▁골	-859
자로	-860
▁위치한	-861
▁평화	-862
▁있어	-863
사태	-864
▁받았다	-865
▁촉	-866
▁우려	-867
도로	-868
▁상승	-869
관이	-870
▁학생	-871
업체	-872
가는	-873
ore	-874
▁오늘	-875
▁캐	-876
▁이유	-877
명은	-878
▁없는	-879
▁승리	-880
▁석방	-881
▁제공	-882
▁참석	-883
▁강조	-884
▁에서	-885
▁명의	-886
▁TV	-887
▁연방	-888
▁판매	-889
il	-890
▁죽	-891
▁남부	-892
기는	-893
▁티	-894
▁헤	-895
임을	-896
▁50	-897
▁데이	-898
겠다고	-899
한다고	-900
▁소속	-901
▁추가	-902
▁공화당	-903
수가	-904
▁성공	-905
▁사실을	-906
▁브라	-907
▁팔레스타인	-908
▁탄	-909
격을	-910
▁개발	-911
▁관리	-912
▁방법	-913
되었다	-914
▁한다고	-915
▁모습	-916
이라며	-917
ro	-918
▁사진	-919
▁호주	-920
리카	-921
케인	-922
▁이들	-923
▁이를	-924
▁위협	-925
▁총리	-926
했고	-927
▁관계자는	-928
▁악	-929
▁금융	-930
▁않고	-931
▁당선	-932
▁떠	-933
▁힘	-934
냈다	-935
리포	-936
▁보여	-937
▁서울	-938
ent	-939
▁24	-940
▁자동차	-941
▁천	-942
▁생산	-943
▁인터넷	-944
▁하락	-945
▁''	-946
▁지적했다	-947
▁맥	-948
▁볼	-949
▁여행	-950
▁키	-951
▁지금	-952
▁긴	-953
장에	-954
전에	-955
▁b	-956
▁쓰	-957
▁구조	-958
▁베이	-959
▁협상	-960
자들을	-961
이었다	-962
▁군사	-963
▁매우	-964
▁용의	-965
▁인근	-966
이지	-967
▁마이	-968
▁터키	-969
▁당국은	-970
르는	-971
▁21	-972
대를	-973
▁인질	-974
러한	-975
업을	-976
▁기술	-977
▁보안	-978
▁보호	-979
▁측	-980
▁올림픽	-981
▁일어	-982
리에	-983
▁인정	-984
de	-985
as	-986
▁w	-987
되었	-988
▁보인	-989
에서의	-990
▁없다고	-991
▁사무	-992
▁위험	-993
▁주지	-994
▁최소	-995
▁H	-996
기사	-997
력이	-998
▁영향	-999
▁전문가	-1000
▁22	-1001
▁반군	-1002
▁회사	-1003
개의	-1004
▁23	-1005
▁정책	-1006
치는	-1007
▁100	-1008
▁하지	-1009
권을	-1010
▁27	-1011
▁과학	-1012
▁받은	-1013
▁백악	-1014
년간	-1015
▁잠	-1016
ation	-1017
▁경고	-1018
대의	-1019
센터	-1020
▁크리스	-1021
▁G	-1022
의를	-1023
있는	-1024
▁납치	-1025
부를	-1026
▁준비	-1027
▁검찰	-1028
회담	-1029
▁커	-1030
▁어떤	-1031
얀마	-1032
▁관광	-1033
▁공식	-1034
지에	-1035
▁하지만	-1036
▁R	-1037
▁외국	-1038
했으나	-1039
▁몰	-1040
▁의원	-1041
tic	-1042
▁폴	-1043
▁건물	-1044
▁편	-1045
음을	-1046
▁어린	-1047
하기로	-1048
보기	-1049
▁이름	-1050
했었다	-1051
▁m	-1052
▁컴	-1053
▁오후	-1054
▁이와	-1055
▁있던	-1056
다드	-1057
▁공항	-1058
▁안전	-1059
▁하나	-1060
샤라	-1061
선을	-1062
▁노동	-1063
▁도착	-1064
식을	-1065
▁40	-1066
▁받았	-1067
▁것에	-1068
▁원문기사	-1069
대가	-1070
싱턴	-1071
and	-1072
▁자살	-1073
▁제작	-1074
도를	-1075
인트	-1076
▁고위	-1077
▁바그	-1078
▁와	-1079
신은	-1080
▁선수	-1081
▁웹	-1082
▁은행	-1083
▁미얀마	-1084
ra	-1085
▁격	-1086
▁런	-1087
▁번	-1088
세를	-1089
▁자유	-1090
퓨터	-1091
▁북한의	-1092
페인	-1093
▁마지	-1094
회견	-1095
▁착	-1096
▁극	-1097
▁노력	-1098
▁보고서	-1099
카에	-1100
▁길	-1101
시켰	-1102
▁아시아	-1103
▁바그다드	-1104
▁니	-1105
▁건강	-1106
▁그들은	-1107
▁북한이	-1108
▁인터뷰에서	-1109
▁런던	-1110
▁지구	-1111
▁치료	-1112
▁북부	-1113
▁여론	-1114
자와	-1115
▁사회	-1116
문을	-1117
▁갖고	-1118
▁컴퓨터	-1119
▁시민	-1120
▁앞서	-1121
▁밖	-1122
▁엘	-1123
▁이러한	-1124
▁워싱턴	-1125
지지	-1126
th	-1127
▁싶	-1128
▁학교	-1129
▁정부의	-1130
나라	-1131
▁강조했다	-1132
▁푸	-1133
▁26	-1134
▁거래	-1135
▁조직	-1136
▁힐러	-1137
▁떨어진	-1138
장의	-1139
▁사태	-1140
하는데	-1141
▁있도록	-1142
▁원문기사보기	-1143
었던	-1144
▁오는	-1145
▁촉구	-1146
하다고	-1147
씨는	-1148
탈리아	-1149
▁경찰이	-1150
지가	-1151
▁놓	-1152
▁팀	-1153
▁연합	-1154
▁마지막	-1155
세계	-1156
▁기자회견	-1157
▁목표	-1158
국의	-1159
수를	-1160
▁미국이	-1161
▁창	-1162
▁발언	-1163
▁비난했다	-1164
있다	-1165
▁가진	-1166
▁도움	-1167
조사	-1168
▁현지	-1169
사일	-1170
▁스타	-1171
▁장관은	-1172
같은	-1173
▁논의	-1174
▁동물	-1175
▁부인	-1176
▁차지	-1177
에서도	-1178
▁느	-1179
ol	-1180
▁잃	-1181
▁혼	-1182
회를	-1183
▁거부	-1184
▁면	-1185
▁성명	-1186
▁수상	-1187
리포니아	-1188
BC	-1189
▁빌	-1190
▁윌	-1191
스타	-1192
▁가격	-1193
▁거의	-1194
▁오전	-1195
▁유명	-1196
▁그녀는	-1197
▁자신이	-1198
국은	-1199
▁29	-1200
▁민간	-1201
▁연설	-1202
했다는	-1203
▁백악관	-1204
▁처음으로	-1205
▁빈	-1206
▁기업	-1207
동안	-1208
▁공동	-1209
▁재판	-1210
▁활동	-1211
으로부터	-1212
캘리포니아	-1213
▁경쟁	-1214
▁불구	-1215
▁판결	-1216
▁Kore	-1217
▁삼	-1218
군이	-1219
▁규모	-1220
▁충돌	-1221
됐으며	-1222
마스	-1223
▁버락	-1224
▁출신	-1225
▁타임	-1226
전히	-1227
▁결혼	-1228
▁국경	-1229
▁불법	-1230
하도록	-1231
▁밤	-1232
군은	-1233
▁CNN	-1234
▁지난달	-1235
▁2007	-1236
▁눈	-1237
대한	-1238
▁남아	-1239
▁수감	-1240
카에다	-1241
▁198	-1242
▁돈	-1243
기도	-1244
▁수백	-1245
▁투자	-1246
샤라프	-1247
자들의	-1248
▁이탈리아	-1249
년에	-1250
가지	-1251
▁28	-1252
▁보내	-1253
▁소비	-1254
니스탄	-1255
▁앞으로	-1256
쳤다	-1257
▁금지	-1258
▁통과	-1259
합니다	-1260
▁있지만	-1261
심을	-1262
▁야당	-1263
▁헌	-1264
▁re	-1265
▁밝히	-1266
▁베이징	-1267
들도	-1268
사인	-1269
▁관한	-1270
인들이	-1271
▁̋	-1272
▁많이	-1273
사이트	-1274
센트	-1275
했을	-1276
▁레이	-1277
▁주둔	-1278
▁호텔	-1279
▁이상의	-1280
제를	-1281
▁AP	-1282
▁공급	-1283
▁참가	-1284
▁미국은	-1285
▁않는다	-1286
▁샤	-1287
▁만에	-1288
▁전망	-1289
ce	-1290
▁환경	-1291
▁희생	-1292
이라는	-1293
▁북한은	-1294
▁헬	-1295
▁부족	-1296
▁이전	-1297
▁보인다	-1298
ig	-1299
▁늘	-1300
▁참여	-1301
▁캘리포니아	-1302
▁운영	-1303
▁유지	-1304
▁좋은	-1305
▁폭력	-1306
▁못했다	-1307
▁이들은	-1308
▁즉	-1309
▁슈	-1310
▁퍼	-1311
베이	-1312
▁지방	-1313
▁미사일	-1314
▁콘	-1315
2005	-1316
▁라이	-1317
▁심각	-1318
▁무샤라프	-1319
▁사망했다	-1320
▁하루	-1321
▁감소	-1322
▁사우	-1323
▁문제를	-1324
규모	-1325
▁없이	-1326
▁출연	-1327
▁사람들은	-1328
안에	-1329
인의	-1330
▁대상	-1331
▁아무	-1332
가니스탄	-1333
▁오바마는	-1334
▁움	-1335
▁수사	-1336
니는	-1337
▁약속	-1338
▁친구	-1339
▁귀	-1340
▁동영	-1341
▁알카에다	-1342
ot	-1343
우리는	-1344
▁코리아	-1345
artic	-1346
감을	-1347
▁범죄	-1348
▁이루	-1349
졌다고	-1350
▁회담을	-1351
article	-1352
▁다이	-1353
▁h	-1354
▁몸	-1355
스터	-1356
치가	-1357
▁그를	-1358
원들이	-1359
un	-1360
▁낮	-1361
것은	-1362
▁바이	-1363
▁역사	-1364
▁우승	-1365
▁최초	-1366
et	-1367
▁구성	-1368
▁이곳	-1369
50	-1370
대에	-1371
▁알려졌다	-1372
드의	-1373
사회	-1374
어진	-1375
▁일으	-1376
▁스페인	-1377
▁중요한	-1378
▁불구하고	-1379
▁엄	-1380
라도	-1381
원에	-1382
가를	-1383
▁움직	-1384
,000	-1385
▁미국과	-1386
▁어린이	-1387
▁아프가니스탄	-1388
▁공격을	-1389
▁박사는	-1390
▁말했습니다	-1391
르코	-1392
세의	-1393
트는	-1394
▁번째	-1395
▁지진	-1396
자들에게	-1397
▁갈	-1398
▁독립	-1399
원들은	-1400
id	-1401
▁것입니다	-1402
▁웹사이트	-1403
▁너	-1404
▁징	-1405
▁이런	-1406
▁이야	-1407
ec	-1408
▁역할	-1409
▁인용	-1410
▁장관	-1411
ur	-1412
▁응	-1413
▁반면	-1414
▁변화	-1415
▁매케인	-1416
▁사망한	-1417
하자	-1418
▁남성	-1419
▁for	-1420
▁놀	-1421
▁맡	-1422
▁가자	-1423
▁폐쇄	-1424
▁봉	-1425
▁대사	-1426
▁직접	-1427
하던	-1428
▁내려	-1429
▁전투	-1430
리에서	-1431
▁&	-1432
가가	-1433
기의	-1434
주는	-1435
▁발사	-1436
▁부토	-1437
▁성명을	-1438
리다	-1439
부가	-1440
후보	-1441
▁기소	-1442
▁유권	-1443
▁말을	-1444
▁안보	-1445
▁전에	-1446
▁사망했다고	-1447
’’	-1448
▁앤	-1449
▁퇴	-1450
관계	-1451
기구	-1452
▁마을	-1453
▁목격	-1454
▁서비	-1455
IN	-1456
’(	-1457
▁짐	-1458
▁2005.08	-1459
즈는	-1460
▁정도	-1461
▁특별	-1462
나라당	-1463
▁딸	-1464
서를	-1465
▁추정	-1466
▁발생했다	-1467
▁펼	-1468
▁강화	-1469
▁회의	-1470
▁모습을	-1471
▁쇼	-1472
인들은	-1473
▁힐러리	-1474
el	-1475
▁기간	-1476
만달러	-1477
▁의하면	-1478
▁조치를	-1479
▁것이라는	-1480
▁대통령과	-1481
us	-1482
▁업	-1483
대는	-1484
바논	-1485
스템	-1486
▁확보	-1487
▁혐의를	-1488
▁별	-1489
▁통신	-1490
원에서	-1491
▁알고	-1492
▁칼	-1493
▁나라	-1494
▁보다	-1495
▁중심	-1496
▁최대	-1497
▁확실	-1498
▁가능성이	-1499
2005.08	-1500
베트	-1501
였던	-1502
지구	-1503
▁신문	-1504
▁어려	-1505
▁지나	-1506
회에서	-1507
▁지역에서	-1508
▁뜻	-1509
▁60	-1510
▁높은	-1511
▁더욱	-1512
▁인권	-1513
▁전체	-1514
▁지난주	-1515
국이	-1516
▁경선	-1517
▁아버	-1518
▁인한	-1519
물을	-1520
이가	-1521
CNN	-1522
▁운동	-1523
▁플로	-1524
포인트	-1525
▁데이비	-1526
하겠다고	-1527
▁성명에서	-1528
am	-1529
▁O	-1530
▁맨	-1531
▁은	-1532
라인	-1533
▁과정	-1534
▁소유	-1535
▁계획을	-1536
▁뿐	-1537
▁웨	-1538
해서	-1539
▁강력	-1540
▁수천	-1541
▁의견	-1542
▁행사	-1543
측은	-1544
▁담당	-1545
▁콜롬	-1546
▁총리가	-1547
▁않았다고	-1548
▁n	-1549
▁개최	-1550
▁되는	-1551
▁기대	-1552
▁석유	-1553
▁문제가	-1554
▁입장을	-1555
▁황	-1556
점을	-1557
▁이뤄	-1558
▁것이며	-1559
▁우리는	-1560
SA	-1561
▁아침	-1562
▁주택	-1563
▁캠	-1564
갔다	-1565
▁중앙	-1566
▁레바논	-1567
▁전세계	-1568
스와	-1569
시킬	-1570
자들	-1571
▁인쇄	-1572
▁한나라당	-1573
▁팬	-1574
시코	-1575
▁때문	-1576
▁아니다	-1577
▁중국의	-1578
▁지역에	-1579
▁2004	-1580
▁글	-1581
두고	-1582
슨은	-1583
이를	-1584
이번	-1585
▁일반	-1586
▁믿	-1587
훈련	-1588
ay	-1589
▁겪	-1590
드가	-1591
▁마련	-1592
▁분석	-1593
리자	-1594
시켰다	-1595
▁폭탄테러	-1596
머니	-1597
▁시도	-1598
차례	-1599
▁핵무	-1600
▁화재	-1601
소를	-1602
▁거주	-1603
▁건설	-1604
▁도로	-1605
▁어제	-1606
▁위원	-1607
▁영향을	-1608
▁먹	-1609
부의	-1610
애나	-1611
트를	-1612
전에서	-1613
▁기자회견에서	-1614
▁J	-1615
▁관련된	-1616
▁필요한	-1617
▁d	-1618
라마	-1619
▁까지	-1620
▁선고	-1621
▁윌리	-1622
▁의료	-1623
멕시코	-1624
▁엔	-1625
▁생활	-1626
▁수행	-1627
▁있었다고	-1628
▁풀	-1629
전이	-1630
ad	-1631
드리	-1632
적이	-1633
▁너무	-1634
▁타고	-1635
▁억	-1636
무현	-1637
▁개인	-1638
▁선택	-1639
▁시설	-1640
▁올라	-1641
▁재개	-1642
▁해외	-1643
었으며	-1644
▁남북	-1645
▁증거	-1646
년까지	-1647
▁없었다	-1648
사와	-1649
▁선언	-1650
▁사르코	-1651
▁받을	-1652
▁실종	-1653
▁있고	-1654
▁제조	-1655
▁울	-1656
너지	-1657
스에	-1658
스크	-1659
▁교육	-1660
한다는	-1661
▁한국의	-1662
JO	-1663
▁효	-1664
는지	-1665
설명	-1666
▁남자	-1667
라이나	-1668
▁문제에	-1669
▁브라운	-1670
ri	-1671
▁남편	-1672
▁여자	-1673
-1	-1674
INS	-1675
네시아	-1676
JOINS	-1677
▁탑	-1678
텍사	-1679
품을	-1680
▁연기	-1681
▁육	-1682
▁독해	-1683
▁여객	-1684
▁노무현	-1685
▁소식통	-1686
▁콜롬비아	-1687
5%	-1688
▁둘	-1689
▁또는	-1690
그러나	-1691
▁티베트	-1692
▁독해설명	-1693
▁망	-1694
▁히	-1695
신을	-1696
▁31	-1697
▁명이	-1698
▁비용	-1699
▁사상	-1700
▁산업	-1701
▁시장	-1702
▁역시	-1703
▁타이	-1704
▁사건에	-1705
(2	-1706
▁즐	-1707
▁결국	-1708
▁나오	-1709
▁주변	-1710
▁끌	-1711
만에	-1712
▁이동	-1713
▁잔	-1714
스카	-1715
▁찾아	-1716
▁열리는	-1717
▁이유로	-1718
▁곧	-1719
명과	-1720
무를	-1721
하이	-1722
▁해안	-1723
▁2003	-1724
떻게	-1725
위에	-1726
▁수준	-1727
▁이끌	-1728
▁이제	-1729
▁주식	-1730
▁조사를	-1731
ve	-1732
▁했다고	-1733
▁g	-1734
스코	-1735
▁동영상	-1736
▁지도자	-1737
▁인도네시아	-1738
학교	-1739
ers	-1740
▁익	-1741
랐다	-1742
버트	-1743
제로	-1744
▁감염	-1745
▁의미	-1746
▁제안	-1747
▁관광객	-1748
▁총선	-1749
▁출전	-1750
▁행동	-1751
▁피해를	-1752
▁찬	-1753
▁탐	-1754
▁내년	-1755
▁제기	-1756
▁철수	-1757
▁어떻게	-1758
▁뇌	-1759
베스	-1760
▁비상	-1761
▁얼마	-1762
▁왔다	-1763
▁프리	-1764
▁플로리다	-1765
▁예정이라고	-1766
는다	-1767
이자	-1768
쪽으로	-1769
▁사람이	-1770
▁붙	-1771
만이	-1772
▁자금	-1773
▁훈련	-1774
▁비디오	-1775
▁시스템	-1776
▁정보를	-1777
▁화요일	-1778
스로	-1779
▁아마	-1780
▁샌	-1781
술을	-1782
▁구호	-1783
▁책임	-1784
▁회복	-1785
▁201	-1786
),	-1787
약을	-1788
정에	-1789
▁바로	-1790
▁전달	-1791
▁Korea	-1792
당의	-1793
세력	-1794
프는	-1795
▁제출	-1796
▁휴대	-1797
▁라이스	-1798
▁부상을	-1799
▁전문가들은	-1800
▁게임	-1801
▁일을	-1802
▁보였다	-1803
▁윌리엄	-1804
ac	-1805
▁답	-1806
ist	-1807
▁국영	-1808
▁드러	-1809
▁수십	-1810
▁음악	-1811
료를	-1812
▁기념	-1813
▁인구	-1814
무장관은	-1815
▁0	-1816
년대	-1817
월에	-1818
촬영	-1819
▁사업	-1820
▁있게	-1821
겠다는	-1822
대통령	-1823
도가	-1824
▁텍사	-1825
▁멕시코	-1826
▁2000	-1827
▁대선후보	-1828
▁자신들의	-1829
리트	-1830
스턴	-1831
▁대신	-1832
▁스티	-1833
▁제재	-1834
였다고	-1835
▁and	-1836
ht	-1837
드로	-1838
▁아프리카	-1839
▁펜	-1840
군의	-1841
당한	-1842
명에	-1843
바이	-1844
억원	-1845
치고	-1846
▁실패	-1847
▁주말	-1848
ut	-1849
▁대의	-1850
▁사라	-1851
▁앞두고	-1852
▁사망하고	-1853
▁시작했다	-1854
만을	-1855
폭탄	-1856
▁불가	-1857
▁비롯	-1858
▁중동	-1859
▁파괴	-1860
드를	-1861
일을	-1862
▁배우	-1863
▁베네	-1864
▁부분	-1865
▁추락	-1866
소에서	-1867
었습니다	-1868
부에	-1869
res	-1870
▁교통	-1871
▁그렇	-1872
▁대피	-1873
NA	-1874
어를	-1875
▁관할	-1876
신이	-1877
행을	-1878
▁따라	-1879
▁주도	-1880
▁위원회	-1881
스러	-1882
▁전화	-1883
▁제시	-1884
▁촬영	-1885
하려는	-1886
수로	-1887
▁다우	-1888
▁수용	-1889
▁지속	-1890
▁있었던	-1891
▁싸	-1892
시는	-1893
연합	-1894
일에	-1895
피언	-1896
▁가까	-1897
▁보건	-1898
▁부정	-1899
▁헌법	-1900
으로써	-1901
▁정치적	-1902
▁데이비드	-1903
나다	-1904
미국	-1905
▁감시	-1906
▁고려	-1907
▁비판	-1908
▁살고	-1909
▁시아	-1910
▁일이	-1911
▁중인	-1912
▁포기	-1913
억달러	-1914
▁대규모	-1915
▁만들어	-1916
▁상원의원	-1917
ir	-1918
사에	-1919
형을	-1920
▁부모	-1921
▁사과	-1922
▁작업	-1923
▁정확	-1924
▁던	-1925
▁붕	-1926
프트	-1927
▁국내	-1928
▁아닌	-1929
▁포함한	-1930
▁돼	-1931
▁흑	-1932
섰다	-1933
성은	-1934
으면	-1935
회에	-1936
▁교수는	-1937
▁에너지	-1938
▁의원은	-1939
)'	-1940
▁가지고	-1941
단을	-1942
디아	-1943
▁무기	-1944
▁입은	-1945
▁전해	-1946
▁희망	-1947
30	-1948
▁앨	-1949
안이	-1950
우리	-1951
▁장면	-1952
▁직원	-1953
▁탑승	-1954
▁그들의	-1955
▁이상이	-1956
ow	-1957
▁않다	-1958
▁협력	-1959
▁사망자	-1960
▁역할을	-1961
▁벨	-1962
단은	-1963
르고	-1964
실을	-1965
▁메시	-1966
▁이같은	-1967
▁지원을	-1968
▁2002	-1969
바브	-1970
성에	-1971
com	-1972
바브웨	-1973
▁아니라	-1974
▁여전히	-1975
움을	-1976
ver	-1977
▁교도	-1978
▁붕괴	-1979
▁안에	-1980
▁특히	-1981
▁가자지구	-1982
▁e	-1983
▁송	-1984
리그	-1985
위원	-1986
정한	-1987
▁만나	-1988
▁수입	-1989
챔피언	-1990
▁이루어	-1991
▁대부분의	-1992
겠다	-1993
년이	-1994
인지	-1995
▁LA	-1996
▁운전	-1997
▁전국	-1998
▁조치	-1999
▁토론	-2000
▁당국이	-2001
▁월요일	-2002
▁지역의	-2003
▁벗	-2004
고를	-2005
들로	-2006
자회담	-2007
▁로버트	-2008
▁말한다	-2009
▁미국인	-2010
ap	-2011
만원	-2012
▁작은	-2013
스에서	-2014
시키는	-2015
▁부통령	-2016
▁관계자가	-2017
방송	-2018
시켜	-2019
▁되어	-2020
▁저지	-2021
▁홍콩	-2022
그는	-2023
많은	-2024
▁US	-2025
▁기다	-2026
▁승객	-2027
▁시험	-2028
▁열차	-2029
▁최종	-2030
▁심각한	-2031
▁나타났다	-2032
▁결의	-2033
▁나는	-2034
▁의사	-2035
▁푸틴	-2036
▁197	-2037
▁온라인	-2038
im	-2039
▁젊	-2040
대표	-2041
보는	-2042
시설	-2043
어들	-2044
.11	-2045
▁스미	-2046
▁축구	-2047
▁일본의	-2048
▁한국인	-2049
▁생각한다	-2050
▁촉구했다	-2051
지의	-2052
▁밝힌	-2053
▁태국	-2054
장으로	-2055
▁국무부	-2056
▁겨	-2057
란드	-2058
소에	-2059
▁없을	-2060
리스트	-2061
ge	-2062
▁섬	-2063
▁좌	-2064
트로	-2065
▁과거	-2066
▁반응	-2067
▁비해	-2068
▁확산	-2069
▁짐바브웨	-2070
사건	-2071
▁난민	-2072
ment	-2073
▁발표한	-2074
▁경기에서	-2075
▁뛰	-2076
▁빨	-2077
관을	-2078
운드	-2079
운티	-2080
▁국립	-2081
▁성장	-2082
▁수는	-2083
▁암살	-2084
▁한다는	-2085
▁먼	-2086
▁휘	-2087
▁on	-2088
▁다양	-2089
▁설치	-2090
▁항의	-2091
▁마이클	-2092
▁경고했다	-2093
▁요구했다	-2094
▁씨	-2095
리노	-2096
해를	-2097
▁구속	-2098
▁상원	-2099
▁생존	-2100
▁서로	-2101
▁승인	-2102
▁오른	-2103
▁전시	-2104
▁회원	-2105
퍼센트	-2106
▁라디오	-2107
▁시위를	-2108
▁후보가	-2109
▁2009	-2110
▁곤	-2111
▁풍	-2112
상이	-2113
▁살아	-2114
▁수색	-2115
▁제한	-2116
하지만	-2117
▁민간인	-2118
▁밝혀졌다	-2119
.2	-2120
지로	-2121
▁사임	-2122
▁수가	-2123
▁정권	-2124
▁차례	-2125
▁챔피언	-2126
중인	-2127
수의	-2128
.12	-2129
▁무엇	-2130
▁수출	-2131
▁정당	-2132
▁진압	-2133
▁넣	-2134
▁흔	-2135
년의	-2136
▁발전	-2137
▁선정	-2138
▁식량	-2139
▁위반	-2140
▁치러	-2141
▁하기	-2142
▁브라질	-2143
▁이름을	-2144
▁캐나다	-2145
▁활동을	-2146
▁/	-2147
▁녹	-2148
것이	-2149
장인	-2150
지도	-2151
▁de	-2152
▁그런	-2153
▁보수	-2154
▁여름	-2155
▁정신	-2156
▁제품	-2157
op	-2158
▁낙	-2159
이로	-2160
▁가져	-2161
▁결승	-2162
▁동맹	-2163
▁명령	-2164
▁병사	-2165
▁실험	-2166
▁월드	-2167
▁전통	-2168
▁지불	-2169
▁케냐	-2170
하거나	-2171
▁달러의	-2172
▁외국인	-2173
▁대변인이	-2174
TA	-2175
가고	-2176
시킨	-2177
어는	-2178
운동	-2179
이프	-2180
일한	-2181
책을	-2182
▁같이	-2183
▁선출	-2184
▁추진	-2185
▁충분	-2186
▁경기를	-2187
▁관계를	-2188
단이	-2189
리와	-2190
▁각각	-2191
▁대법	-2192
▁심장	-2193
년부터	-2194
시키고	-2195
▁내용을	-2196
▁사무총	-2197
▁상황을	-2198
IA	-2199
어나	-2200
.06	-2201
ate	-2202
▁동료	-2203
▁소송	-2204
▁평가	-2205
▁경찰에	-2206
▁시아파	-2207
▁프라이	-2208
▁프로그램을	-2209
=2	-2210
거래	-2211
려는	-2212
르트	-2213
선거	-2214
안은	-2215
이라	-2216
▁니콜	-2217
▁성폭	-2218
▁소방	-2219
▁수석	-2220
▁시즌	-2221
▁종교	-2222
▁지명	-2223
▁페르	-2224
▁평균	-2225
▁사건을	-2226
▁우리가	-2227
▁클린턴은	-2228
ch	-2229
▁싱	-2230
계를	-2231
됐던	-2232
정이	-2233
▁사령	-2234
▁접근	-2235
▁취임	-2236
▁행위	-2237
일까지	-2238
▁결과를	-2239
▁상원의원은	-2240
기와	-2241
르게	-2242
오는	-2243
▁것과	-2244
▁경험	-2245
▁아르	-2246
▁알리	-2247
▁업체	-2248
▁총격	-2249
▁취소	-2250
무장관	-2251
지니아	-2252
▁감독은	-2253
▁여론조사	-2254
▁왔	-2255
인인	-2256
500	-2257
▁st	-2258
▁나온	-2259
▁매케	-2260
▁센터	-2261
▁않아	-2262
▁지하	-2263
장관은	-2264
▁500	-2265
국가	-2266
장과	-2267
프로	-2268
▁받는	-2269
▁비밀	-2270
▁있기	-2271
▁과정에서	-2272
▁대통령을	-2273
um	-2274
세인	-2275
스럽	-2276
▁동부	-2277
▁벌어	-2278
▁에드	-2279
▁젊은	-2280
▁파병	-2281
명으로	-2282
▁관심을	-2283
▁중국은	-2284
▁지지를	-2285
▁행정부	-2286
▁칸	-2287
ion	-2288
▁가지	-2289
▁게이	-2290
▁공연	-2291
▁동의	-2292
▁마감	-2293
▁무역	-2294
▁밖에	-2295
▁악화	-2296
만명의	-2297
▁견	-2298
우주	-2299
학생	-2300
▁80	-2301
▁걸쳐	-2302
▁사는	-2303
▁스피	-2304
▁에이	-2305
▁국회의	-2306
▁이라크에서	-2307
▁쉽	-2308
리핀	-2309
엘라	-2310
▁그린	-2311
▁신용	-2312
▁파견	-2313
무부는	-2314
▁사건이	-2315
▁후보는	-2316
도의	-2317
적을	-2318
▁연료	-2319
▁작품	-2320
▁중에	-2321
지에서	-2322
2007	-2323
ak	-2324
되기	-2325
진이	-2326
▁대비	-2327
▁마무	-2328
▁문화	-2329
▁보유	-2330
▁사랑	-2331
▁임명	-2332
▁주재	-2333
▁미국에서	-2334
▁벤	-2335
▁홀	-2336
로는	-2337
소의	-2338
앞서	-2339
ill	-2340
▁개혁	-2341
▁그룹	-2342
▁나토	-2343
▁뜻을	-2344
▁설립	-2345
▁지켜	-2346
▁집중	-2347
▁허용	-2348
▁그들이	-2349
▁수요일	-2350
▁대상으로	-2351
▁슬	-2352
▁구제	-2353
▁넘어	-2354
▁논쟁	-2355
▁돈을	-2356
▁유죄	-2357
자들과	-2358
2006	-2359
▁The	-2360
▁경찰서	-2361
▁그녀의	-2362
▁사이에	-2363
▁핵무기	-2364
▁이에앞서	-2365
▁관계자들은	-2366
명박	-2367
이란	-2368
▁배치	-2369
▁분명	-2370
▁사퇴	-2371
▁아내	-2372
▁통제	-2373
▁바이러	-2374
▁대해서는	-2375
경찰	-2376
리우	-2377
었고	-2378
진을	-2379
▁공습	-2380
▁되고	-2381
▁바란	-2382
▁전반	-2383
▁깨	-2384
▁잉	-2385
관리	-2386
끄는	-2387
니스	-2388
어도	-2389
일간	-2390
회는	-2391
▁EU	-2392
▁교황	-2393
▁조건	-2394
▁벌이고	-2395
▁알려진	-2396
▁총리의	-2397
▁변호사는	-2398
60	-2399
기간	-2400
물이	-2401
비를	-2402
회가	-2403
▁혼란	-2404
▁환영	-2405
시키기	-2406
▁발견된	-2407
▁상대로	-2408
-0	-2409
▁옮	-2410
▁텍사스	-2411
▁기록했다	-2412
메라	-2413
▁Ch	-2414
▁개선	-2415
▁대중	-2416
▁두고	-2417
▁선포	-2418
▁수단	-2419
▁이래	-2420
버그	-2421
워드	-2422
▁그래	-2423
▁로켓	-2424
▁상대	-2425
▁서부	-2426
▁사람은	-2427
▁승리를	-2428
▁정부에	-2429
▁사람들을	-2430
▁경영	-2431
▁대응	-2432
▁야후	-2433
▁전역	-2434
▁어머니	-2435
▁이명박	-2436
▁흥	-2437
카고	-2438
트의	-2439
.10	-2440
▁남한	-2441
▁복귀	-2442
▁블로	-2443
▁사형	-2444
▁신화	-2445
졌으며	-2446
통신은	-2447
▁북한에	-2448
▁시리아	-2449
▁합니다	-2450
▁밝혔습니다	-2451
▁상원의원이	-2452
구를	-2453
산을	-2454
수지	-2455
ter	-2456
▁구매	-2457
▁미래	-2458
▁북핵	-2459
▁저장	-2460
▁적이	-2461
▁좋아	-2462
▁크게	-2463
▁벌였다	-2464
▁아직까지	-2465
▁찰	-2466
나지	-2467
화가	-2468
▁고용	-2469
▁고통	-2470
▁로마	-2471
▁이집	-2472
일부터	-2473
밖에	-2474
지인	-2475
▁동성	-2476
▁이로	-2477
▁아니라고	-2478
▁폭력사태	-2479
▁l	-2480
군과	-2481
상의	-2482
▁NA	-2483
▁같다	-2484
▁양국	-2485
▁임시	-2486
이라크	-2487
▁검찰은	-2488
▁대사관	-2489
▁사이트	-2490
(3	-2491
.7	-2492
FA	-2493
민주	-2494
▁90	-2495
▁다르	-2496
▁등의	-2497
▁연결	-2498
▁집권	-2499
▁표현	-2500
▁해야	-2501
▁때까지	-2502
▁마이크	-2503
▁베네수	-2504
▁위해서는	-2505
20	-2506
리지	-2507
회사	-2508
▁관해	-2509
▁따른	-2510
▁마크	-2511
▁이해	-2512
▁효과	-2513
▁결정을	-2514
▁민주주의	-2515
▁홈	-2516
▁부근	-2517
▁인간	-2518
▁해리	-2519
▁달러를	-2520
▁목요일	-2521
▁받아들	-2522
▁치료를	-2523
되었다고	-2524
▁사르코지	-2525
BS	-2526
▁갑	-2527
려고	-2528
르드	-2529
진은	-2530
▁UN	-2531
▁검토	-2532
▁고속	-2533
▁뉴스	-2534
▁모델	-2535
▁받게	-2536
▁이틀	-2537
▁인수	-2538
▁최악	-2539
▁쿠바	-2540
트에서	-2541
▁다양한	-2542
▁있다며	-2543
▁회장은	-2544
로서	-2545
이어	-2546
▁기관	-2547
▁높아	-2548
▁단계	-2549
▁매년	-2550
▁펜실	-2551
▁해당	-2552
▁허리	-2553
였으며	-2554
▁못하고	-2555
▁비행기	-2556
▁2001	-2557
▁공격으로	-2558
▁깊	-2559
데이	-2560
리로	-2561
식이	-2562
▁등을	-2563
▁분야	-2564
▁분쟁	-2565
▁살인	-2566
▁집행	-2567
▁시카고	-2568
▁무장단체	-2569
▁프라이머	-2570
oo	-2571
se	-2572
로를	-2573
자에	-2574
▁강한	-2575
▁바다	-2576
▁스트	-2577
▁자체	-2578
▁재정	-2579
▁전자	-2580
▁진출	-2581
▁도움을	-2582
▁도움이	-2583
▁계획이다	-2584
▁보고서는	-2585
도에	-2586
르타	-2587
▁광고	-2588
▁근처	-2589
▁보좌	-2590
▁사항	-2591
▁아파	-2592
▁징역	-2593
점에서	-2594
하기도	-2595
▁강력한	-2596
▁일요일	-2597
▁자신을	-2598
▁무장세력	-2599
ID	-2600
▁능	-2601
▁린	-2602
리즈	-2603
차를	-2604
▁선박	-2605
▁아랍	-2606
▁압둘	-2607
▁지시	-2608
▁지휘	-2609
▁포르	-2610
▁방법을	-2611
▁수많은	-2612
▁타임즈	-2613
▁필리핀	-2614
▁윈	-2615
북한	-2616
비행	-2617
측이	-2618
▁못한	-2619
▁아바	-2620
▁파업	-2621
▁이끄는	-2622
▁정부와	-2623
▁하마스	-2624
▁버지니아	-2625
▁둔	-2626
사고	-2627
제가	-2628
표를	-2629
▁강제	-2630
▁구체	-2631
▁받지	-2632
▁입원	-2633
▁자녀	-2634
▁처리	-2635
▁향해	-2636
▁확신	-2637
▁사실이	-2638
▁이라크에	-2639
▁론	-2640
경기	-2641
어가	-2642
키는	-2643
▁70	-2644
▁대만	-2645
▁선두	-2646
▁수익	-2647
▁있지	-2648
▁한반	-2649
스러운	-2650
▁언급했다	-2651
▁베네수엘라	-2652
80	-2653
위로	-2654
이드	-2655
▁In	-2656
▁공산	-2657
▁아메	-2658
▁힘들	-2659
자에게	-2660
▁내렸다	-2661
▁후보를	-2662
▁주지사는	-2663
."	-2664
EA	-2665
ew	-2666
▁컨	-2667
배를	-2668
이의	-2669
▁근거	-2670
▁긴급	-2671
▁막기	-2672
▁비슷	-2673
▁빠져	-2674
▁시행	-2675
▁전략	-2676
었지만	-2677
▁con	-2678
▁밝히지	-2679
▁협상을	-2680
▁발견했다	-2681
▁요청했다	-2682
다면	-2683
법을	-2684
임스	-2685
▁관심	-2686
▁나머	-2687
▁제거	-2688
하이오	-2689
▁상황이	-2690
▁받았다고	-2691
▁맺	-2692
성의	-2693
율을	-2694
자이	-2695
▁소재	-2696
▁사우디	-2697
▁영국의	-2698
▁플레이	-2699
▁오바마가	-2700
다른	-2701
당은	-2702
상태	-2703
▁논란	-2704
▁목숨	-2705
▁승무	-2706
▁증시	-2707
되면서	-2708
하였다	-2709
▁달하는	-2710
▁성폭행	-2711
▁숨지고	-2712
▁잭	-2713
국인	-2714
없이	-2715
줬다	-2716
피아	-2717
oin	-2718
▁도쿄	-2719
▁만든	-2720
▁어느	-2721
▁에어	-2722
가들은	-2723
해왔다	-2724
▁국방부	-2725
▁다음달	-2726
▁되었다	-2727
▁미군이	-2728
▁1000	-2729
co	-2730
상에	-2731
식에	-2732
직을	-2733
▁개의	-2734
▁고객	-2735
▁둘러	-2736
▁만큼	-2737
▁일자	-2738
▁주의	-2739
글랜드	-2740
▁북한을	-2741
▁예상된다	-2742
▁정상회담	-2743
▁주장하고	-2744
.8	-2745
▁찍	-2746
가로	-2747
겼다	-2748
년을	-2749
연구	-2750
.09	-2751
▁어떠	-2752
▁오래	-2753
▁제외	-2754
▁주한	-2755
여명이	-2756
으로서	-2757
▁가능한	-2758
▁미국을	-2759
▁비난을	-2760
▁작업을	-2761
▁오하이오	-2762
▁사람들에게	-2763
.3	-2764
▁묘	-2765
결을	-2766
이션	-2767
즈니	-2768
all	-2769
▁고등	-2770
▁노조	-2771
▁신고	-2772
▁착륙	-2773
▁여부를	-2774
▁움직임	-2775
▁정도로	-2776
▁지역을	-2777
▁이라크의	-2778
.9	-2779
BI	-2780
ia	-2781
oc	-2782
단의	-2783
생활	-2784
치의	-2785
▁35	-2786
▁검사	-2787
▁마약	-2788
▁분리	-2789
▁비교	-2790
▁잘못	-2791
▁출발	-2792
대에서	-2793
된다고	-2794
롤라이나	-2795
ul	-2796
▁솔	-2797
▁쉬	-2798
▁졸	-2799
나이	-2800
▁끝에	-2801
▁대회	-2802
▁되지	-2803
▁세금	-2804
▁인물	-2805
▁입고	-2806
▁케이	-2807
▁했던	-2808
▁후에	-2809
전으로	-2810
▁300	-2811
▁말레이	-2812
▁병력을	-2813
▁사진을	-2814
▁여성이	-2815
▁적어도	-2816
였습니다	-2817
폭탄테러	-2818
▁발생했다고	-2819
.4	-2820
▁냉	-2821
▁탁	-2822
경을	-2823
기지	-2824
러는	-2825
브라	-2826
소가	-2827
하메	-2828
▁나와	-2829
▁모른	-2830
▁보낸	-2831
▁하며	-2832
▁사람들의	-2833
RC	-2834
롭게	-2835
상은	-2836
화에	-2837
▁계약	-2838
▁넘는	-2839
▁예측	-2840
▁의혹	-2841
말리아	-2842
▁것이라	-2843
▁대표는	-2844
▁어떠한	-2845
uc	-2846
▁낸	-2847
▁십	-2848
같이	-2849
도는	-2850
리기	-2851
사한	-2852
art	-2853
▁공공	-2854
▁누구	-2855
▁수니	-2856
▁이달	-2857
▁접촉	-2858
▁진술	-2859
▁하마	-2860
리노이	-2861
만명이	-2862
하지는	-2863
▁목숨을	-2864
▁최고의	-2865
(1	-2866
▁습	-2867
▁왜	-2868
개발	-2869
내는	-2870
라스	-2871
보를	-2872
▁증언	-2873
▁출마	-2874
▁폭풍	-2875
▁병원에	-2876
▁유명한	-2877
▁유일한	-2878
▁쿠르드	-2879
▁결정했다	-2880
(4	-2881
..	-2882
TO	-2883
▁삶	-2884
이기	-2885
▁스포	-2886
▁시상	-2887
▁압박	-2888
▁인사	-2889
▁자치	-2890
▁장기	-2891
됩니다	-2892
▁가졌다	-2893
▁발생해	-2894
▁사이클	-2895
▁시간을	-2896
▁정부를	-2897
▁듯	-2898
량을	-2899
스캐	-2900
친구	-2901
트가	-2902
▁거절	-2903
▁군인	-2904
▁근무	-2905
▁내가	-2906
▁무너	-2907
▁시청	-2908
▁아주	-2909
▁사건은	-2910
▁사고가	-2911
▁올랐다	-2912
▁이들의	-2913
▁이란의	-2914
▁질문에	-2915
▁끊	-2916
▁펠	-2917
석을	-2918
▁대기	-2919
▁불안	-2920
▁수치	-2921
▁유로	-2922
▁자연	-2923
▁해군	-2924
▁사고로	-2925
▁언론은	-2926
▁완전히	-2927
▁이야기	-2928
▁최초의	-2929
▁주민들이	-2930
▁지도자인	-2931
▁득	-2932
▁묻	-2933
소는	-2934
▁규정	-2935
▁기후	-2936
▁알렉	-2937
▁일간	-2938
▁조종	-2939
▁대해서	-2940
▁보여주	-2941
▁서비스	-2942
▁한국은	-2943
지역에서	-2944
되었습니다	-2945
em	-2946
▁늦	-2947
▁술	-2948
가인	-2949
국을	-2950
르의	-2951
안보	-2952
어난	-2953
주일	-2954
▁경매	-2955
▁목소	-2956
▁소녀	-2957
▁아카	-2958
▁위성	-2959
▁의심	-2960
▁총재	-2961
이지만	-2962
▁방안을	-2963
▁시간이	-2964
▁다이애나	-2965
▁소말리아	-2966
▁합의했다	-2967
▁과학자들은	-2968
경제	-2969
대와	-2970
들어	-2971
량의	-2972
량이	-2973
로스	-2974
마다	-2975
비치	-2976
위가	-2977
티나	-2978
oun	-2979
▁가질	-2980
▁것인	-2981
▁동원	-2982
▁바람	-2983
▁적용	-2984
▁청소	-2985
월부터	-2986
▁나왔다	-2987
▁미군은	-2988
▁블로그	-2989
▁카운티	-2990
▁프로젝	-2991
▁않았지만	-2992
▁삭	-2993
그룹	-2994
아니	-2995
▁가스	-2996
▁경비	-2997
▁동결	-2998
▁등록	-2999
▁숨진	-3000
▁신뢰	-3001
▁평양	-3002
▁그것은	-3003
▁정책을	-3004
▁중국이	-3005
▁차베스	-3006
▁휴대폰	-3007
군을	-3008
서부	-3009
세가	-3010
위는	-3011
▁간의	-3012
▁개정	-3013
▁기준	-3014
▁머물	-3015
일랜드	-3016
했는데	-3017
5000	-3018
▁pro	-3019
▁게이츠	-3020
▁목표로	-3021
▁방문한	-3022
▁보이는	-3023
▁반대하는	-3024
▁걱	-3025
도시	-3026
되며	-3027
렀다	-3028
방을	-3029
웠다	-3030
▁be	-3031
▁기억	-3032
▁들고	-3033
▁세르	-3034
▁존재	-3035
▁카르	-3036
▁트럭	-3037
▁해병	-3038
하다는	-3039
하라고	-3040
한다면	-3041
▁관련해	-3042
▁그리스	-3043
▁미국에	-3044
▁아무런	-3045
▁우려를	-3046
▁확인했다	-3047
▁말레이시아	-3048
스캐롤라이나	-3049
EC	-3050
▁며	-3051
골을	-3052
신의	-3053
아이	-3054
항공	-3055
해진	-3056
▁기상	-3057
▁느끼	-3058
▁물론	-3059
▁성화	-3060
▁아베	-3061
▁없어	-3062
▁여왕	-3063
▁이민	-3064
▁장난	-3065
▁즉각	-3066
▁집단	-3067
▁청와	-3068
▁법안을	-3069
▁판결을	-3070
위원회는	-3071
.5	-3072
▁듣	-3073
개를	-3074
베즈	-3075
세로	-3076
호를	-3077
.01	-3078
▁St	-3079
▁놓고	-3080
▁리버	-3081
▁병력	-3082
▁수술	-3083
▁순간	-3084
▁실업	-3085
▁이송	-3086
▁항상	-3087
▁행정	-3088
▁힐튼	-3089
▁의견을	-3090
▁일리노이	-3091
DA	-3092
▁빅	-3093
▁옷	-3094
당이	-3095
동부	-3096
리프	-3097
문이	-3098
장관	-3099
▁박물	-3100
▁부동	-3101
▁씨는	-3102
▁임무	-3103
▁자주	-3104
▁적절	-3105
2008	-3106
▁내무부	-3107
▁마드리	-3108
▁사무실	-3109
▁숨졌다	-3110
▁최악의	-3111
결과	-3112
한을	-3113
▁근로	-3114
▁만약	-3115
▁신청	-3116
▁오픈	-3117
▁저녁	-3118
▁투입	-3119
▁규모의	-3120
▁대의원	-3121
▁필요가	-3122
▁허리케인	-3123
)/	-3124
.6	-3125
nn	-3126
▁굴	-3127
▁좀	-3128
▁흡	-3129
▁32	-3130
▁고래	-3131
▁도중	-3132
▁법률	-3133
▁블레	-3134
▁상징	-3135
▁세력	-3136
▁아들	-3137
▁여기	-3138
▁올메	-3139
▁유전	-3140
▁점을	-3141
▁정말	-3142
▁주는	-3143
▁하원의	-3144
▁밝혀지지	-3145
▁델	-3146
사로	-3147
트에	-3148
협회	-3149
▁국회	-3150
▁나가	-3151
▁베컴	-3152
▁수반	-3153
▁약물	-3154
았다고	-3155
지수는	-3156
▁수니파	-3157
▁이란이	-3158
▁이수지	-3159
▁있음을	-3160
▁판사는	-3161
▁크리스토	-3162
ks	-3163
어야	-3164
역을	-3165
트리	-3166
The	-3167
ity	-3168
▁FA	-3169
▁동시	-3170
▁물질	-3171
▁생물	-3172
▁야생	-3173
▁얼굴	-3174
▁연속	-3175
▁작년	-3176
▁주최	-3177
▁피터	-3178
▁한미	-3179
났다고	-3180
리우드	-3181
아니라	-3182
join	-3183
▁연설을	-3184
▁입었다	-3185
▁전까지	-3186
▁카메라	-3187
▁계속해서	-3188
TV	-3189
▁돕	-3190
▁멸	-3191
▁빙	-3192
기관	-3193
율이	-3194
인과	-3195
ain	-3196
▁고양	-3197
▁구입	-3198
▁부패	-3199
▁불러	-3200
▁싶어	-3201
▁애플	-3202
▁억류	-3203
▁전혀	-3204
▁차기	-3205
▁찰스	-3206
▁파손	-3207
랫동안	-3208
▁곳에서	-3209
▁나머지	-3210
▁숨졌다고	-3211
▁잉글랜드	-3212
▁벽	-3213
▁잇	-3214
▁톰	-3215
▁품	-3216
데미	-3217
률이	-3218
마일	-3219
미터	-3220
평양	-3221
▁것도	-3222
▁민병	-3223
▁분노	-3224
▁새로	-3225
▁완화	-3226
▁위기	-3227
▁작성	-3228
▁죽음	-3229
▁지연	-3230
▁현대	-3231
여명의	-3232
▁스포츠	-3233
▁제임스	-3234
▁발견됐다	-3235
▁연설에서	-3236
▁오바마의	-3237
▁주민들은	-3238
▁땅	-3239
가스	-3240
분이	-3241
승을	-3242
시에	-3243
실험	-3244
▁겪고	-3245
▁라고	-3246
▁인상	-3247
▁직후	-3248
▁하이	-3249
주에서	-3250
프리카	-3251
▁의원이	-3252
만아니라	-3253
하겠다는	-3254
(6	-3255
▁년	-3256
▁덴	-3257
대원	-3258
보가	-3259
지와	-3260
ary	-3261
ort	-3262
▁is	-3263
▁기본	-3264
▁대처	-3265
▁모여	-3266
▁불과	-3267
▁블랙	-3268
라비아	-3269
▁그에게	-3270
▁시장은	-3271
▁이집트	-3272
▁갤	-3273
바는	-3274
복을	-3275
우고	-3276
▁무가	-3277
▁사살	-3278
▁슈퍼	-3279
▁알아	-3280
▁저항	-3281
▁주인	-3282
▁홍보	-3283
원으로	-3284
▁마무리	-3285
▁이들을	-3286
▁자금을	-3287
▁가능성을	-3288
▁매케인은	-3289
▁병원으로	-3290
▁선거에서	-3291
ee	-3292
▁앉	-3293
만명	-3294
만의	-3295
어스	-3296
▁대형	-3297
▁맞아	-3298
▁몇몇	-3299
▁보장	-3300
▁산불	-3301
▁열릴	-3302
▁유대	-3303
▁이르	-3304
▁자세	-3305
▁핵심	-3306
▁흑인	-3307
렸다고	-3308
▁미군의	-3309
▁보이고	-3310
▁스스로	-3311
▁원자로	-3312
▁책임을	-3313
▁후보에	-3314
▁비상사태	-3315
▁회담에서	-3316
▁테러리스트	-3317
▁괴	-3318
르크	-3319
선에	-3320
조직	-3321
포를	-3322
푸르	-3323
.5%	-3324
▁45	-3325
▁감축	-3326
▁곳에	-3327
▁노출	-3328
▁다니	-3329
▁무사	-3330
▁빠른	-3331
▁예방	-3332
▁작전	-3333
▁집계	-3334
▁처벌	-3335
▁클럽	-3336
▁확대	-3337
▁BBC	-3338
▁바란다	-3339
▁변호사	-3340
▁부시는	-3341
▁소식을	-3342
▁주장을	-3343
▁중이다	-3344
▁관리들은	-3345
▁부상했다고	-3346
▁밴	-3347
▁색	-3348
분을	-3349
산업	-3350
세기	-3351
았던	-3352
프라	-3353
▁37	-3354
▁경호	-3355
▁끌어	-3356
▁매일	-3357
▁법정	-3358
▁수정	-3359
▁스위	-3360
▁싱가	-3361
▁연장	-3362
▁의한	-3363
▁절반	-3364
▁조금	-3365
▁조작	-3366
▁지배	-3367
▁최신	-3368
▁축하	-3369
▁코소	-3370
하메드	-3371
▁196	-3372
▁대화를	-3373
▁떨어져	-3374
▁발생할	-3375
▁보냈다	-3376
▁없다는	-3377
▁위기에	-3378
▁일어난	-3379
들로부터	-3380
▁고속도로	-3381
▁민주당의	-3382
▁병원에서	-3383
▁전망이다	-3384
▁죄	-3385
▁칠	-3386
리며	-3387
리오	-3388
리키	-3389
웨이	-3390
▁강타	-3391
▁공군	-3392
▁나이	-3393
▁낮은	-3394
▁내각	-3395
▁알게	-3396
▁언제	-3397
▁오랜	-3398
▁질병	-3399
▁허가	-3400
식으로	-3401
월까지	-3402
▁말하고	-3403
▁시작된	-3404
joins	-3405
if	-3406
pp	-3407
가의	-3408
당인	-3409
보고	-3410
어로	-3411
처드	-3412
mer	-3413
▁결론	-3414
▁교수	-3415
▁목적	-3416
▁자료	-3417
▁차관	-3418
▁총기	-3419
▁카라	-3420
▁태양	-3421
▁우리의	-3422
▁부인했다	-3423
▁사망했으며	-3424
▁크리스토퍼	-3425
▁멀	-3426
▁휩	-3427
디에	-3428
체를	-3429
▁개봉	-3430
▁개입	-3431
▁노래	-3432
▁방향	-3433
▁실제	-3434
▁원조	-3435
▁표명	-3436
▁해제	-3437
▁확실히	-3438
▁아카데미	-3439
▁오랫동안	-3440
▁대통령에게	-3441
▁Korean	-3442
▁숙	-3443
개국	-3444
란시	-3445
스키	-3446
▁고든	-3447
▁네덜	-3448
▁떠나	-3449
▁멸종	-3450
▁상당	-3451
▁왕세	-3452
▁우크	-3453
▁파악	-3454
▁후반	-3455
관계를	-3456
▁그렇게	-3457
▁남성이	-3458
▁대표팀	-3459
▁행동을	-3460
▁소식통은	-3461
▁올메르트	-3462
//	-3463
▁#	-3464
▁v	-3465
내고	-3466
정은	-3467
증을	-3468
ith	-3469
▁1,	-3470
▁기반	-3471
▁두려	-3472
▁말한	-3473
▁브리	-3474
▁예비	-3475
▁원유	-3476
▁이혼	-3477
▁전력	-3478
▁주고	-3479
▁통합	-3480
ight	-3481
▁400	-3482
▁기록을	-3483
▁기자는	-3484
▁기회를	-3485
▁비슷한	-3486
▁석방을	-3487
▁스미스	-3488
▁월드컵	-3489
▁이밖에	-3490
▁후보로	-3491
베이니아	-3492
▁블로그에	-3493
tp	-3494
▁궁	-3495
▁염	-3496
▁쥐	-3497
▁획	-3498
것을	-3499
단한	-3500
만한	-3501
소로	-3502
스테	-3503
슨이	-3504
영화	-3505
위의	-3506
치로	-3507
투표	-3508
://	-3509
▁등이	-3510
▁먼저	-3511
▁바르	-3512
▁보험	-3513
▁서명	-3514
▁안정	-3515
▁외환	-3516
▁주로	-3517
겠지만	-3518
당국은	-3519
인들의	-3520
▁150	-3521
▁경제적	-3522
▁경찰과	-3523
▁노력을	-3524
▁무가베	-3525
▁위험한	-3526
▁이용해	-3527
▁집에서	-3528
▁메시지를	-3529
▁위원장은	-3530
EO	-3531
os	-3532
들린	-3533
라의	-3534
바로	-3535
체가	-3536
축구	-3537
티아	-3538
하우	-3539
Tot	-3540
cnn	-3541
▁대체	-3542
▁못할	-3543
▁배럴	-3544
▁사례	-3545
▁속에	-3546
▁얻은	-3547
▁연루	-3548
▁입장	-3549
http	-3550
▁가까운	-3551
▁실시된	-3552
▁일본은	-3553
▁있는데	-3554
▁테러로	-3555
Total	-3556
▁세르비아	-3557
▁있었으며	-3558
(5	-3559
2&	-3560
▁윤	-3561
▁혈	-3562
▁혹	-3563
디어	-3564
분의	-3565
우는	-3566
점에	-3567
정보	-3568
지게	-3569
asp	-3570
cat	-3571
▁##	-3572
▁나무	-3573
▁내부	-3574
▁늘어	-3575
▁망명	-3576
▁보이	-3577
▁북극	-3578
▁아기	-3579
▁지급	-3580
▁찬성	-3581
▁총을	-3582
▁태풍	-3583
됐지만	-3584
쳤다고	-3585
=22&	-3586
code	-3587
▁들어가	-3588
▁리처드	-3589
▁문제로	-3590
▁블레어	-3591
▁알려져	-3592
▁일부는	-3593
▁임무를	-3594
▁후보의	-3595
▁사용하는	-3596
▁차지했다	-3597
▁펜실베이니아	-3598
10	-3599
3)	-3600
▁Y	-3601
제는	-3602
▁벌인	-3603
▁진입	-3604
▁피랍	-3605
▁스티븐	-3606
▁얼마나	-3607
▁출신의	-3608
▁후세인	-3609
▁1999	-3610
▁NASA	-3611
▁r	-3612
▁봤	-3613
▁헨	-3614
통신	-3615
항을	-3616
▁가정	-3617
▁걱정	-3618
▁그중	-3619
▁놀라	-3620
▁당한	-3621
▁대북	-3622
▁분위	-3623
▁빨리	-3624
▁손을	-3625
▁쇼핑	-3626
▁스테	-3627
▁엄마	-3628
▁인기	-3629
▁파리	-3630
▁해변	-3631
돌리자	-3632
인으로	-3633
자들에	-3634
▁가격이	-3635
▁결과가	-3636
▁구성된	-3637
▁기자가	-3638
▁나섰다	-3639
▁스티브	-3640
▁영화를	-3641
▁위해서	-3642
▁이들이	-3643
▁정확한	-3644
함으로써	-3645
▁자신들이	-3646
2)	-3647
드와	-3648
보호	-3649
자력	-3650
재판	-3651
청은	-3652
▁국왕	-3653
▁라스	-3654
▁추방	-3655
▁표시	-3656
환으로	-3657
▁관리는	-3658
▁법원은	-3659
▁공화당의	-3660
▁사무총장은	-3661
▁우크라이나	-3662
▁낳	-3663
▁래	-3664
마크	-3665
면을	-3666
자금	-3667
주를	-3668
하길	-3669
▁대답	-3670
▁아부	-3671
▁이행	-3672
▁조정	-3673
▁크로	-3674
▁하게	-3675
▁확정	-3676
사에서	-3677
▁동성애	-3678
▁살해한	-3679
▁아직도	-3680
▁않다고	-3681
▁최소한	-3682
▁추가로	-3683
▁나타냈다	-3684
▁자살폭탄테러	-3685
금융	-3686
동물	-3687
라늄	-3688
무역	-3689
연맹	-3690
평화	-3691
ant	-3692
est	-3693
ign	-3694
▁가는	-3695
▁기울	-3696
▁내린	-3697
▁며칠	-3698
▁이웃	-3699
▁장애	-3700
▁케네	-3701
▁형태	-3702
지역에	-3703
▁문제는	-3704
▁발언을	-3705
▁불만을	-3706
▁사람들	-3707
▁웨스트	-3708
▁이것은	-3709
▁줄어들	-3710
▁회담은	-3711
▁회원국	-3712
▁이야기를	-3713
ational	-3714
▁끼	-3715
격이	-3716
기고	-3717
니가	-3718
랭킹	-3719
수도	-3720
짜리	-3721
출을	-3722
▁기독	-3723
▁기타	-3724
▁네팔	-3725
▁무시	-3726
▁애완	-3727
▁최저	-3728
▁파타	-3729
체스터	-3730
▁FBI	-3731
▁거대한	-3732
▁사용할	-3733
▁상황에	-3734
▁소프트	-3735
▁수술을	-3736
▁실시한	-3737
▁압력을	-3738
▁엘리자	-3739
▁전쟁을	-3740
▁테러를	-3741
▁토요일	-3742
▁하워드	-3743
▁행위를	-3744
▁상황에서	-3745
▁콘돌리자	-3746
고한	-3747
다가	-3748
부와	-3749
분기	-3750
비가	-3751
슬러	-3752
워크	-3753
점이	-3754
▁""	-3755
▁그와	-3756
▁대화	-3757
▁물리	-3758
▁반발	-3759
▁방해	-3760
▁자국	-3761
▁작가	-3762
▁점령	-3763
▁증명	-3764
▁지키	-3765
더라도	-3766
드에서	-3767
orth	-3768
outh	-3769
▁검사를	-3770
▁변화를	-3771
▁투표를	-3772
▁노대통령	-3773
▁대통령에	-3774
DC	-3775
▁꺾	-3776
▁킹	-3777
가에	-3778
긍정	-3779
라가	-3780
오와	-3781
제에	-3782
티는	-3783
our	-3784
▁고문	-3785
▁교체	-3786
▁내에	-3787
▁노벨	-3788
▁순찰	-3789
▁응답	-3790
▁인종	-3791
▁장악	-3792
지면서	-3793
▁참석한	-3794
▁보고서를	-3795
▁않는다고	-3796
▁신화통신은	-3797
▁-	-3798
▁꾸	-3799
▁혁	-3800
나와	-3801
되면	-3802
르토	-3803
비는	-3804
사람	-3805
준다	-3806
▁36	-3807
▁김정	-3808
▁쉽게	-3809
▁시티	-3810
▁음식	-3811
▁인디	-3812
▁임신	-3813
▁즉시	-3814
▁페더	-3815
▁한번	-3816
하려고	-3817
▁계획이	-3818
▁기술을	-3819
▁요구한	-3820
▁용의자	-3821
▁의장은	-3822
▁이번이	-3823
▁이전에	-3824
▁준비가	-3825
▁총격을	-3826
▁시작됐다	-3827
▁요구하는	-3828
40	-3829
▁롤	-3830
▁첼	-3831
드르	-3832
이던	-3833
전의	-3834
호가	-3835
▁몰아	-3836
▁실망	-3837
▁애틀	-3838
▁연락	-3839
▁오르	-3840
▁자택	-3841
▁직면	-3842
관들은	-3843
플레이	-3844
▁강하게	-3845
▁것처럼	-3846
▁모스크	-3847
▁외무부	-3848
▁요구를	-3849
▁차량을	-3850
▁한국과	-3851
▁현장에	-3852
란시스코	-3853
▁유럽연합	-3854
▁조사하고	-3855
ld	-3856
ly	-3857
▁콩	-3858
네이	-3859
배우	-3860
정책	-3861
타임	-3862
투갈	-3863
ine	-3864
▁감행	-3865
▁다가	-3866
▁단지	-3867
▁되면	-3868
▁만족	-3869
▁방어	-3870
▁복용	-3871
▁운행	-3872
▁철회	-3873
▁캠프	-3874
사들이	-3875
상으로	-3876
질랜드	-3877
하라는	-3878
▁경기에	-3879
▁그녀가	-3880
▁대사는	-3881
▁보이지	-3882
▁불가능	-3883
▁여행객	-3884
▁여행을	-3885
▁테러가	-3886
▁한반도	-3887
▁서비스를	-3888
▁수천명의	-3889
▁약속했다	-3890
▁필요하다	-3891
▁할리우드	-3892
▁셰	-3893
▁옆	-3894
계획	-3895
글라	-3896
일린	-3897
한국	-3898
한이	-3899
ace	-3900
▁MS	-3901
▁가수	-3902
▁구글	-3903
▁긴장	-3904
▁끝난	-3905
▁사기	-3906
▁전기	-3907
▁증권	-3908
▁프레	-3909
▁하다	-3910
▁협조	-3911
▁화산	-3912
▁활용	-3913
때문에	-3914
스럽게	-3915
적이고	-3916
▁론스타	-3917
▁발표할	-3918
▁비롯한	-3919
▁사건의	-3920
▁실제로	-3921
▁위협을	-3922
▁의사를	-3923
▁회담에	-3924
▁소프트웨	-3925
▁우주비행	-3926
▁V	-3927
▁르	-3928
과는	-3929
드에	-3930
디는	-3931
선이	-3932
셀로	-3933
시티	-3934
츠는	-3935
하마	-3936
▁가택	-3937
▁갖추	-3938
▁부문	-3939
▁와인	-3940
▁우선	-3941
▁장례	-3942
▁제이	-3943
▁크루	-3944
▁탈출	-3945
▁흔들	-3946
리포터	-3947
오바마	-3948
이었던	-3949
▁독립을	-3950
▁있는지	-3951
▁핵실험	-3952
▁대부분은	-3953
▁못했다고	-3954
▁중이라고	-3955
▁웹사이트에	-3956
ab	-3957
qu	-3958
▁몬	-3959
▁앓	-3960
▁얘	-3961
간다	-3962
미르	-3963
일로	-3964
주로	-3965
환을	-3966
▁법안	-3967
▁소지	-3968
▁신속	-3969
▁아래	-3970
▁오마	-3971
▁저는	-3972
▁집을	-3973
국으로	-3974
▁기독교	-3975
▁소비자	-3976
▁시상식	-3977
▁아르헨	-3978
▁않으면	-3979
▁이르는	-3980
▁주에서	-3981
▁1997	-3982
▁사이클론	-3983
▁없었다고	-3984
▁인터뷰를	-3985
▁공식적으로	-3986
▁멋	-3987
▁멜	-3988
▁빛	-3989
기문	-3990
랑카	-3991
바다	-3992
분에	-3993
주교	-3994
크는	-3995
ans	-3996
raq	-3997
▁at	-3998
▁기구	-3999
▁날씨	-4000
▁내놓	-4001
▁마리	-4002
▁미시	-4003
▁법적	-4004
▁보기	-4005
▁예술	-4006
▁요르	-4007
▁질문	-4008
▁토니	-4009
▁하원	-4010
▁헤럴	-4011
▁형성	-4012
▁경찰관	-4013
▁됐다고	-4014
▁매들린	-4015
▁부동산	-4016
▁속에서	-4017
▁장관이	-4018
▁체포된	-4019
▁회담이	-4020
▁1998	-4021
▁with	-4022
▁구체적인	-4023
▁뉴질랜드	-4024
▁받아들이	-4025
▁아이들을	-4026
▁지지하는	-4027
▁페르베즈	-4028
▁포함되어	-4029
▁현장에서	-4030
▁North	-4031
▁쌍	-4032
▁앙	-4033
간에	-4034
계의	-4035
렇게	-4036
령을	-4037
리언	-4038
발유	-4039
▁38	-4040
▁가입	-4041
▁관여	-4042
▁긍정	-4043
▁나달	-4044
▁메이	-4045
▁외곽	-4046
▁유세	-4047
▁이재	-4048
▁찾기	-4049
▁침해	-4050
▁해적	-4051
▁호소	-4052
사회의	-4053
왔다고	-4054
▁CBS	-4055
▁대학의	-4056
▁소송을	-4057
▁아바스	-4058
▁얻었다	-4059
▁있으나	-4060
▁중에는	-4061
▁지수는	-4062
▁했으며	-4063
▁Iraq	-4064
BA	-4065
계에	-4066
고래	-4067
단에	-4068
대학	-4069
백만	-4070
측의	-4071
트남	-4072
함을	-4073
▁강경	-4074
▁글로	-4075
▁올랐	-4076
▁완전	-4077
▁이른	-4078
▁탐사	-4079
▁화성	-4080
▁선거를	-4081
▁시리즈	-4082
▁싱가포	-4083
▁인정했다	-4084
kg	-4085
▁곡	-4086
▁빼	-4087
▁웃	-4088
▁캄	-4089
▁혜	-4090
▁흘	-4091
리드	-4092
슨의	-4093
아몬	-4094
일이	-4095
중국	-4096
처를	-4097
측에	-4098
팀은	-4099
ard	-4100
▁거짓	-4101
▁답변	-4102
▁부대	-4103
▁불참	-4104
▁상업	-4105
▁수영	-4106
▁영어	-4107
▁유니	-4108
▁으로	-4109
▁착수	-4110
▁착용	-4111
▁초기	-4112
▁협의	-4113
▁계획에	-4114
▁국제유	-4115
▁단체는	-4116
▁드라마	-4117
▁리버풀	-4118
▁스피어	-4119
▁아이를	-4120
▁에이즈	-4121
▁역사상	-4122
▁이란은	-4123
▁주인공	-4124
▁테이프	-4125
▁아이들이	-4126
▁지진으로	-4127
▁총선에서	-4128
▁타임즈는	-4129
11	-4130
시각	-4131
자기	-4132
쪽에	-4133
치지	-4134
ial	-4135
ice	-4136
▁방침	-4137
▁소요	-4138
▁유혈	-4139
▁음반	-4140
▁인하	-4141
▁적극	-4142
▁전면	-4143
▁조각	-4144
▁화장	-4145
격으로	-4146
었으나	-4147
▁DNA	-4148
▁곳으로	-4149
▁공격이	-4150
▁국가의	-4151
▁반정부	-4152
▁벌어진	-4153
▁않도록	-4154
▁영화는	-4155
▁우라늄	-4156
▁이상을	-4157
▁일어나	-4158
▁1980	-4159
▁맨체스터	-4160
▁열린우리	-4161
▁영국에서	-4162
▁요구하고	-4163
▁학생들이	-4164
프란시스코	-4165
▁엘리자베스	-4166
▁크리스마스	-4167
▁덮	-4168
거리	-4169
대전	-4170
됐고	-4171
류의	-4172
만큼	-4173
수한	-4174
십자	-4175
트릭	-4176
▁가득	-4177
▁국무	-4178
▁마카	-4179
▁바라	-4180
▁브루	-4181
▁삼성	-4182
▁서식	-4183
▁소개	-4184
▁스코	-4185
▁시신	-4186
▁어렵	-4187
▁음모	-4188
▁집에	-4189
▁화학	-4190
곳에서	-4191
년에는	-4192
래스카	-4193
▁250	-4194
▁관리가	-4195
▁권리를	-4196
▁박물관	-4197
▁발언은	-4198
▁베트남	-4199
▁사람의	-4200
▁이끌어	-4201
▁조지아	-4202
▁코소보	-4203
▁페일린	-4204
▁포함해	-4205
▁휘발유	-4206
▁때문이다	-4207
▁포르투갈	-4208
▁이스라엘의	-4209
▁액	-4210
▁훨	-4211
나의	-4212
붉은	-4213
시장	-4214
원과	-4215
원인	-4216
티모	-4217
했기	-4218
▁42	-4219
▁an	-4220
▁le	-4221
▁걸어	-4222
▁무릎	-4223
▁믿고	-4224
▁변경	-4225
▁보냈	-4226
▁시드	-4227
▁유리	-4228
▁좋지	-4229
▁치안	-4230
▁향후	-4231
▁훨씬	-4232
나이티	-4233
으로는	-4234
▁남북한	-4235
▁들었다	-4236
▁압둘라	-4237
▁최근의	-4238
함에따라	-4239
inist	-4240
▁1990	-4241
▁거주하는	-4242
▁모하메드	-4243
▁입었다고	-4244
▁주장하는	-4245
▁하락했다	-4246
▁국무장관은	-4247
ss	-4248
▁칭	-4249
▁훌	-4250
건의	-4251
공화	-4252
금이	-4253
로의	-4254
리칸	-4255
시가	-4256
업이	-4257
학자	-4258
▁th	-4259
▁가르	-4260
▁거뒀	-4261
▁검색	-4262
▁로봇	-4263
▁로스	-4264
▁맞서	-4265
▁무력	-4266
▁밀란	-4267
▁성인	-4268
▁심리	-4269
▁심한	-4270
▁영토	-4271
▁오사	-4272
▁온난	-4273
▁육군	-4274
▁전개	-4275
▁주간	-4276
▁중재	-4277
▁지목	-4278
▁지출	-4279
▁침체	-4280
▁콘서	-4281
▁패배	-4282
▁해산	-4283
▁획득	-4284
▁힘든	-4285
라운드	-4286
해졌다	-4287
▁방문할	-4288
▁북한과	-4289
▁불리는	-4290
▁오스트	-4291
▁의회의	-4292
▁일본이	-4293
▁테러범	-4294
▁당선인은	-4295
▁대변인인	-4296
▁대부분이	-4297
▁예정이며	-4298
▁South	-4299
▁샌프란시스코	-4300
EU	-4301
ry	-4302
▁꿈	-4303
▁든	-4304
▁빚	-4305
건을	-4306
렬한	-4307
브는	-4308
시의	-4309
양의	-4310
▁pl	-4311
▁나쁜	-4312
▁도달	-4313
▁랭킹	-4314
▁맨유	-4315
▁문을	-4316
▁비자	-4317
▁시절	-4318
▁천연	-4319
▁폐기	-4320
▁해고	-4321
아시아	-4322
에게는	-4323
틀랜드	-4324
ress	-4325
▁밖으로	-4326
▁반기문	-4327
▁반응을	-4328
▁사람을	-4329
▁이것이	-4330
ident	-4331
▁경선에서	-4332
▁만들었다	-4333
▁정치적인	-4334
""	-4335
up	-4336
▁밑	-4337
▁뽑	-4338
▁흉	-4339
데타	-4340
병을	-4341
일의	-4342
터를	-4343
▁44	-4344
▁달리	-4345
▁마르	-4346
▁배심	-4347
▁복제	-4348
▁스리	-4349
▁스웨	-4350
▁실행	-4351
▁앨범	-4352
▁예산	-4353
▁이메	-4354
▁접속	-4355
▁측근	-4356
▁특파	-4357
달러에	-4358
사들은	-4359
▁금요일	-4360
▁남자가	-4361
▁대변인	-4362
▁된다고	-4363
▁사태가	-4364
▁익명의	-4365
▁제안을	-4366
▁충분한	-4367
▁크라이	-4368
▁방법으로	-4369
▁생각하고	-4370
▁알려지지	-4371
▁의원들은	-4372
▁해결하기	-4373
-3	-4374
▁딜	-4375
▁뿌	-4376
▁택	-4377
▁텔	-4378
계가	-4379
국에	-4380
담을	-4381
동이	-4382
리조	-4383
선수	-4384
었을	-4385
오늘	-4386
일부	-4387
즈볼	-4388
차가	-4389
치에	-4390
켰다	-4391
ear	-4392
ess	-4393
▁48	-4394
▁네트	-4395
▁도전	-4396
▁마치	-4397
▁모르	-4398
▁사법	-4399
▁성향	-4400
▁수집	-4401
▁영변	-4402
▁입양	-4403
▁잠재	-4404
▁찾는	-4405
▁취할	-4406
▁치명	-4407
▁폭우	-4408
▁하와	-4409
▁학살	-4410
일간의	-4411
▁CIA	-4412
▁결정은	-4413
▁그들을	-4414
▁리비아	-4415
▁원하는	-4416
▁자리를	-4417
▁특별한	-4418
프로그램	-4419
▁9.11	-4420
▁네덜란드	-4421
▁말합니다	-4422
▁체포됐다	-4423
▁발견했다고	-4424
▁아르헨티나	-4425
19	-4426
70	-4427
▁흐	-4428
구가	-4429
군에	-4430
므로	-4431
미디	-4432
발을	-4433
세츠	-4434
실에	-4435
음이	-4436
주간	-4437
▁공중	-4438
▁권고	-4439
▁대량	-4440
▁로이	-4441
▁리콜	-4442
▁명은	-4443
▁이익	-4444
▁주목	-4445
▁허락	-4446
▁관계가	-4447
▁모습이	-4448
▁바라고	-4449
▁우려가	-4450
▁이번주	-4451
▁항공기	-4452
▁어려움을	-4453
▁필요하다고	-4454
5)	-4455
개가	-4456
격한	-4457
국민	-4458
마리	-4459
타나	-4460
▁기능	-4461
▁대다	-4462
▁레스	-4463
▁보관	-4464
▁소탕	-4465
▁식품	-4466
▁주석	-4467
▁편집	-4468
▁합동	-4469
실에서	-4470
▁경찰의	-4471
▁나타나	-4472
▁내용이	-4473
▁벗어나	-4474
▁사건과	-4475
▁선거캠	-4476
▁신문은	-4477
▁외교부	-4478
▁우승을	-4479
▁의회가	-4480
▁전화를	-4481
▁중국과	-4482
▁청소년	-4483
▁협상이	-4484
▁회의를	-4485
▁도착했다	-4486
▁드러났다	-4487
▁떨어졌다	-4488
▁사건으로	-4489
▁아일랜드	-4490
▁않았으며	-4491
▁언급하지	-4492
▁예상했다	-4493
▁유나이티	-4494
-2	-4495
▁뒷	-4496
▁봄	-4497
▁옥	-4498
나가	-4499
로드	-4500
류를	-4501
모든	-4502
선은	-4503
스톤	-4504
장한	-4505
져야	-4506
주민	-4507
차로	-4508
프리	-4509
훼손	-4510
▁51	-4511
▁법원	-4512
▁베를	-4513
▁붉은	-4514
▁수요	-4515
▁싶다	-4516
▁약간	-4517
▁일정	-4518
▁자랑	-4519
▁재산	-4520
▁찾고	-4521
▁회견	-4522
그들은	-4523
▁194	-4524
▁가능성	-4525
▁김정일	-4526
▁다우존	-4527
▁당했다	-4528
▁수사를	-4529
▁알렉산	-4530
▁에드워	-4531
▁요르단	-4532
▁중국에	-4533
▁쿠데타	-4534
▁항공사	-4535
▁핵시설	-4536
▁헤즈볼	-4537
라이라마	-4538
무장관이	-4539
▁공개했다	-4540
▁처음이다	-4541
4)	-4542
ag	-4543
▁켄	-4544
▁횡	-4545
기업	-4546
도르	-4547
됐을	-4548
라덴	-4549
선의	-4550
▁걸릴	-4551
▁겨울	-4552
▁농축	-4553
▁담긴	-4554
▁도와	-4555
▁마틴	-4556
▁만날	-4557
▁말해	-4558
▁보면	-4559
▁보석	-4560
▁보조	-4561
▁서방	-4562
▁성과	-4563
▁소년	-4564
▁수퍼	-4565
▁일은	-4566
▁적은	-4567
▁탁신	-4568
▁포경	-4569
상에서	-4570
올림픽	-4571
정부는	-4572
▁CEO	-4573
▁시작한	-4574
▁의회는	-4575
▁작전을	-4576
▁주지사	-4577
▁최초로	-4578
▁통신은	-4579
▁했지만	-4580
이지리아	-4581
현지시각	-4582
▁동영상을	-4583
▁러시아의	-4584
▁사망자가	-4585
▁아이오와	-4586
▁현재까지	-4587
▁20080	-4588
1)	-4589
나미	-4590
루살	-4591
리게	-4592
만은	-4593
용을	-4594
이슬	-4595
전은	-4596
제도	-4597
.02	-4598
ies	-4599
▁끝나	-4600
▁나누	-4601
▁동반	-4602
▁뛰어	-4603
▁만한	-4604
▁메르	-4605
▁물러	-4606
▁사찰	-4607
▁에스	-4608
▁옮겨	-4609
▁주가	-4610
▁추측	-4611
▁통치	-4612
번째로	-4613
했는지	-4614
▁강력히	-4615
▁관심이	-4616
▁밖에서	-4617
▁발표된	-4618
▁생각을	-4619
▁올렸다	-4620
▁장면을	-4621
▁조사에	-4622
▁총리와	-4623
▁치러진	-4624
▁카스트	-4625
▁케네디	-4626
▁회사인	-4627
▁다이아몬	-4628
▁모스크바	-4629
▁보여주는	-4630
▁일환으로	-4631
▁추정되는	-4632
▁대선후보인	-4633
HO	-4634
cm	-4635
▁걷	-4636
국적	-4637
내에	-4638
되자	-4639
부시	-4640
이크	-4641
주에	-4642
ong	-4643
▁33	-4644
▁경계	-4645
▁교회	-4646
▁대리	-4647
▁맞이	-4648
▁보통	-4649
▁설득	-4650
▁스키	-4651
▁시기	-4652
▁시인	-4653
▁오염	-4654
▁이하	-4655
▁작동	-4656
▁잠시	-4657
▁추산	-4658
▁파티	-4659
▁합법	-4660
글라데	-4661
over	-4662
▁FTA	-4663
▁가까이	-4664
▁만드는	-4665
▁명령을	-4666
▁샤리프	-4667
▁시위대	-4668
▁어려운	-4669
▁여성은	-4670
▁여성의	-4671
▁유사한	-4672
▁청와대	-4673
▁희생자	-4674
이었다고	-4675
▁마이크로	-4676
▁방문했다	-4677
▁부상했다	-4678
▁챔피언스	-4679
▁달라이라마	-4680
대중	-4681
불어	-4682
사추	-4683
세포	-4684
시피	-4685
원제	-4686
율은	-4687
졌던	-4688
지어	-4689
킬로	-4690
판을	-4691
end	-4692
▁ag	-4693
▁sh	-4694
▁강요	-4695
▁개막	-4696
▁길을	-4697
▁바꾸	-4698
▁발굴	-4699
▁부과	-4700
▁불을	-4701
▁산악	-4702
▁산타	-4703
▁세워	-4704
▁소환	-4705
▁업무	-4706
▁연관	-4707
▁위안	-4708
▁장식	-4709
▁정기	-4710
▁카페	-4711
▁커피	-4712
▁콜로	-4713
▁통화	-4714
▁파예	-4715
▁판단	-4716
▁폭락	-4717
년간의	-4718
루살렘	-4719
하고자	-4720
ance	-4721
▁50%	-4722
▁게임을	-4723
▁공격에	-4724
▁더불어	-4725
▁루이스	-4726
▁밝히고	-4727
▁시신을	-4728
▁시위에	-4729
▁않지만	-4730
▁타격을	-4731
▁회사의	-4732
▁FARC	-4733
▁목적으로	-4734
▁방글라데	-4735
▁성공했다	-4736
▁시장에서	-4737
▁중국에서	-4738
▁기자회견을	-4739
▁워싱턴에서	-4740
25	-4741
ub	-4742
ue	-4743
▁뮤	-4744
▁쏟	-4745
라미	-4746
번의	-4747
일리	-4748
즈가	-4749
통상	-4750
age	-4751
▁IA	-4752
▁골을	-4753
▁나스	-4754
▁담배	-4755
▁도입	-4756
▁매각	-4757
▁모인	-4758
▁사냥	-4759
▁선보	-4760
▁스파	-4761
▁앉아	-4762
▁오브	-4763
▁음주	-4764
▁자리	-4765
▁자이	-4766
▁점점	-4767
▁조합	-4768
달러를	-4769
보다는	-4770
회사인	-4771
▁com	-4772
▁거래를	-4773
▁것보다	-4774
▁관련이	-4775
▁달러에	-4776
▁대법원	-4777
▁됩니다	-4778
▁생활을	-4779
▁아이의	-4780
▁적절한	-4781
▁하나의	-4782
학자들은	-4783
▁것이라며	-4784
▁계속되고	-4785
▁다르푸르	-4786
▁스리랑카	-4787
▁이곳에서	-4788
6)	-4789
OC	-4790
▁美	-4791
▁넓	-4792
▁틀	-4793
네스	-4794
대회	-4795
라디	-4796
상과	-4797
수에	-4798
스틴	-4799
안전	-4800
트너	-4801
후드	-4802
▁34	-4803
▁걸친	-4804
▁권력	-4805
▁그림	-4806
▁기존	-4807
▁남은	-4808
▁단순	-4809
▁대출	-4810
▁방영	-4811
▁소행	-4812
▁아스	-4813
▁여겨	-4814
▁자본	-4815
▁지정	-4816
▁치열	-4817
▁칠레	-4818
▁트리	-4819
▁호세	-4820
▁휴전	-4821
음에도	-4822
▁NBC	-4823
▁갑자기	-4824
▁모른다	-4825
▁보좌관	-4826
▁시위가	-4827
▁여객기	-4828
▁연구를	-4829
▁의회에	-4830
▁장난감	-4831
▁진행된	-4832
▁폭발로	-4833
▁화재가	-4834
사추세츠	-4835
▁노력하고	-4836
▁보고했다	-4837
▁알래스카	-4838
▁연구진은	-4839
▁조사에서	-4840
▁오스트리아	-4841
ff	-4842
▁섹	-4843
▁숫	-4844
만약	-4845
바키	-4846
시를	-4847
하라	-4848
하였	-4849
▁교착	-4850
▁군부	-4851
▁귀국	-4852
▁나를	-4853
▁대책	-4854
▁라파	-4855
▁마흐	-4856
▁버마	-4857
▁봉쇄	-4858
▁부여	-4859
▁부총	-4860
▁수송	-4861
▁스튜	-4862
▁의존	-4863
▁이사	-4864
▁조선	-4865
▁중독	-4866
▁초대	-4867
▁파산	-4868
▁폐지	-4869
▁폭행	-4870
▁풀려	-4871
▁피고	-4872
▁피난	-4873
▁하면	-4874
▁합류	-4875
개월간	-4876
국장은	-4877
2009	-4878
apan	-4879
▁것이고	-4880
▁경제에	-4881
▁논의할	-4882
▁말하는	-4883
▁문제의	-4884
▁반군이	-4885
▁빠르게	-4886
▁수백만	-4887
▁시설을	-4888
▁신원을	-4889
▁이유는	-4890
▁코미디	-4891
▁이라크전	-4892
▁이스라엘과	-4893
▁바그다드에서	-4894
FP	-4895
▁균	-4896
▁묵	-4897
▁짧	-4898
가족	-4899
공항	-4900
내기	-4901
라우	-4902
린다	-4903
연금	-4904
유럽	-4905
▁가옥	-4906
▁검거	-4907
▁관객	-4908
▁나갈	-4909
▁나서	-4910
▁레드	-4911
▁버스	-4912
▁상품	-4913
▁소설	-4914
▁야기	-4915
▁자기	-4916
▁잔해	-4917
▁전날	-4918
▁진정	-4919
▁체니	-4920
▁추적	-4921
▁출석	-4922
▁출시	-4923
▁하늘	-4924
▁해양	-4925
▁후임	-4926
▁훌륭	-4927
▁훼손	-4928
으면서	-4929
있었다	-4930
▁가격을	-4931
▁것인지	-4932
▁계획은	-4933
▁못하는	-4934
▁사실상	-4935
▁아버지	-4936
▁언론이	-4937
▁없으며	-4938
▁위기를	-4939
▁주한미	-4940
졌습니다	-4941
▁일자리를	-4942
▁자리에서	-4943
▁증가하고	-4944
▁나이지리아	-4945
▁남아프리카	-4946
▁파키스탄의	-4947
7)	-4948
RB	-4949
▁멈	-4950
▁섭	-4951
▁털	-4952
교도	-4953
기술	-4954
내가	-4955
노동	-4956
드시	-4957
바라	-4958
분간	-4959
실이	-4960
어의	-4961
없는	-4962
일은	-4963
전문	-4964
주가	-4965
튜브	-4966
틀러	-4967
.05	-4968
ood	-4969
und	-4970
▁건축	-4971
▁고조	-4972
▁공무	-4973
▁관람	-4974
▁나아	-4975
▁내릴	-4976
▁누군	-4977
▁달성	-4978
▁대항	-4979
▁득표	-4980
▁목록	-4981
▁받기	-4982
▁복잡	-4983
▁신경	-4984
▁신체	-4985
▁인식	-4986
▁체결	-4987
▁취재	-4988
▁패션	-4989
▁페루	-4990
▁하던	-4991
▁헬기	-4992
이슬람	-4993
작업을	-4994
점으로	-4995
▁2-0	-4996
▁600	-4997
▁결정에	-4998
▁경제가	-4999
▁말까지	-5000
▁무기를	-5001
▁민주화	-5002
▁사태를	-5003
▁있다면	-5004
▁있었고	-5005
▁지진이	-5006
▁태평양	-5007
▁해결을	-5008
▁고등학교	-5009
▁기다리고	-5010
▁네트워크	-5011
▁부근에서	-5012
▁세계대전	-5013
▁시위대는	-5014
▁지도자들은	-5015
▁노스캐롤라이나	-5016
ib	-5017
iv	-5018
그가	-5019
명도	-5020
서에	-5021
수인	-5022
어버	-5023
진다	-5024
터는	-5025
피해	-5026
.07	-5027
ack	-5028
▁43	-5029
▁46	-5030
▁돌려	-5031
▁모색	-5032
▁서브	-5033
▁성적	-5034
▁의학	-5035
▁출판	-5036
▁혜택	-5037
▁흡연	-5038
▁힘을	-5039
는지는	-5040
들과의	-5041
부에서	-5042
정부가	-5043
▁계약을	-5044
▁권력을	-5045
▁그동안	-5046
▁남아공	-5047
▁니콜라	-5048
▁방문을	-5049
▁스웨덴	-5050
▁시장에	-5051
▁이유를	-5052
▁제재를	-5053
▁폭탄이	-5054
▁피해가	-5055
파키스탄	-5056
▁보인다고	-5057
▁선거운동	-5058
▁싱가포르	-5059
▁여자친구	-5060
▁위원회는	-5061
▁제안했다	-5062
▁클린턴이	-5063
resident	-5064
lo	-5065
▁록	-5066
▁샘	-5067
▁셀	-5068
▁쌓	-5069
감한	-5070
곳에	-5071
나마	-5072
네자	-5073
닷컴	-5074
봉송	-5075
상황	-5076
아야	-5077
유지	-5078
일러	-5079
정거	-5080
지기	-5081
지난	-5082
토니	-5083
ast	-5084
iss	-5085
▁AC	-5086
▁AI	-5087
▁고대	-5088
▁고향	-5089
▁구출	-5090
▁그에	-5091
▁깊은	-5092
▁되찾	-5093
▁등장	-5094
▁명예	-5095
▁명확	-5096
▁빠진	-5097
▁사담	-5098
▁은신	-5099
▁이주	-5100
▁전직	-5101
▁조기	-5102
▁줄기	-5103
▁코커	-5104
▁콩고	-5105
레이크	-5106
▁10%	-5107
▁내용의	-5108
▁덴마크	-5109
▁돌아가	-5110
▁승무원	-5111
▁야당인	-5112
▁위험이	-5113
▁이렇게	-5114
▁이재민	-5115
▁이후로	-5116
▁정확히	-5117
▁훈련을	-5118
▁2010	-5119
▁국방부는	-5120
▁시스템을	-5121
▁시위대가	-5122
▁이와같은	-5123
▁폭탄테러가	-5124
▁척	-5125
관련	-5126
냐는	-5127
물에	-5128
미니	-5129
선언	-5130
에선	-5131
프레	-5132
혔다	-5133
EFA	-5134
its	-5135
ren	-5136
ure	-5137
▁감바	-5138
▁광산	-5139
▁그루	-5140
▁기지	-5141
▁레알	-5142
▁마찬	-5143
▁만난	-5144
▁비서	-5145
▁소수	-5146
▁식당	-5147
▁아동	-5148
▁유력	-5149
▁이양	-5150
▁이중	-5151
▁인공	-5152
▁자극	-5153
▁자선	-5154
▁전당	-5155
▁절대	-5156
▁주문	-5157
▁철도	-5158
▁청문	-5159
▁커플	-5160
▁특정	-5161
러시아	-5162
베이거	-5163
업체인	-5164
▁195	-5165
▁고통을	-5166
▁국경을	-5167
▁대가로	-5168
▁마치고	-5169
▁모두가	-5170
▁반드시	-5171
▁선거에	-5172
▁시드니	-5173
▁아마디	-5174
▁적십자	-5175
▁조치가	-5176
▁주식시	-5177
▁준비를	-5178
overn	-5179
▁IAEA	-5180
▁will	-5181
▁마찬가지	-5182
▁운영하는	-5183
▁제공하는	-5184
▁핵무기를	-5185
▁과학자들이	-5186
▁관계자들이	-5187
▁발생했으며	-5188
▁이스라엘이	-5189
▁챔피언스리그	-5190
령은	-5191
서가	-5192
수와	-5193
중앙	-5194
해질	-5195
ost	-5196
▁강도	-5197
▁결선	-5198
▁고발	-5199
▁국정	-5200
▁근본	-5201
▁노예	-5202
▁농민	-5203
▁디지	-5204
▁말라	-5205
▁배출	-5206
▁분열	-5207
▁불능	-5208
▁새끼	-5209
▁선발	-5210
▁수의	-5211
▁엄청	-5212
▁엘리	-5213
▁외무	-5214
▁입증	-5215
▁자원	-5216
▁장을	-5217
▁장착	-5218
▁재검	-5219
▁재배	-5220
▁추구	-5221
▁출동	-5222
▁클리	-5223
▁텔레	-5224
움에서	-5225
▁말리키	-5226
▁부상자	-5227
▁사령관	-5228
▁사장은	-5229
▁소식이	-5230
▁에후드	-5231
▁전쟁에	-5232
▁증거를	-5233
▁질문을	-5234
▁혐의가	-5235
▁회사는	-5236
▁공항에서	-5237
▁선언했다	-5238
▁예루살렘	-5239
▁우려하고	-5240
▁의회에서	-5241
디아라비아	-5242
▁Japan	-5243
▁마지막으로	-5244
▁외무장관은	-5245
(7	-5246
▁낭	-5247
▁맹	-5248
▁쇠	-5249
▁읽	-5250
로이	-5251
르기	-5252
르도	-5253
인에	-5254
질을	-5255
클라	-5256
탄을	-5257
티스	-5258
파로	-5259
현재	-5260
호는	-5261
화된	-5262
...	-5263
▁교환	-5264
▁극복	-5265
▁달려	-5266
▁리조	-5267
▁매장	-5268
▁멋진	-5269
▁민족	-5270
▁바뀌	-5271
▁베르	-5272
▁보잉	-5273
▁사원	-5274
▁생긴	-5275
▁소매	-5276
▁승려	-5277
▁쓰러	-5278
▁에도	-5279
▁열대	-5280
▁올린	-5281
▁완벽	-5282
▁운항	-5283
▁자산	-5284
▁중순	-5285
▁측은	-5286
▁후세	-5287
가에서	-5288
달라고	-5289
명에게	-5290
▁결과는	-5291
▁고양이	-5292
▁납치된	-5293
▁내용은	-5294
▁네바다	-5295
▁능력을	-5296
▁받아야	-5297
▁변화가	-5298
▁상태에	-5299
▁승인을	-5300
▁아무도	-5301
▁안전한	-5302
▁운동을	-5303
▁한국이	-5304
▁현재의	-5305
▁대선에서	-5306
▁서울에서	-5307
▁성화봉송	-5308
▁외교통상	-5309
▁이라크를	-5310
▁일본에서	-5311
▁주지사가	-5312
▁지역으로	-5313
ud	-5314
미어	-5315
이상	-5316
첨단	-5317
프의	-5318
▁PC	-5319
▁거두	-5320
▁고립	-5321
▁관영	-5322
▁관찰	-5323
▁극단	-5324
▁리히	-5325
▁무죄	-5326
▁방지	-5327
▁상점	-5328
▁손상	-5329
▁수를	-5330
▁아웅	-5331
▁유치	-5332
▁잃은	-5333
▁재활	-5334
▁중지	-5335
됐으나	-5336
생활을	-5337
하기를	-5338
▁감독이	-5339
▁공연을	-5340
▁관계자	-5341
▁다국적	-5342
▁분명히	-5343
▁승리한	-5344
▁시장의	-5345
▁아니면	-5346
▁안전을	-5347
▁여부는	-5348
▁유권자	-5349
▁유럽의	-5350
▁이로써	-5351
▁타이틀	-5352
▁한국에	-5353
▁Chin	-5354
▁다쳤다고	-5355
▁발생하지	-5356
▁승리했다	-5357
▁있었지만	-5358
▁체포했다	-5359
▁했습니다	-5360
▁계획이라고	-5361
▁라스베이거	-5362
▁베이징에서	-5363
▁전했습니다	-5364
▁폭탄테러로	-5365
9)	-5366
me	-5367
▁값	-5368
▁욕	-5369
▁캔	-5370
▁펀	-5371
구의	-5372
씨가	-5373
월의	-5374
일본	-5375
전쟁	-5376
지며	-5377
트라	-5378
햄프	-5379
화로	-5380
rom	-5381
ust	-5382
▁2,	-5383
▁ex	-5384
▁가량	-5385
▁감사	-5386
▁갖게	-5387
▁개방	-5388
▁공유	-5389
▁독재	-5390
▁묘사	-5391
▁발간	-5392
▁보복	-5393
▁아름	-5394
▁앤드	-5395
▁연주	-5396
▁운송	-5397
▁위조	-5398
▁은퇴	-5399
▁임기	-5400
▁입국	-5401
▁채택	-5402
▁측정	-5403
▁행복	-5404
▁협박	-5405
▁환자	-5406
나지르	-5407
레스트	-5408
▁국제적	-5409
▁그것이	-5410
▁나오는	-5411
▁논의를	-5412
▁사용한	-5413
▁안에서	-5414
▁줄리아	-5415
▁총리를	-5416
▁태어난	-5417
▁국무장관	-5418
▁기대하고	-5419
▁생각하는	-5420
▁수상했다	-5421
▁인디애나	-5422
ations	-5423
▁국방장관은	-5424
▁일반적으로	-5425
▁프로그램에	-5426
6-	-5427
ie	-5428
ip	-5429
od	-5430
▁뼈	-5431
내지	-5432
물로	-5433
슬림	-5434
와는	-5435
이즈	-5436
주고	-5437
중한	-5438
표가	-5439
함이	-5440
.03	-5441
▁(=	-5442
▁거쳐	-5443
▁곤잘	-5444
▁골드	-5445
▁급속	-5446
▁노르	-5447
▁막을	-5448
▁맞춰	-5449
▁매니	-5450
▁매춘	-5451
▁명백	-5452
▁배제	-5453
▁보낼	-5454
▁복구	-5455
▁빈곤	-5456
▁삭제	-5457
▁삶을	-5458
▁스탠	-5459
▁신임	-5460
▁실질	-5461
▁쏟아	-5462
▁앓고	-5463
▁연행	-5464
▁유발	-5465
▁응급	-5466
▁재난	-5467
▁저질	-5468
▁주차	-5469
▁출산	-5470
▁카불	-5471
▁펠로	-5472
▁후원	-5473
라이언	-5474
리조나	-5475
선에서	-5476
햄프셔	-5477
▁가격은	-5478
▁검사는	-5479
▁경제를	-5480
▁대학교	-5481
▁마카오	-5482
▁법원이	-5483
▁수익을	-5484
▁실종된	-5485
▁일하는	-5486
▁자료를	-5487
▁자세한	-5488
▁지금은	-5489
▁토마스	-5490
▁폭탄을	-5491
▁2012	-5492
▁다우존스	-5493
▁대회에서	-5494
▁미국과의	-5495
▁보유하고	-5496
▁진행되고	-5497
▁사우디아라비아	-5498
ep	-5499
▁궤	-5500
▁듀	-5501
▁묶	-5502
권에	-5503
러스	-5504
력에	-5505
받고	-5506
범죄	-5507
산화	-5508
수사	-5509
에만	-5510
제의	-5511
환경	-5512
anc	-5513
led	-5514
▁PP	-5515
▁ac	-5516
▁he	-5517
▁가난	-5518
▁구금	-5519
▁군중	-5520
▁논평	-5521
▁단속	-5522
▁단어	-5523
▁무료	-5524
▁무선	-5525
▁발병	-5526
▁보는	-5527
▁비록	-5528
▁스캔	-5529
▁시달	-5530
▁조성	-5531
▁차를	-5532
▁철저	-5533
▁통한	-5534
▁펼쳐	-5535
▁한때	-5536
였지만	-5537
우리가	-5538
인들을	-5539
▁거뒀다	-5540
▁당신이	-5541
▁못하게	-5542
▁베를린	-5543
▁비용이	-5544
▁시장이	-5545
▁유엔은	-5546
▁일정을	-5547
▁자유를	-5548
▁지역은	-5549
▁충분히	-5550
▁케이블	-5551
▁표했다	-5552
▁휴대전	-5553
meric	-5554
▁1994	-5555
▁3000	-5556
▁만들어진	-5557
▁바르셀로	-5558
▁백악관은	-5559
▁베나지르	-5560
▁사령관은	-5561
▁증가했다	-5562
▁보고서에서	-5563
▁*	-5564
▁똑	-5565
▁맛	-5566
▁쫓	-5567
▁켈	-5568
각을	-5569
관에	-5570
권이	-5571
나우	-5572
년과	-5573
니의	-5574
드라	-5575
렸던	-5576
버스	-5577
범위	-5578
봤다	-5579
터키	-5580
ect	-5581
ric	-5582
▁39	-5583
▁64	-5584
▁간주	-5585
▁고소	-5586
▁골프	-5587
▁공장	-5588
▁급등	-5589
▁마시	-5590
▁봉사	-5591
▁스프	-5592
▁시사	-5593
▁압수	-5594
▁장소	-5595
▁재미	-5596
▁죽은	-5597
▁찾을	-5598
▁화물	-5599
됐었다	-5600
마리의	-5601
▁800	-5602
▁가치가	-5603
▁논란이	-5604
▁대학생	-5605
▁동티모	-5606
▁디즈니	-5607
▁레스토	-5608
▁말하며	-5609
▁모기지	-5610
▁발언에	-5611
▁법원에	-5612
▁스타디	-5613
▁쓰나미	-5614
▁애틀랜	-5615
▁여성을	-5616
▁오래된	-5617
▁있어서	-5618
▁제대로	-5619
▁주장에	-5620
▁총선을	-5621
▁파트너	-5622
▁가능성은	-5623
▁국제사회	-5624
▁러시아는	-5625
▁발생하는	-5626
▁보안관은	-5627
▁상승했다	-5628
▁외환은행	-5629
▁이라크와	-5630
▁회의에서	-5631
▁발견됐다고	-5632
ll	-5633
og	-5634
▁옐	-5635
▁힌	-5636
뉴스	-5637
로가	-5638
주년	-5639
케이	-5640
타민	-5641
패를	-5642
포드	-5643
한지	-5644
▁49	-5645
▁75	-5646
▁가로	-5647
▁거리	-5648
▁고고	-5649
▁기밀	-5650
▁나올	-5651
▁대결	-5652
▁디스	-5653
▁머리	-5654
▁못해	-5655
▁바닥	-5656
▁앞에	-5657
▁점차	-5658
▁조류	-5659
▁존스	-5660
▁존중	-5661
▁청구	-5662
▁초래	-5663
▁코스	-5664
▁합병	-5665
가들이	-5666
▁130	-5667
▁res	-5668
▁그러한	-5669
▁다니엘	-5670
▁북동부	-5671
▁상당한	-5672
▁스위스	-5673
▁익명을	-5674
▁일으킨	-5675
▁잃었다	-5676
▁자신은	-5677
▁저지른	-5678
▁책임이	-5679
▁피해자	-5680
▁회사가	-5681
킬로미터	-5682
▁거부했다	-5683
▁국회의원	-5684
▁역사적인	-5685
▁차관보는	-5686
▁호텔에서	-5687
8)	-5688
ey	-5689
▁갇	-5690
다시	-5691
라를	-5692
르지	-5693
리나	-5694
메이	-5695
성과	-5696
왔던	-5697
으려	-5698
졌고	-5699
즈의	-5700
지금	-5701
화의	-5702
ell	-5703
▁52	-5704
▁53	-5705
▁73	-5706
▁검은	-5707
▁기사	-5708
▁되기	-5709
▁로비	-5710
▁리그	-5711
▁마음	-5712
▁방안	-5713
▁비틀	-5714
▁상공	-5715
▁알바	-5716
▁알코	-5717
▁얻기	-5718
▁얻어	-5719
▁지상	-5720
▁휩싸	-5721
났으며	-5722
되었고	-5723
카르타	-5724
페이지	-5725
▁공격은	-5726
▁국가가	-5727
▁국제원	-5728
▁김대중	-5729
▁나이트	-5730
▁바스라	-5731
▁블라디	-5732
▁세금을	-5733
▁시작할	-5734
▁약속을	-5735
▁여학생	-5736
▁영화의	-5737
▁의사가	-5738
▁일으키	-5739
▁재판을	-5740
▁첫번째	-5741
▁테스트	-5742
▁혐의에	-5743
스트리트	-5744
위원회가	-5745
플레이션	-5746
▁1970	-5747
▁뉴욕에서	-5748
▁레스토랑	-5749
▁말했다고	-5750
▁받았으며	-5751
▁세계은행	-5752
▁시민들이	-5753
▁중요하다	-5754
▁학생들은	-5755
▁방글라데시	-5756
▁뿐만아니라	-5757
▁예정입니다	-5758
▁이스라엘은	-5759
▁주민들에게	-5760
▁숀	-5761
▁쓴	-5762
▁엑	-5763
▁왼	-5764
▁짓	-5765
▁흰	-5766
국제	-5767
너는	-5768
달을	-5769
담당	-5770
렌스	-5771
마빈	-5772
모리	-5773
서양	-5774
수록	-5775
스런	-5776
아버	-5777
아프	-5778
우스	-5779
월드	-5780
조차	-5781
준비	-5782
탱크	-5783
팀이	-5784
ian	-5785
lec	-5786
ons	-5787
▁1/	-5788
▁55	-5789
▁78	-5790
▁가슴	-5791
▁강풍	-5792
▁공정	-5793
▁과도	-5794
▁그리	-5795
▁기쁘	-5796
▁내내	-5797
▁다루	-5798
▁도망	-5799
▁보상	-5800
▁불길	-5801
▁위에	-5802
▁인류	-5803
▁인생	-5804
▁적합	-5805
▁지질	-5806
기에서	-5807
되었던	-5808
샤라포	-5809
세력이	-5810
하겠다	-5811
▁같다고	-5812
▁그래서	-5813
▁답했다	-5814
▁독일의	-5815
▁벌금을	-5816
▁법안이	-5817
▁보내는	-5818
▁비용을	-5819
▁선두를	-5820
▁소장은	-5821
▁예정된	-5822
▁중국을	-5823
▁집으로	-5824
▁총장은	-5825
마빈라덴	-5826
위원회의	-5827
▁구제금융	-5828
▁국민들의	-5829
▁바이러스	-5830
▁보여줬다	-5831
▁기자들에게	-5832
▁체포했다고	-5833
▁핵프로그램	-5834
▁보도에따르면	-5835
iz	-5836
▁헐	-5837
기록	-5838
더는	-5839
률을	-5840
변화	-5841
부로	-5842
위해	-5843
일과	-5844
저는	-5845
통제	-5846
하에	-5847
old	-5848
▁Ro	-5849
▁ch	-5850
▁sp	-5851
▁검문	-5852
▁과격	-5853
▁누가	-5854
▁돌파	-5855
▁몸을	-5856
▁미술	-5857
▁방콕	-5858
▁복무	-5859
▁브래	-5860
▁비공	-5861
▁사막	-5862
▁산림	-5863
▁성직	-5864
▁스크	-5865
▁쓰촨	-5866
▁올려	-5867
▁의무	-5868
▁의장	-5869
▁잡고	-5870
▁재건	-5871
▁절차	-5872
▁진영	-5873
▁출입	-5874
▁침입	-5875
▁투어	-5876
▁프린	-5877
▁혹은	-5878
단에서	-5879
orld	-5880
▁40%	-5881
▁ABC	-5882
▁Com	-5883
▁결과에	-5884
▁경제학	-5885
▁국가를	-5886
▁나스닥	-5887
▁라이트	-5888
▁사용될	-5889
▁아웅산	-5890
▁외교적	-5891
▁원인을	-5892
▁위험에	-5893
▁일부가	-5894
▁일부를	-5895
▁회담의	-5896
▁가능성에	-5897
▁결의안을	-5898
▁런던에서	-5899
▁미사일을	-5900
▁보호하기	-5901
▁비판했다	-5902
▁수백명의	-5903
▁실패했다	-5904
▁와인하우	-5905
▁콜로라도	-5906
▁일리노이주	-5907
▁꺼	-5908
▁꼭	-5909
▁덕	-5910
▁멤	-5911
정도	-5912
체의	-5913
한번	-5914
히려	-5915
▁걸려	-5916
▁공모	-5917
▁규제	-5918
▁기회	-5919
▁높다	-5920
▁대륙	-5921
▁맞추	-5922
▁맡은	-5923
▁메릴	-5924
▁명을	-5925
▁북미	-5926
▁불편	-5927
▁빙하	-5928
▁상호	-5929
▁아흐	-5930
▁어디	-5931
▁체중	-5932
▁촉발	-5933
▁통계	-5934
▁판사	-5935
▁필립	-5936
▁항구	-5937
▁해임	-5938
국에서	-5939
단체는	-5940
됐다는	-5941
되어야	-5942
마리가	-5943
보장이	-5944
페인을	-5945
▁120	-5946
▁구조대	-5947
▁두려워	-5948
▁둘러싸	-5949
▁따라서	-5950
▁라이벌	-5951
▁마쳤다	-5952
▁만들고	-5953
▁방송은	-5954
▁배럴당	-5955
▁없지만	-5956
▁이란에	-5957
▁젊은이	-5958
이스라엘	-5959
자력기구	-5960
▁공식적인	-5961
▁국민들은	-5962
▁마감했다	-5963
▁비상사태를	-5964
▁소프트웨어	-5965
▁스코틀랜드	-5966
overnment	-5967
AN	-5968
KK	-5969
▁k	-5970
▁객	-5971
▁롬	-5972
라델	-5973
릴라	-5974
망을	-5975
명한	-5976
부양	-5977
비의	-5978
위기	-5979
위인	-5980
책임	-5981
터리	-5982
ang	-5983
ase	-5984
▁감지	-5985
▁개헌	-5986
▁거듭	-5987
▁겨냥	-5988
▁구축	-5989
▁날아	-5990
▁당신	-5991
▁뒤에	-5992
▁들여	-5993
▁리차	-5994
▁많다	-5995
▁몰려	-5996
▁배경	-5997
▁벌여	-5998
▁봉송	-5999
▁붙잡	-6000
▁생명	-6001
▁소득	-6002
▁순방	-6003
▁시속	-6004
▁알라	-6005
▁얻을	-6006
▁열어	-6007
▁원자	-6008
▁이론	-6009
▁일찍	-6010
▁작용	-6011
▁전인	-6012
▁최우	-6013
▁트레	-6014
금으로	-6015
네자드	-6016
단체가	-6017
라고예	-6018
받았다	-6019
보디아	-6020
조치를	-6021
카운티	-6022
활동을	-6023
▁두바이	-6024
▁디자인	-6025
▁머리를	-6026
▁방법이	-6027
▁보도를	-6028
▁샤라포	-6029
▁연구에	-6030
▁올해의	-6031
▁증거가	-6032
▁차량이	-6033
▁천주교	-6034
▁패트릭	-6035
▁현장을	-6036
▁호나우	-6037
되었으며	-6038
▁도시에서	-6039
▁받아들일	-6040
▁비난하고	-6041
▁생각했다	-6042
▁수석대표	-6043
▁실시되는	-6044
▁제기했다	-6045
▁주장하며	-6046
▁카르자이	-6047
▁지도자들이	-6048
▁잊	-6049
▁텐	-6050
거운	-6051
겨진	-6052
다이	-6053
말을	-6054
비로	-6055
애미	-6056
움이	-6057
지자	-6058
차별	-6059
타는	-6060
화는	-6061
400	-6062
ake	-6063
enc	-6064
red	-6065
▁결코	-6066
▁군은	-6067
▁급증	-6068
▁기부	-6069
▁높이	-6070
▁눈에	-6071
▁다섯	-6072
▁뒤를	-6073
▁로드	-6074
▁문서	-6075
▁부담	-6076
▁부부	-6077
▁비핵	-6078
▁상관	-6079
▁스턴	-6080
▁시에	-6081
▁쌍둥	-6082
▁압도	-6083
▁에는	-6084
▁영웅	-6085
▁예를	-6086
▁유출	-6087
▁의약	-6088
▁입법	-6089
▁정착	-6090
▁정해	-6091
▁중부	-6092
▁초반	-6093
▁충격	-6094
▁케빈	-6095
▁탄핵	-6096
▁폭격	-6097
▁폭파	-6098
▁풀어	-6099
▁해수	-6100
▁현실	-6101
▁후진	-6102
갔다고	-6103
경찰이	-6104
부르크	-6105
용으로	-6106
있다고	-6107
했다며	-6108
▁결론을	-6109
▁관계에	-6110
▁규모가	-6111
▁그것을	-6112
▁당국의	-6113
▁머물고	-6114
▁부부는	-6115
▁사태에	-6116
▁상태로	-6117
▁샌디에	-6118
▁시기에	-6119
▁심지어	-6120
▁아파트	-6121
▁알코올	-6122
▁언론에	-6123
▁여당인	-6124
▁연루된	-6125
▁완전한	-6126
▁의혹을	-6127
▁인근에	-6128
▁전부터	-6129
▁집회를	-6130
▁차량에	-6131
▁태도를	-6132
▁필라델	-6133
▁합의를	-6134
▁확실한	-6135
▁국민들이	-6136
▁용의자가	-6137
▁인터넷을	-6138
▁자신에게	-6139
▁즉각적인	-6140
▁참석했다	-6141
▁프랑스의	-6142
▁한국에서	-6143
뿐만아니라	-6144
▁국민들에게	-6145
▁국제사회의	-6146
▁블라디미르	-6147
▁웹사이트를	-6148
▁윌리엄스는	-6149
▁합의했다고	-6150
▁오사마빈라덴	-6151
▁캘리포니아주	-6152
82	-6153
▁~	-6154
▁딕	-6155
▁쌀	-6156
▁훔	-6157
공격	-6158
다운	-6159
레나	-6160
련의	-6161
률은	-6162
르다	-6163
매우	-6164
목을	-6165
민족	-6166
밀한	-6167
비와	-6168
살의	-6169
세는	-6170
셔츠	-6171
스티	-6172
업에	-6173
연방	-6174
중에	-6175
타오	-6176
협정	-6177
활동	-6178
ail	-6179
ama	-6180
▁가해	-6181
▁게재	-6182
▁곳을	-6183
▁날짜	-6184
▁내정	-6185
▁년간	-6186
▁눈이	-6187
▁다운	-6188
▁물을	-6189
▁물이	-6190
▁미칠	-6191
▁법을	-6192
▁북쪽	-6193
▁분류	-6194
▁새벽	-6195
▁연예	-6196
▁오딩	-6197
▁온실	-6198
▁옷을	-6199
▁위로	-6200
▁입을	-6201
▁졸업	-6202
▁종합	-6203
▁중간	-6204
▁차단	-6205
▁차드	-6206
▁채널	-6207
▁촉진	-6208
▁추모	-6209
▁침몰	-6210
▁카를	-6211
▁항소	-6212
▁헨리	-6213
▁과정을	-6214
▁디지털	-6215
▁받으며	-6216
▁배심원	-6217
▁비타민	-6218
▁산사태	-6219
▁상하이	-6220
▁왕세자	-6221
▁이산화	-6222
▁일본에	-6223
▁일주일	-6224
▁중앙일	-6225
▁증가한	-6226
▁지하철	-6227
▁치열한	-6228
▁트레이	-6229
▁펼쳤다	-6230
▁폭발이	-6231
▁프레스	-6232
▁훌륭한	-6233
▁관리들이	-6234
▁마이애미	-6235
▁미시시피	-6236
▁오바마와	-6237
▁이에따라	-6238
▁캄보디아	-6239
▁평가했다	-6240
▁지지자들은	-6241
▁전세계적으로	-6242
▁President	-6243
12	-6244
SC	-6245
av	-6246
▁갱	-6247
▁옹	-6248
▁좁	-6249
건이	-6250
결승	-6251
고기	-6252
끄러	-6253
닉스	-6254
동맹	-6255
르가	-6256
석이	-6257
아메	-6258
제재	-6259
조합	-6260
지원	-6261
필드	-6262
한은	-6263
.1%	-6264
PEC	-6265
▁감금	-6266
▁골든	-6267
▁과반	-6268
▁그들	-6269
▁그러	-6270
▁근육	-6271
▁낸시	-6272
▁노스	-6273
▁뉴저	-6274
▁다윈	-6275
▁대립	-6276
▁돌입	-6277
▁등에	-6278
▁부르	-6279
▁부채	-6280
▁빅토	-6281
▁빈민	-6282
▁소집	-6283
▁시각	-6284
▁시내	-6285
▁오토	-6286
▁왕실	-6287
▁일제	-6288
▁존슨	-6289
▁최루	-6290
▁특수	-6291
▁호랑	-6292
▁홍수	-6293
▁흥미	-6294
년에서	-6295
았으며	-6296
▁2-1	-6297
▁가즈니	-6298
▁거리에	-6299
▁공항에	-6300
▁노동자	-6301
▁당신은	-6302
▁로이터	-6303
▁사우스	-6304
▁상태가	-6305
▁연구는	-6306
▁오늘날	-6307
▁위협이	-6308
▁인구가	-6309
▁인질로	-6310
▁장면이	-6311
▁조치는	-6312
▁증시는	-6313
▁참여한	-6314
▁초점을	-6315
▁폴란드	-6316
회의에서	-6317
▁가족들이	-6318
▁경기부양	-6319
▁방식으로	-6320
▁컴퓨터를	-6321
▁투표에서	-6322
▁프리미어	-6323
▁공개적으로	-6324
▁마이크로소	-6325
▁사르코지는	-6326
▁이루어졌다	-6327
▁아프가니스탄에서	-6328
aw	-6329
▁X	-6330
▁겸	-6331
▁낼	-6332
구조	-6333
라에	-6334
셔널	-6335
오픈	-6336
지아	-6337
키퍼	-6338
톤의	-6339
해온	-6340
.8%	-6341
ens	-6342
ors	-6343
ush	-6344
▁47	-6345
▁갖춘	-6346
▁공간	-6347
▁나왔	-6348
▁남동	-6349
▁늦게	-6350
▁대치	-6351
▁마라	-6352
▁만남	-6353
▁물에	-6354
▁반영	-6355
▁비극	-6356
▁수하	-6357
▁신도	-6358
▁심사	-6359
▁에베	-6360
▁원숭	-6361
▁전설	-6362
▁전염	-6363
▁주연	-6364
▁초청	-6365
▁클레	-6366
▁탄압	-6367
▁프랭	-6368
▁플루	-6369
년만에	-6370
라마바	-6371
렸으며	-6372
자동차	-6373
작전을	-6374
직에서	-6375
▁off	-6376
▁가했다	-6377
▁골키퍼	-6378
▁그대로	-6379
▁남동부	-6380
▁단어장	-6381
▁대단한	-6382
▁리히터	-6383
▁방송을	-6384
▁보스턴	-6385
▁사실은	-6386
▁사회적	-6387
▁세계의	-6388
▁세력이	-6389
▁승리할	-6390
▁아들이	-6391
▁아마도	-6392
▁여성과	-6393
▁오히려	-6394
▁이같이	-6395
▁이곳에	-6396
▁이사회	-6397
▁장관의	-6398
▁전역에	-6399
▁토네이	-6400
▁페르난	-6401
▁평화를	-6402
▁포함돼	-6403
▁했다는	-6404
▁혜택을	-6405
▁휴가를	-6406
▁논의하기	-6407
▁무엇보다	-6408
▁변호사가	-6409
▁부상으로	-6410
▁브라이언	-6411
▁블라고예	-6412
▁여성들이	-6413
▁우리나라	-6414
▁움직임을	-6415
▁이미지를	-6416
▁자치정부	-6417
▁진술했다	-6418
▁에베레스트	-6419
▁열린우리당	-6420
▁인플레이션	-6421
▁필라델피아	-6422
IV	-6423
▁밥	-6424
가와	-6425
건은	-6426
라와	-6427
몬트	-6428
성장	-6429
세에	-6430
소와	-6431
위츠	-6432
이와	-6433
자유	-6434
커는	-6435
코맥	-6436
테네	-6437
품이	-6438
프가	-6439
ark	-6440
ork	-6441
▁41	-6442
▁61	-6443
▁Se	-6444
▁un	-6445
▁가게	-6446
▁가치	-6447
▁거대	-6448
▁게시	-6449
▁금리	-6450
▁기각	-6451
▁나의	-6452
▁난사	-6453
▁다리	-6454
▁담겨	-6455
▁로저	-6456
▁블루	-6457
▁사전	-6458
▁상상	-6459
▁소형	-6460
▁순례	-6461
▁얼음	-6462
▁예선	-6463
▁인명	-6464
▁임금	-6465
▁자문	-6466
▁체코	-6467
도에서	-6468
립니다	-6469
안에서	-6470
운동을	-6471
적이며	-6472
페이스	-6473
lear	-6474
▁가족과	-6475
▁감염된	-6476
▁개혁을	-6477
▁공개된	-6478
▁공산당	-6479
▁기록한	-6480
▁다음날	-6481
▁단체가	-6482
▁라이언	-6483
▁마무드	-6484
▁방문객	-6485
▁번째로	-6486
▁베컴은	-6487
▁예정인	-6488
▁유튜브	-6489
▁정도의	-6490
▁제공할	-6491
▁중대한	-6492
▁해결할	-6493
▁화이트	-6494
▁화재로	-6495
시켰다고	-6496
▁내무부는	-6497
▁당선인의	-6498
▁사람들과	-6499
▁사람에게	-6500
▁여객기가	-6501
▁영향력을	-6502
▁있었으나	-6503
▁목격자들은	-6504
▁이슬라마바	-6505
▁조사에따르면	-6506
▁2009.06	-6507
▁센	-6508
▁쓸	-6509
감독	-6510
곳을	-6511
관의	-6512
금지	-6513
기자	-6514
먼은	-6515
물의	-6516
즈를	-6517
트와	-6518
튼은	-6519
피트	-6520
호의	-6521
확인	-6522
600	-6523
ass	-6524
ide	-6525
ord	-6526
▁가담	-6527
▁각료	-6528
▁광부	-6529
▁구멍	-6530
▁기도	-6531
▁기온	-6532
▁남극	-6533
▁누리	-6534
▁다큐	-6535
▁달라	-6536
▁당부	-6537
▁롤링	-6538
▁미성	-6539
▁배후	-6540
▁보지	-6541
▁부딪	-6542
▁부서	-6543
▁비평	-6544
▁사육	-6545
▁상반	-6546
▁상을	-6547
▁선관	-6548
▁세포	-6549
▁올리	-6550
▁외부	-6551
▁원칙	-6552
▁이자	-6553
▁입수	-6554
▁전용	-6555
▁질환	-6556
▁축제	-6557
▁출생	-6558
▁탈북	-6559
▁포드	-6560
▁표를	-6561
▁피츠	-6562
▁해도	-6563
▁흥분	-6564
레스를	-6565
웨이트	-6566
eral	-6567
▁700	-6568
▁PPP	-6569
▁결과로	-6570
▁국장은	-6571
▁그랜드	-6572
▁나라의	-6573
▁둘러싼	-6574
▁또다시	-6575
▁리차드	-6576
▁무사히	-6577
▁물러나	-6578
▁미군을	-6579
▁벌이는	-6580
▁북서부	-6581
▁브랜드	-6582
▁사고를	-6583
▁사업을	-6584
▁승리로	-6585
▁엄청난	-6586
▁여사는	-6587
▁영화제	-6588
▁음식을	-6589
▁통신이	-6590
▁하나인	-6591
▁홍수로	-6592
▁1996	-6593
▁국가안보	-6594
▁미국으로	-6595
▁발생하고	-6596
▁세계적인	-6597
▁안전하게	-6598
▁않겠다고	-6599
▁알렉산더	-6600
▁자유무역	-6601
▁진행되는	-6602
▁증가했다고	-6603
▁보고서에따르면	-6604
-5	-6605
.)	-6606
47	-6607
▁랜	-6608
▁뭄	-6609
감이	-6610
니어	-6611
면에	-6612
명인	-6613
받을	-6614
방에	-6615
뱅크	-6616
보험	-6617
비에	-6618
설을	-6619
언론	-6620
있던	-6621
조원	-6622
치게	-6623
치며	-6624
해줄	-6625
.7%	-6626
ath	-6627
ild	-6628
ire	-6629
▁1%	-6630
▁54	-6631
▁56	-6632
▁57	-6633
▁58	-6634
▁GM	-6635
▁Th	-6636
▁개시	-6637
▁개체	-6638
▁라덴	-6639
▁맡고	-6640
▁보존	-6641
▁선원	-6642
▁섭취	-6643
▁송환	-6644
▁수립	-6645
▁않게	-6646
▁연쇄	-6647
▁영양	-6648
▁예전	-6649
▁요원	-6650
▁우울	-6651
▁일시	-6652
▁종종	-6653
▁주에	-6654
▁투쟁	-6655
관에서	-6656
당국이	-6657
법원은	-6658
시에서	-6659
식에서	-6660
arty	-6661
ence	-6662
▁가족이	-6663
▁거리를	-6664
▁경기가	-6665
▁나오지	-6666
▁다큐멘	-6667
▁단체의	-6668
▁당국에	-6669
▁돌아다	-6670
▁목표를	-6671
▁무슬림	-6672
▁불가피	-6673
▁소규모	-6674
▁아이폰	-6675
▁안정을	-6676
▁여러분	-6677
▁여론조	-6678
▁의원의	-6679
▁자신과	-6680
▁잘못된	-6681
▁절차를	-6682
▁정책에	-6683
▁조종사	-6684
▁주장한	-6685
▁참석할	-6686
▁최대의	-6687
▁패배를	-6688
▁하면서	-6689
▁활주로	-6690
겠습니다	-6691
▁1993	-6692
▁것이었다	-6693
▁근처에서	-6694
▁긍정적인	-6695
▁대의원을	-6696
▁보여주고	-6697
▁비난하는	-6698
▁아메리카	-6699
▁아메리칸	-6700
▁오바마를	-6701
▁월요일에	-6702
▁표명했다	-6703
▁행정부가	-6704
▁후진타오	-6705
uclear	-6706
▁미국인들이	-6707
▁백악관에서	-6708
▁알카에다와	-6709
▁프라이머리	-6710
26	-6711
VD	-6712
▁까	-6713
▁닥	-6714
계는	-6715
글로	-6716
나무	-6717
더스	-6718
만장	-6719
복선	-6720
비상	-6721
아는	-6722
야는	-6723
유로	-6724
의회	-6725
이에	-6726
조를	-6727
종의	-6728
팀을	-6729
행한	-6730
혹한	-6731
화와	-6732
out	-6733
▁Sh	-6734
▁가벼	-6735
▁가을	-6736
▁감옥	-6737
▁공을	-6738
▁관중	-6739
▁그것	-6740
▁글을	-6741
▁마사	-6742
▁마친	-6743
▁많아	-6744
▁말이	-6745
▁반복	-6746
▁보일	-6747
▁소리	-6748
▁소위	-6749
▁손에	-6750
▁스톤	-6751
▁시나	-6752
▁쓰레	-6753
▁않기	-6754
▁에릭	-6755
▁예멘	-6756
▁일에	-6757
▁적대	-6758
▁적발	-6759
▁전복	-6760
▁전환	-6761
▁지붕	-6762
▁진화	-6763
▁참모	-6764
▁축소	-6765
▁침공	-6766
▁태운	-6767
▁포럼	-6768
▁프라	-6769
▁플래	-6770
▁호흡	-6771
▁횡령	-6772
기라이	-6773
라에서	-6774
시스템	-6775
역에서	-6776
자이자	-6777
했음을	-6778
▁감독의	-6779
▁개발을	-6780
▁경험이	-6781
▁곳이다	-6782
▁그레이	-6783
▁근거로	-6784
▁기회가	-6785
▁달리고	-6786
▁뭄바이	-6787
▁부시의	-6788
▁상태를	-6789
▁아기를	-6790
▁아이가	-6791
▁아이디	-6792
▁요청을	-6793
▁인기를	-6794
▁인용해	-6795
▁인질을	-6796
▁재검토	-6797
▁제작한	-6798
▁조사가	-6799
▁주도한	-6800
▁지원할	-6801
▁총재는	-6802
▁최근에	-6803
▁충돌이	-6804
▁키바키	-6805
▁하나로	-6806
▁후보인	-6807
▁1991	-6808
▁다시한번	-6809
▁북쪽으로	-6810
▁연방준비	-6811
▁오바마에	-6812
▁의미한다	-6813
▁이용하는	-6814
▁지도자가	-6815
▁China	-6816
▁경찰서장은	-6817
▁성공적으로	-6818
▁세계적으로	-6819
▁지역에서는	-6820
-6	-6821
90	-6822
GA	-6823
IC	-6824
▁`	-6825
▁폰	-6826
교통	-6827
느냐	-6828
니까	-6829
니티	-6830
등을	-6831
라로	-6832
바르	-6833
사령	-6834
안의	-6835
율로	-6836
임이	-6837
직에	-6838
진과	-6839
질이	-6840
코는	-6841
터가	-6842
ive	-6843
oll	-6844
▁65	-6845
▁88	-6846
▁Sp	-6847
▁Un	-6848
▁갑작	-6849
▁공포	-6850
▁그레	-6851
▁마비	-6852
▁모니	-6853
▁뮤지	-6854
▁반박	-6855
▁발휘	-6856
▁베어	-6857
▁수비	-6858
▁신규	-6859
▁쓰고	-6860
▁얘기	-6861
▁와이	-6862
▁이륙	-6863
▁인민	-6864
▁정의	-6865
▁정찰	-6866
▁짧은	-6867
▁차별	-6868
▁책을	-6869
▁캐릭	-6870
베니아	-6871
폴리스	-6872
▁DVD	-6873
▁IOC	-6874
▁갖추고	-6875
▁검찰이	-6876
▁것임을	-6877
▁계속될	-6878
▁광범위	-6879
▁남서부	-6880
▁남성은	-6881
▁도착한	-6882
▁동맹국	-6883
▁된다는	-6884
▁마음을	-6885
▁메르켈	-6886
▁미시간	-6887
▁미치는	-6888
▁반군의	-6889
▁발표를	-6890
▁비교적	-6891
▁상태다	-6892
▁상황은	-6893
▁세인트	-6894
▁수상한	-6895
▁시위는	-6896
▁원주민	-6897
▁이브라	-6898
▁인간의	-6899
▁정권을	-6900
▁주었다	-6901
▁중단할	-6902
▁차이가	-6903
▁충격을	-6904
▁파나마	-6905
▁합의한	-6906
▁했었다	-6907
▁혼란을	-6908
▁확인할	-6909
▁희망을	-6910
▁힐튼은	-6911
▁가택연금	-6912
▁뉴햄프셔	-6913
▁비행기를	-6914
▁소식통이	-6915
▁아이들의	-6916
▁제조업체	-6917
▁주둔하고	-6918
▁차지하고	-6919
▁치명적인	-6920
▁항공우주	-6921
▁안전보장이	-6922
▁체포됐다고	-6923
▁한나라당은	-6924
▁2008.12	-6925
▁nuclear	-6926
▁사우스캐롤라이나	-6927
BM	-6928
MF	-6929
PA	-6930
ai	-6931
▁꼬	-6932
▁링	-6933
▁숲	-6934
▁옛	-6935
▁팝	-6936
급을	-6937
남미	-6938
널드	-6939
니에	-6940
데스	-6941
려진	-6942
밀히	-6943
받은	-6944
버리	-6945
비스	-6946
생물	-6947
시와	-6948
실은	-6949
연한	-6950
일으	-6951
접한	-6952
천만	-6953
펠드	-6954
프랑	-6955
학적	-6956
ank	-6957
ays	-6958
▁5%	-6959
▁걸린	-6960
▁관측	-6961
▁구단	-6962
▁동생	-6963
▁되돌	-6964
▁리더	-6965
▁리드	-6966
▁말할	-6967
▁모래	-6968
▁무게	-6969
▁부산	-6970
▁부양	-6971
▁북동	-6972
▁수여	-6973
▁스콜	-6974
▁식료	-6975
▁아는	-6976
▁옹호	-6977
▁이식	-6978
▁제목	-6979
▁제트	-6980
▁조언	-6981
▁조용	-6982
▁출두	-6983
▁탱크	-6984
▁폭설	-6985
▁표준	-6986
▁하미	-6987
▁화려	-6988
▁회장	-6989
공화국	-6990
관들이	-6991
된다면	-6992
드리게	-6993
문에서	-6994
주의자	-6995
tive	-6996
▁New	-6997
▁관련한	-6998
▁규정을	-6999
▁그렇지	-7000
▁나에게	-7001
▁난민촌	-7002
▁노력이	-7003
▁대상이	-7004
▁도로를	-7005
▁등으로	-7006
▁만들기	-7007
▁문제와	-7008
▁미군과	-7009
▁발견한	-7010
▁방법은	-7011
▁법무부	-7012
▁벨기에	-7013
▁별다른	-7014
▁사고는	-7015
▁사드르	-7016
▁속도로	-7017
▁실시할	-7018
▁언급을	-7019
▁영국인	-7020
▁영화에	-7021
▁우리를	-7022
▁이름이	-7023
▁일어날	-7024
▁일어났	-7025
▁있어야	-7026
▁직원이	-7027
▁탑승객	-7028
▁투표에	-7029
▁하루에	-7030
▁했으나	-7031
▁행사를	-7032
▁헬기가	-7033
▁협상에	-7034
했었다고	-7035
▁1995	-7036
▁over	-7037
▁가족들은	-7038
▁국제공항	-7039
▁남부에서	-7040
▁발표하고	-7041
▁변호사인	-7042
▁불러일으	-7043
▁수준으로	-7044
▁운영하고	-7045
▁쿠웨이트	-7046
▁해리포터	-7047
▁알카에다의	-7048
▁외교통상부	-7049
▁월스트리트	-7050
inister	-7051
▁국제원자력기구	-7052
▁마이크로소프트	-7053
ex	-7054
▁닉	-7055
▁핀	-7056
교를	-7057
교육	-7058
레인	-7059
바스	-7060
소속	-7061
오고	-7062
주지	-7063
티오	-7064
협력	-7065
확실	-7066
800	-7067
ret	-7068
tit	-7069
▁62	-7070
▁63	-7071
▁66	-7072
▁AT	-7073
▁급락	-7074
▁나은	-7075
▁낙관	-7076
▁낮추	-7077
▁눈을	-7078
▁당초	-7079
▁당황	-7080
▁듣고	-7081
▁따돌	-7082
▁떠난	-7083
▁루아	-7084
▁방사	-7085
▁벌금	-7086
▁벗어	-7087
▁보게	-7088
▁본격	-7089
▁상영	-7090
▁성추	-7091
▁세부	-7092
▁수리	-7093
▁신중	-7094
▁아난	-7095
▁얻고	-7096
▁없게	-7097
▁없고	-7098
▁에콰	-7099
▁완료	-7100
▁자제	-7101
▁정교	-7102
▁종결	-7103
▁친척	-7104
▁코끼	-7105
▁행진	-7106
▁황금	-7107
▁후지	-7108
라스틱	-7109
메이트	-7110
올리언	-7111
적이다	-7112
7000	-7113
ound	-7114
▁가족은	-7115
▁결혼을	-7116
▁경찰청	-7117
▁고위관	-7118
▁공습을	-7119
▁교육을	-7120
▁나타난	-7121
▁남자는	-7122
▁뉴욕의	-7123
▁미디어	-7124
▁부부가	-7125
▁사용해	-7126
▁생각이	-7127
▁생명을	-7128
▁선수가	-7129
▁수감자	-7130
▁않았던	-7131
▁압박을	-7132
▁원인이	-7133
▁은행의	-7134
▁촬영한	-7135
▁케이트	-7136
▁테러에	-7137
인들에게	-7138
적이라고	-7139
▁계속되는	-7140
▁교도소에	-7141
▁국가들은	-7142
▁들어갔다	-7143
▁받아들여	-7144
▁방문하는	-7145
▁성관계를	-7146
▁애리조나	-7147
▁에드워즈	-7148
▁이산화탄	-7149
▁인근에서	-7150
▁조건으로	-7151
▁주장한다	-7152
▁해안에서	-7153
▁매사추세츠	-7154
▁전문가들이	-7155
▁한나라당의	-7156
2009.06	-7157
▁200806	-7158
▁스타디움에서	-7159
▁싫	-7160
▁윔	-7161
도우	-7162
래스	-7163
량은	-7164
리어	-7165
마는	-7166
마이	-7167
모스	-7168
발전	-7169
블던	-7170
소한	-7171
식은	-7172
였고	-7173
자료	-7174
점은	-7175
타르	-7176
프를	-7177
학과	-7178
향을	-7179
.2%	-7180
.3%	-7181
ese	-7182
▁3,	-7183
▁59	-7184
▁곳은	-7185
▁관료	-7186
▁금연	-7187
▁기여	-7188
▁끝날	-7189
▁내보	-7190
▁다행	-7191
▁달린	-7192
▁부활	-7193
▁불이	-7194
▁상륙	-7195
▁선물	-7196
▁선제	-7197
▁설문	-7198
▁세비	-7199
▁수배	-7200
▁알지	-7201
▁어깨	-7202
▁연금	-7203
▁용납	-7204
▁재임	-7205
▁코카	-7206
▁탄생	-7207
▁팀이	-7208
▁허커	-7209
▁혁명	-7210
▁호르	-7211
▁환호	-7212
라이브	-7213
명에서	-7214
미국은	-7215
사태를	-7216
스트는	-7217
은행은	-7218
지수가	-7219
해야만	-7220
land	-7221
▁Sec	-7222
▁가치를	-7223
▁결정할	-7224
▁교황은	-7225
▁국가로	-7226
▁대표가	-7227
▁마라톤	-7228
▁마리아	-7229
▁만났다	-7230
▁목표는	-7231
▁미성년	-7232
▁민감한	-7233
▁바라는	-7234
▁법안은	-7235
▁사상자	-7236
▁생방송	-7237
▁시신이	-7238
▁식료품	-7239
▁양국의	-7240
▁음악을	-7241
▁일본과	-7242
▁일으킬	-7243
▁작업에	-7244
▁정권이	-7245
▁종류의	-7246
▁증시가	-7247
▁진정한	-7248
▁처벌을	-7249
▁철수를	-7250
▁파업을	-7251
▁포인트	-7252
▁하락한	-7253
▁호주의	-7254
▁1960	-7255
▁from	-7256
▁국방장관	-7257
▁뉴올리언	-7258
▁로드리게	-7259
▁비난하며	-7260
▁사용하지	-7261
▁상태이다	-7262
▁아이들은	-7263
▁의사들은	-7264
▁지점에서	-7265
▁카스트로	-7266
▁헌법재판	-7267
▁분석가들은	-7268
▁샌디에이고	-7269
TS	-7270
mb	-7271
▁j	-7272
▁널	-7273
격히	-7274
그녀	-7275
니와	-7276
당을	-7277
름을	-7278
병이	-7279
사무	-7280
사이	-7281
세와	-7282
식의	-7283
실로	-7284
톨릭	-7285
판이	-7286
호르	-7287
.04	-7288
.9%	-7289
mit	-7290
ous	-7291
ree	-7292
▁77	-7293
▁En	-7294
▁Ob	-7295
▁ab	-7296
▁as	-7297
▁가상	-7298
▁갔다	-7299
▁개장	-7300
▁계좌	-7301
▁나눴	-7302
▁느낄	-7303
▁담은	-7304
▁돕기	-7305
▁로딕	-7306
▁만일	-7307
▁본부	-7308
▁빌딩	-7309
▁샘플	-7310
▁선임	-7311
▁선호	-7312
▁습격	-7313
▁시대	-7314
▁신조	-7315
▁아시	-7316
▁앞둔	-7317
▁약화	-7318
▁영상	-7319
▁왼쪽	-7320
▁원래	-7321
▁전사	-7322
▁정지	-7323
▁케리	-7324
▁탐험	-7325
▁태어	-7326
▁특징	-7327
▁파이	-7328
▁향상	-7329
▁협회	-7330
▁휩쓸	-7331
냈다고	-7332
당했다	-7333
되거나	-7334
만으로	-7335
면에서	-7336
위에서	-7337
지역을	-7338
타나모	-7339
파운드	-7340
학자인	-7341
IAEA	-7342
▁MBC	-7343
▁dis	-7344
▁new	-7345
▁가족을	-7346
▁기쁘다	-7347
▁다리를	-7348
▁당신의	-7349
▁돌고래	-7350
▁돌아오	-7351
▁동일한	-7352
▁밝혀진	-7353
▁성명은	-7354
▁소식은	-7355
▁아들을	-7356
▁앤드류	-7357
▁양측은	-7358
▁여부에	-7359
▁영국군	-7360
▁우주선	-7361
▁이용할	-7362
▁일본인	-7363
▁자리에	-7364
▁죽음을	-7365
▁출연한	-7366
▁충돌로	-7367
▁팬들은	-7368
▁학교에	-7369
▁후보와	-7370
▁2500	-7371
▁거주하고	-7372
▁공개됐다	-7373
▁국가들이	-7374
▁동티모르	-7375
▁드러냈다	-7376
▁마드리드	-7377
▁밝혔지만	-7378
▁부정적인	-7379
▁부통령은	-7380
▁소유하고	-7381
▁않는다는	-7382
▁원자로를	-7383
▁인질들을	-7384
▁자카르타	-7385
▁지시했다	-7386
▁천연가스	-7387
▁클린턴의	-7388
▁평화유지	-7389
▁해당하는	-7390
▁화요일에	-7391
oreign	-7392
▁대선후보로	-7393
▁아프간에서	-7394
▁유권자들이	-7395
▁지지자들이	-7396
▁크라이슬러	-7397
▁폭력사태가	-7398
▁블라고예비치	-7399
▁프리미어리그	-7400
PP	-7401
eg	-7402
▁첩	-7403
▁템	-7404
관인	-7405
나를	-7406
디스	-7407
렸고	-7408
로코	-7409
마자	-7410
보건	-7411
봉사	-7412
슨과	-7413
영국	-7414
용이	-7415
인도	-7416
입어	-7417
클로	-7418
타를	-7419
토늄	-7420
파라	-7421
화한	-7422
.6%	-7423
▁69	-7424
▁갖는	-7425
▁개편	-7426
▁계열	-7427
▁공약	-7428
▁기차	-7429
▁대대	-7430
▁떠올	-7431
▁맞는	-7432
▁매달	-7433
▁멤버	-7434
▁몰고	-7435
▁발포	-7436
▁백인	-7437
▁본토	-7438
▁부유	-7439
▁불쾌	-7440
▁빨간	-7441
▁사설	-7442
▁손님	-7443
▁스카	-7444
▁안타	-7445
▁암컷	-7446
▁앤더	-7447
▁양의	-7448
▁열고	-7449
▁유도	-7450
▁유인	-7451
▁잇따	-7452
▁재직	-7453
▁정거	-7454
▁종료	-7455
▁좌절	-7456
▁줄어	-7457
▁줄일	-7458
▁직전	-7459
▁창출	-7460
▁처해	-7461
▁철군	-7462
▁캐롤	-7463
▁쿠퍼	-7464
▁테네	-7465
▁포로	-7466
▁포착	-7467
▁푸에	-7468
▁혼자	-7469
▁화합	-7470
▁활약	-7471
▁회계	-7472
▁효율	-7473
당에서	-7474
리프는	-7475
왔으며	-7476
이것은	-7477
일에는	-7478
자로서	-7479
장관이	-7480
정부의	-7481
토니오	-7482
6000	-7483
NASA	-7484
onom	-7485
▁FRB	-7486
▁HIV	-7487
▁tal	-7488
▁건물이	-7489
▁격렬한	-7490
▁경제의	-7491
▁구호를	-7492
▁기업의	-7493
▁단체인	-7494
▁도시의	-7495
▁두번째	-7496
▁마흐디	-7497
▁무고한	-7498
▁민병대	-7499
▁베스트	-7500
▁보도가	-7501
▁보이며	-7502
▁북부에	-7503
▁브리핑	-7504
▁비서실	-7505
▁사실에	-7506
▁상승한	-7507
▁소식에	-7508
▁시드의	-7509
▁신고를	-7510
▁애완견	-7511
▁원하고	-7512
▁위대한	-7513
▁윔블던	-7514
▁유엔의	-7515
▁일이다	-7516
▁장군은	-7517
▁조사한	-7518
▁주의를	-7519
▁차이로	-7520
▁크레이	-7521
▁페이스	-7522
▁펠로시	-7523
▁푸틴은	-7524
▁힘입어	-7525
아일랜드	-7526
아프리카	-7527
축구연맹	-7528
티오피아	-7529
▁1500	-7530
▁4000	-7531
▁NATO	-7532
▁남자친구	-7533
▁밝혔다고	-7534
▁밝혔으며	-7535
▁브라운은	-7536
▁상태에서	-7537
▁선포했다	-7538
▁심각하게	-7539
▁않았으나	-7540
▁예를들어	-7541
▁우리에게	-7542
▁있었다는	-7543
▁자택에서	-7544
▁지도자는	-7545
▁직접적인	-7546
▁추정된다	-7547
▁하마스가	-7548
15	-7549
AS	-7550
ML	-7551
ft	-7552
▁닫	-7553
▁댄	-7554
▁썼	-7555
▁퀸	-7556
경은	-7557
기기	-7558
끔찍	-7559
단히	-7560
돼야	-7561
란을	-7562
물은	-7563
법원	-7564
법은	-7565
생산	-7566
심이	-7567
얼리	-7568
작전	-7569
정의	-7570
정치	-7571
즈와	-7572
진압	-7573
체제	-7574
타이	-7575
품에	-7576
할지	-7577
ave	-7578
erv	-7579
oci	-7580
▁ar	-7581
▁고급	-7582
▁고유	-7583
▁군대	-7584
▁군이	-7585
▁금액	-7586
▁길이	-7587
▁낙태	-7588
▁남겨	-7589
▁동남	-7590
▁되길	-7591
▁딸을	-7592
▁마돈	-7593
▁복역	-7594
▁부적	-7595
▁불에	-7596
▁소련	-7597
▁수면	-7598
▁여섯	-7599
▁오스	-7600
▁위스	-7601
▁의도	-7602
▁주주	-7603
▁축출	-7604
▁출구	-7605
▁침략	-7606
▁카터	-7607
▁탈락	-7608
▁파라	-7609
▁폭스	-7610
▁피살	-7611
▁현장	-7612
▁힌두	-7613
경기를	-7614
앞으로	-7615
있으며	-7616
1000	-7617
ilit	-7618
▁30%	-7619
▁Pro	-7620
▁his	-7621
▁경쟁을	-7622
▁교도소	-7623
▁뉴저지	-7624
▁데이빗	-7625
▁들어간	-7626
▁라파엘	-7627
▁매니저	-7628
▁모양의	-7629
▁빠져나	-7630
▁사과를	-7631
▁사항을	-7632
▁상당히	-7633
▁성장을	-7634
▁손실을	-7635
▁수도인	-7636
▁실수를	-7637
▁않았고	-7638
▁역사적	-7639
▁인도의	-7640
▁지지자	-7641
▁투자가	-7642
▁평화와	-7643
▁피라미	-7644
▁하나는	-7645
이지애나	-7646
ution	-7647
▁1992	-7648
▁곤잘레스	-7649
▁공산주의	-7650
▁국무부는	-7651
▁마을에서	-7652
▁못하도록	-7653
▁바란다고	-7654
▁발표됐다	-7655
▁방향으로	-7656
▁아버지가	-7657
▁않는다면	-7658
▁없습니다	-7659
▁영화배우	-7660
▁용의자로	-7661
▁위치하고	-7662
▁인도주의	-7663
▁전망했다	-7664
▁지원하는	-7665
▁결정했다고	-7666
▁이스라엘에	-7667
▁전국적으로	-7668
▁government	-7669
'(	-7670
la	-7671
▁깃	-7672
▁띄	-7673
▁컬	-7674
▁햄	-7675
경영	-7676
그로	-7677
당국	-7678
도상	-7679
라드	-7680
린은	-7681
마디	-7682
사항	-7683
슬리	-7684
승희	-7685
역에	-7686
연히	-7687
책이	-7688
트북	-7689
페이	-7690
하르	-7691
향이	-7692
iti	-7693
one	-7694
rou	-7695
▁BA	-7696
▁NK	-7697
▁가속	-7698
▁내고	-7699
▁넘겨	-7700
▁농업	-7701
▁놓여	-7702
▁당사	-7703
▁데에	-7704
▁딸이	-7705
▁러닝	-7706
▁말에	-7707
▁메디	-7708
▁미스	-7709
▁방위	-7710
▁번의	-7711
▁벌써	-7712
▁불어	-7713
▁선전	-7714
▁신분	-7715
▁실린	-7716
▁양육	-7717
▁억제	-7718
▁에넹	-7719
▁울포	-7720
▁의뢰	-7721
▁일상	-7722
▁일축	-7723
▁자동	-7724
▁저희	-7725
▁점검	-7726
▁처한	-7727
▁투르	-7728
▁퍼거	-7729
▁하에	-7730
▁해서	-7731
나에서	-7732
때까지	-7733
마리를	-7734
분만에	-7735
서에서	-7736
세에서	-7737
시리즈	-7738
원들의	-7739
젤레스	-7740
주년을	-7741
태평양	-7742
판결을	-7743
해지고	-7744
ates	-7745
▁감사의	-7746
▁결의안	-7747
▁광고를	-7748
▁군사적	-7749
▁논쟁을	-7750
▁논쟁이	-7751
▁놀라운	-7752
▁도시인	-7753
▁떠났다	-7754
▁받았던	-7755
▁보도에	-7756
▁복잡한	-7757
▁소속의	-7758
▁않기로	-7759
▁영국은	-7760
▁우주왕	-7761
▁은행에	-7762
▁이뤄진	-7763
▁이용한	-7764
▁정신적	-7765
▁제공한	-7766
▁주가는	-7767
▁중이던	-7768
▁참여할	-7769
▁통일부	-7770
▁파바로	-7771
▁페더러	-7772
▁평화적	-7773
▁포함된	-7774
▁프랭크	-7775
▁하미드	-7776
▁행사에	-7777
▁회장이	-7778
▁5000	-7779
▁7000	-7780
▁UEFA	-7781
▁개인적인	-7782
▁공습으로	-7783
▁관타나모	-7784
▁교통사고	-7785
▁무장대원	-7786
▁법원에서	-7787
▁보입니다	-7788
▁외무부는	-7789
▁요구하며	-7790
▁유지하고	-7791
▁이뤄졌다	-7792
▁전통적인	-7793
▁지원하고	-7794
▁지지하고	-7795
▁직원들이	-7796
▁캠페인을	-7797
▁페더러는	-7798
▁플라스틱	-7799
▁행정부의	-7800
▁다이아몬드	-7801
▁상원의원과	-7802
▁상원의원의	-7803
▁예정이었다	-7804
▁정상회담을	-7805
▁펜실베니아	-7806
OR	-7807
ob	-7808
▁곰	-7809
▁떼	-7810
▁럼	-7811
▁밟	-7812
▁뱀	-7813
▁탔	-7814
경에	-7815
내며	-7816
리코	-7817
마의	-7818
문은	-7819
바오	-7820
법에	-7821
음악	-7822
정상	-7823
클럽	-7824
터스	-7825
편의	-7826
폴리	-7827
ile	-7828
own	-7829
▁2%	-7830
▁가고	-7831
▁갇혀	-7832
▁건너	-7833
▁고무	-7834
▁공룡	-7835
▁국토	-7836
▁기금	-7837
▁나선	-7838
▁나설	-7839
▁녹음	-7840
▁느낀	-7841
▁도요	-7842
▁되며	-7843
▁면담	-7844
▁몸에	-7845
▁벽돌	-7846
▁북서	-7847
▁세속	-7848
▁식민	-7849
▁심문	-7850
▁아닙	-7851
▁연간	-7852
▁옐친	-7853
▁오리	-7854
▁잡혀	-7855
▁점거	-7856
▁제리	-7857
▁제압	-7858
▁조절	-7859
▁주기	-7860
▁주유	-7861
▁진보	-7862
▁징후	-7863
▁처방	-7864
▁천문	-7865
▁카리	-7866
▁탄광	-7867
▁함유	-7868
기까지	-7869
았지만	-7870
자이너	-7871
차례에	-7872
탈레반	-7873
프라임	-7874
하마드	-7875
혐의로	-7876
회의에	-7877
4000	-7878
▁140	-7879
▁160	-7880
▁PKK	-7881
▁가벼운	-7882
▁건강이	-7883
▁경기침	-7884
▁경선을	-7885
▁기소된	-7886
▁노래를	-7887
▁높다고	-7888
▁다쳤다	-7889
▁대다수	-7890
▁또다른	-7891
▁루아얄	-7892
▁뮤지컬	-7893
▁미국측	-7894
▁범인이	-7895
▁부분을	-7896
▁살아남	-7897
▁상당의	-7898
▁생산을	-7899
▁성향의	-7900
▁세계적	-7901
▁시라크	-7902
▁시장을	-7903
▁쓰촨성	-7904
▁아테네	-7905
▁영국과	-7906
▁오클라	-7907
▁왕자가	-7908
▁원인은	-7909
▁위험을	-7910
▁조사는	-7911
▁준결승	-7912
▁지역인	-7913
▁총상을	-7914
▁카트리	-7915
▁테러는	-7916
▁투자를	-7917
▁포르노	-7918
▁필요로	-7919
▁한국을	-7920
▁행위에	-7921
▁활동에	-7922
▁회사를	-7923
▁회의에	-7924
▁효과가	-7925
선거에서	-7926
았습니다	-7927
▁고려하고	-7928
▁기소됐다	-7929
▁당했다고	-7930
▁민주당이	-7931
▁불가리아	-7932
▁비행기가	-7933
▁아니었다	-7934
▁올림픽을	-7935
▁외무장관	-7936
▁이와같이	-7937
▁인터넷에	-7938
▁일이라고	-7939
▁자유롭게	-7940
▁좋아하는	-7941
▁클린턴에	-7942
▁확인됐다	-7943
자들로부터	-7944
▁1,000	-7945
▁때문이라고	-7946
▁상원의원을	-7947
▁있었습니다	-7948
▁발표했습니다	-7949
▁2005.10	-7950
~2	-7951
▁겁	-7952
▁쏘	-7953
▁얀	-7954
▁핸	-7955
검찰	-7956
과학	-7957
구에	-7958
그의	-7959
니야	-7960
당과	-7961
두는	-7962
락을	-7963
받아	-7964
사관	-7965
세대	-7966
스쿠	-7967
아직	-7968
았을	-7969
어질	-7970
에미	-7971
우기	-7972
이한	-7973
제르	-7974
진의	-7975
체는	-7976
체에	-7977
카트	-7978
행위	-7979
.4%	-7980
orn	-7981
ris	-7982
ves	-7983
▁4%	-7984
▁72	-7985
▁간부	-7986
▁간에	-7987
▁갈라	-7988
▁개성	-7989
▁검증	-7990
▁공원	-7991
▁괴한	-7992
▁교전	-7993
▁금메	-7994
▁대로	-7995
▁도청	-7996
▁떠날	-7997
▁맞고	-7998
▁멀리	-7999
▁멈추	-8000
▁물고	-8001
▁미첼	-8002
▁발발	-8003
▁보급	-8004
▁쉽지	-8005
▁실무	-8006
▁아틀	-8007
▁알레	-8008
▁알제	-8009
▁양곤	-8010
▁어두	-8011
▁연계	-8012
▁우고	-8013
▁윤리	-8014
▁의문	-8015
▁자발	-8016
▁잡아	-8017
▁즐길	-8018
▁지고	-8019
▁카메	-8020
▁커뮤	-8021
▁콜린	-8022
▁쿠즈	-8023
▁클라	-8024
▁탄도	-8025
▁통상	-8026
▁하여	-8027
▁휴가	-8028
베르토	-8029
월에는	-8030
이즈미	-8031
진으로	-8032
쳤으며	-8033
행위를	-8034
tern	-8035
▁WHO	-8036
▁not	-8037
▁vis	-8038
▁가족의	-8039
▁건강한	-8040
▁국민의	-8041
▁그녀를	-8042
▁나달은	-8043
▁나이가	-8044
▁남부에	-8045
▁남성의	-8046
▁남편인	-8047
▁늘어나	-8048
▁됐으며	-8049
▁디스크	-8050
▁막대한	-8051
▁반대로	-8052
▁방송에	-8053
▁법안에	-8054
▁보이콧	-8055
▁보호를	-8056
▁않으며	-8057
▁양국은	-8058
▁언론의	-8059
▁얼마전	-8060
▁연합군	-8061
▁열렸다	-8062
▁완벽한	-8063
▁이끌고	-8064
▁이란과	-8065
▁이익을	-8066
▁이제는	-8067
▁일으켰	-8068
▁제출한	-8069
▁조사할	-8070
▁증가할	-8071
▁최선을	-8072
▁폭우로	-8073
▁한국군	-8074
▁해병대	-8075
▁핵개발	-8076
▁cont	-8077
▁결선투표	-8078
▁국가에서	-8079
▁대학에서	-8080
▁보여준다	-8081
▁사용하고	-8082
▁아니라는	-8083
▁아닙니다	-8084
▁에어버스	-8085
▁에콰도르	-8086
▁오클라호	-8087
▁위협하고	-8088
▁유럽에서	-8089
▁조지아주	-8090
▁준비하고	-8091
▁중동평화	-8092
▁중이었다	-8093
▁지지선언	-8094
▁참석하지	-8095
▁챔피언십	-8096
▁타임즈가	-8097
▁탈레반이	-8098
▁포함하여	-8099
▁호소했다	-8100
▁확산되고	-8101
▁Obama	-8102
▁루이지애나	-8103
▁시작했다고	-8104
IS	-8105
LA	-8106
ah	-8107
ts	-8108
▁뜨	-8109
▁앵	-8110
개로	-8111
거를	-8112
기금	-8113
날드	-8114
다란	-8115
단과	-8116
라면	-8117
령이	-8118
매매	-8119
문제	-8120
세한	-8121
스파	-8122
아가	-8123
어떤	-8124
에이	-8125
예비	-8126
요한	-8127
유를	-8128
제네	-8129
졌을	-8130
종을	-8131
커가	-8132
키로	-8133
타의	-8134
판에	-8135
피스	-8136
100	-8137
are	-8138
ash	-8139
ite	-8140
ome	-8141
▁68	-8142
▁He	-8143
▁가짜	-8144
▁군의	-8145
▁기숙	-8146
▁냈다	-8147
▁놀이	-8148
▁느꼈	-8149
▁단행	-8150
▁당해	-8151
▁데려	-8152
▁따뜻	-8153
▁래리	-8154
▁매출	-8155
▁모금	-8156
▁무승	-8157
▁미네	-8158
▁미주	-8159
▁부사	-8160
▁부탁	-8161
▁빼앗	-8162
▁서서	-8163
▁서양	-8164
▁세탁	-8165
▁술을	-8166
▁술집	-8167
▁숨을	-8168
▁실직	-8169
▁씨가	-8170
▁양키	-8171
▁업계	-8172
▁여권	-8173
▁연례	-8174
▁영업	-8175
▁옆에	-8176
▁오렌	-8177
▁유가	-8178
▁유기	-8179
▁있은	-8180
▁주립	-8181
▁중의	-8182
▁직업	-8183
▁차베	-8184
▁차이	-8185
▁채취	-8186
▁크레	-8187
▁터널	-8188
▁테이	-8189
▁통행	-8190
▁퇴원	-8191
▁팀을	-8192
▁팀의	-8193
▁풍부	-8194
▁하자	-8195
▁학대	-8196
년으로	-8197
되기도	-8198
레스는	-8199
머니는	-8200
비치는	-8201
사태가	-8202
상태에	-8203
지역의	-8204
회의를	-8205
▁NBA	-8206
▁강제로	-8207
▁건강에	-8208
▁건물에	-8209
▁계속된	-8210
▁공격한	-8211
▁국가에	-8212
▁권리가	-8213
▁뉴욕주	-8214
▁다음주	-8215
▁달러가	-8216
▁대책을	-8217
▁대회를	-8218
▁들어갈	-8219
▁모르는	-8220
▁목사는	-8221
▁방문은	-8222
▁베네딕	-8223
▁부토의	-8224
▁사진이	-8225
▁살해된	-8226
▁서장은	-8227
▁수입을	-8228
▁스크린	-8229
▁심장마	-8230
▁알렸다	-8231
▁앞서고	-8232
▁연구소	-8233
▁열대성	-8234
▁오른쪽	-8235
▁오스카	-8236
▁유명인	-8237
▁이후에	-8238
▁인터폴	-8239
▁일련의	-8240
▁자리잡	-8241
▁전하고	-8242
▁제외한	-8243
▁중에서	-8244
▁지구에	-8245
▁최첨단	-8246
▁피닉스	-8247
▁향하는	-8248
강전에서	-8249
ition	-8250
▁1989	-8251
▁군인들이	-8252
▁극단주의	-8253
▁러시아가	-8254
▁법정에서	-8255
▁사망자는	-8256
▁언급하며	-8257
▁움직임은	-8258
▁이루어진	-8259
▁이브라힘	-8260
▁일어나는	-8261
▁탈레반은	-8262
▁milit	-8263
▁에티오피아	-8264
▁여론조사에서	-8265
▁2008.10	-8266
▁프라이머리에서	-8267
?”	-8268
ug	-8269
▁넬	-8270
▁롱	-8271
▁턱	-8272
▁햇	-8273
골로	-8274
나에	-8275
드베	-8276
마르	-8277
마를	-8278
보안	-8279
분께	-8280
브를	-8281
블로	-8282
세트	-8283
세프	-8284
심히	-8285
어요	-8286
어져	-8287
지방	-8288
체로	-8289
치와	-8290
카는	-8291
크라	-8292
통을	-8293
통합	-8294
티가	-8295
편이	-8296
평균	-8297
380	-8298
PPP	-8299
ife	-8300
oul	-8301
ton	-8302
▁67	-8303
▁76	-8304
▁개를	-8305
▁계산	-8306
▁교섭	-8307
▁귀환	-8308
▁낮아	-8309
▁노인	-8310
▁느낌	-8311
▁돼지	-8312
▁루이	-8313
▁망원	-8314
▁맥캔	-8315
▁모아	-8316
▁무덤	-8317
▁미니	-8318
▁미리	-8319
▁밀려	-8320
▁바탕	-8321
▁바티	-8322
▁박탈	-8323
▁반도	-8324
▁발행	-8325
▁부검	-8326
▁붙여	-8327
▁사절	-8328
▁수류	-8329
▁아지	-8330
▁압력	-8331
▁요리	-8332
▁유감	-8333
▁일치	-8334
▁조약	-8335
▁취한	-8336
▁타밀	-8337
▁퇴임	-8338
▁판다	-8339
▁허드	-8340
▁형제	-8341
▁활발	-8342
들이다	-8343
스트라	-8344
시간을	-8345
아프간	-8346
에게도	-8347
졌지만	-8348
총리는	-8349
투표를	-8350
트레이	-8351
olog	-8352
ouse	-8353
reat	-8354
roop	-8355
▁are	-8356
▁att	-8357
▁out	-8358
▁경매에	-8359
▁경험을	-8360
▁고위급	-8361
▁남편이	-8362
▁내려진	-8363
▁노트북	-8364
▁느끼고	-8365
▁도미니	-8366
▁마스터	-8367
▁메드베	-8368
▁무엇을	-8369
▁발표는	-8370
▁방문해	-8371
▁불능화	-8372
▁불확실	-8373
▁뿐이다	-8374
▁사진은	-8375
▁사형을	-8376
▁성공한	-8377
▁수행할	-8378
▁엄격한	-8379
▁왕자는	-8380
▁위하여	-8381
▁유죄를	-8382
▁의견이	-8383
▁일하고	-8384
▁조승희	-8385
▁중남미	-8386
▁증언을	-8387
▁탑승한	-8388
▁터키의	-8389
▁테네시	-8390
▁판결이	-8391
▁팬들이	-8392
▁평화협	-8393
▁하거나	-8394
▁효과를	-8395
들에게는	-8396
시키려는	-8397
▁plan	-8398
▁가능성도	-8399
▁계획하고	-8400
▁고이즈미	-8401
▁나타내는	-8402
▁대법원은	-8403
▁동영상이	-8404
▁디자이너	-8405
▁매케인이	-8406
▁모른다고	-8407
▁보고서가	-8408
▁시작으로	-8409
▁실시했다	-8410
▁아니지만	-8411
▁아프간에	-8412
▁예상하고	-8413
▁용의자는	-8414
▁전반적인	-8415
▁전역에서	-8416
▁제출했다	-8417
▁추정하고	-8418
▁카메라를	-8419
▁타이틀을	-8420
▁테러조직	-8421
▁텍사스주	-8422
▁플레이를	-8423
▁again	-8424
▁talks	-8425
▁결승전에서	-8426
▁요구했다고	-8427
merican	-8428
▁안전보장이사회	-8429
▁National	-8430
&#	-8431
▁몽	-8432
▁붐	-8433
▁써	-8434
▁엠	-8435
괴한	-8436
그래	-8437
근혜	-8438
넬라	-8439
노조	-8440
는가	-8441
단계	-8442
력은	-8443
부모	-8444
비넨	-8445
석에	-8446
세이	-8447
시대	-8448
심의	-8449
쓰고	-8450
씨의	-8451
어와	-8452
연료	-8453
파가	-8454
파의	-8455
해의	-8456
혁명	-8457
lic	-8458
rac	-8459
▁Is	-8460
▁up	-8461
▁가중	-8462
▁거론	-8463
▁교외	-8464
▁그만	-8465
▁기계	-8466
▁기원	-8467
▁남용	-8468
▁내지	-8469
▁높게	-8470
▁뉴델	-8471
▁다수	-8472
▁달아	-8473
▁도디	-8474
▁도살	-8475
▁때는	-8476
▁마케	-8477
▁맞은	-8478
▁맥도	-8479
▁모술	-8480
▁밀어	-8481
▁법무	-8482
▁블록	-8483
▁살모	-8484
▁스토	-8485
▁신발	-8486
▁신호	-8487
▁아담	-8488
▁애니	-8489
▁원내	-8490
▁음성	-8491
▁이적	-8492
▁전형	-8493
▁정리	-8494
▁정전	-8495
▁제약	-8496
▁종식	-8497
▁준수	-8498
▁중태	-8499
▁증강	-8500
▁펼친	-8501
▁하버	-8502
▁현금	-8503
▁형사	-8504
▁후송	-8505
거래소	-8506
등학교	-8507
스럽다	-8508
시키며	-8509
시하고	-8510
에게서	-8511
원들을	-8512
이사회	-8513
자금을	-8514
정으로	-8515
타에서	-8516
ical	-8517
▁Con	-8518
▁국가인	-8519
▁국립공	-8520
▁근로자	-8521
▁나이로	-8522
▁남학생	-8523
▁내리는	-8524
▁대서양	-8525
▁도착할	-8526
▁동물원	-8527
▁방문에	-8528
▁방법에	-8529
▁보고를	-8530
▁보내고	-8531
▁성공을	-8532
▁신속히	-8533
▁안으로	-8534
▁야후의	-8535
▁위스콘	-8536
▁이곳은	-8537
▁이내에	-8538
▁자르다	-8539
▁작업이	-8540
▁폭력을	-8541
▁하와이	-8542
▁하이브	-8543
▁할머니	-8544
▁행동에	-8545
▁허가를	-8546
▁현재는	-8547
▁히틀러	-8548
해리포터	-8549
▁1987	-8550
▁lead	-8551
▁가족들과	-8552
▁거절했다	-8553
▁국제우주	-8554
▁남아있는	-8555
▁높아지고	-8556
▁대피했다	-8557
▁보냈다고	-8558
▁빅토리아	-8559
▁상황이다	-8560
▁숨졌으며	-8561
▁아버지는	-8562
▁않았다는	-8563
▁알바니아	-8564
▁연구소의	-8565
▁위원장이	-8566
▁의원들이	-8567
▁이름으로	-8568
▁일어났다	-8569
▁제시했다	-8570
▁플루토늄	-8571
▁행정부는	-8572
▁무샤라프는	-8573
▁무장세력이	-8574
▁우주비행사	-8575
▁통과시켰다	-8576
45	-8577
CC	-8578
FL	-8579
▁[	-8580
▁갔	-8581
▁뚫	-8582
▁웰	-8583
▁팽	-8584
념을	-8585
노스	-8586
되길	-8587
렸을	-8588
미군	-8589
미는	-8590
사업	-8591
이런	-8592
이제	-8593
입을	-8594
차는	-8595
최근	-8596
췄다	-8597
카드	-8598
킥을	-8599
티에	-8600
플루	-8601
호주	-8602
300	-8603
IFA	-8604
duc	-8605
igh	-8606
man	-8607
ven	-8608
▁MD	-8609
▁pe	-8610
▁고안	-8611
▁교사	-8612
▁권총	-8613
▁금속	-8614
▁급습	-8615
▁널리	-8616
▁넘게	-8617
▁달간	-8618
▁담고	-8619
▁대전	-8620
▁데뷔	-8621
▁동계	-8622
▁매매	-8623
▁모양	-8624
▁모욕	-8625
▁산책	-8626
▁실려	-8627
▁실현	-8628
▁심의	-8629
▁안내	-8630
▁얻게	-8631
▁염려	-8632
▁요한	-8633
▁원정	-8634
▁웨인	-8635
▁유사	-8636
▁이슈	-8637
▁임대	-8638
▁잇는	-8639
▁자전	-8640
▁자행	-8641
▁잡지	-8642
▁장려	-8643
▁잭슨	-8644
▁조심	-8645
▁지는	-8646
▁진지	-8647
▁초에	-8648
▁총에	-8649
▁치를	-8650
▁카드	-8651
▁택시	-8652
▁토로	-8653
▁통보	-8654
▁트로	-8655
▁폭동	-8656
▁해저	-8657
▁했고	-8658
▁호송	-8659
겼다고	-8660
국들은	-8661
은행이	-8662
자와히	-8663
크리트	-8664
▁193	-8665
▁20%	-8666
▁60%	-8667
▁Roh	-8668
▁its	-8669
▁가난한	-8670
▁감바리	-8671
▁강진이	-8672
▁게릴라	-8673
▁견해를	-8674
▁결정이	-8675
▁경기는	-8676
▁계속할	-8677
▁공개한	-8678
▁공항을	-8679
▁글로벌	-8680
▁금리를	-8681
▁기사를	-8682
▁남자를	-8683
▁납치범	-8684
▁너무나	-8685
▁데리고	-8686
▁데이터	-8687
▁동안의	-8688
▁목적을	-8689
▁미래에	-8690
▁받는다	-8691
▁부대를	-8692
▁비행을	-8693
▁사용된	-8694
▁사임을	-8695
▁사퇴를	-8696
▁상처를	-8697
▁수사에	-8698
▁아마존	-8699
▁알리는	-8700
▁약간의	-8701
▁연기를	-8702
▁영화가	-8703
▁원한다	-8704
▁의사는	-8705
▁의회를	-8706
▁이뤄질	-8707
▁인구의	-8708
▁인사를	-8709
▁일본을	-8710
▁잃어버	-8711
▁전체가	-8712
▁전투기	-8713
▁정치인	-8714
▁제치고	-8715
▁중이며	-8716
▁지역이	-8717
▁차관은	-8718
▁커다란	-8719
▁테일러	-8720
▁합의에	-8721
됨에따라	-8722
▁광범위한	-8723
▁국가비상	-8724
▁국제적인	-8725
▁담당자는	-8726
▁매케인의	-8727
▁메드베데	-8728
▁보고서에	-8729
▁비디오를	-8730
▁사용했다	-8731
▁선거관리	-8732
▁아웅산수	-8733
▁앞으로도	-8734
▁연구원은	-8735
▁울포위츠	-8736
▁이메일을	-8737
▁중단했다	-8738
▁치러지는	-8739
▁카를로스	-8740
▁학교에서	-8741
▁핵실험을	-8742
▁국제유가가	-8743
▁대통령으로	-8744
▁민주주의를	-8745
▁발견되었다	-8746
▁않았습니다	-8747
▁상승했습니다	-8748
17	-8749
AR	-8750
HC	-8751
In	-8752
UN	-8753
ix	-8754
pe	-8755
to	-8756
▁옳	-8757
검사	-8758
공급	-8759
라바	-8760
먼트	-8761
성근	-8762
성화	-8763
스포	-8764
시로	-8765
시오	-8766
시한	-8767
아노	-8768
아를	-8769
았고	-8770
었기	-8771
우며	-8772
인다	-8773
인민	-8774
절한	-8775
지대	-8776
크쇼	-8777
탈린	-8778
테르	-8779
파울	-8780
해가	-8781
해튼	-8782
▁AS	-8783
▁Ex	-8784
▁가즈	-8785
▁강행	-8786
▁교토	-8787
▁구류	-8788
▁깨끗	-8789
▁다룬	-8790
▁단독	-8791
▁당의	-8792
▁동북	-8793
▁동참	-8794
▁먹고	-8795
▁모건	-8796
▁모임	-8797
▁무렵	-8798
▁무슨	-8799
▁미드	-8800
▁바꿀	-8801
▁방출	-8802
▁불교	-8803
▁비가	-8804
▁세운	-8805
▁소장	-8806
▁솔직	-8807
▁아나	-8808
▁안드	-8809
▁양쪽	-8810
▁완성	-8811
▁워너	-8812
▁원인	-8813
▁위생	-8814
▁유적	-8815
▁자바	-8816
▁재고	-8817
▁재무	-8818
▁전격	-8819
▁좀더	-8820
▁찾지	-8821
▁치솟	-8822
▁파월	-8823
▁포장	-8824
▁포트	-8825
▁행렬	-8826
▁향한	-8827
고에서	-8828
단체인	-8829
달러로	-8830
럼비아	-8831
렀다고	-8832
병으로	-8833
북한이	-8834
어졌다	-8835
일하게	-8836
2000	-8837
8000	-8838
▁IBM	-8839
▁IMF	-8840
▁exp	-8841
▁것인가	-8842
▁공정한	-8843
▁규모를	-8844
▁나라를	-8845
▁납치한	-8846
▁다르다	-8847
▁대선에	-8848
▁돌아와	-8849
▁디스커	-8850
▁런던의	-8851
▁맡았다	-8852
▁바티칸	-8853
▁법원의	-8854
▁변화에	-8855
▁병력이	-8856
▁부족한	-8857
▁상파울	-8858
▁서신을	-8859
▁성과를	-8860
▁수반은	-8861
▁시신은	-8862
▁신원이	-8863
▁실험을	-8864
▁심하게	-8865
▁알렉스	-8866
▁얼굴을	-8867
▁여지가	-8868
▁역사를	-8869
▁연구가	-8870
▁영국에	-8871
▁오렌지	-8872
▁왕자의	-8873
▁이처럼	-8874
▁일간지	-8875
▁자녀를	-8876
▁전략을	-8877
▁중단을	-8878
▁진전이	-8879
▁치러질	-8880
▁캠페인	-8881
▁테니스	-8882
▁텔레비	-8883
▁투표가	-8884
▁파이프	-8885
▁파파라	-8886
▁해수면	-8887
▁화려한	-8888
▁활동이	-8889
에미리트	-8890
위원장은	-8891
istan	-8892
▁Cent	-8893
▁cons	-8894
▁prot	-8895
▁가능하다	-8896
▁거부권을	-8897
▁결정적인	-8898
▁공개하지	-8899
▁관계자의	-8900
▁국가들의	-8901
▁기대한다	-8902
▁내려졌다	-8903
▁내렸다고	-8904
▁당부했다	-8905
▁되었다고	-8906
▁메릴랜드	-8907
▁목소리를	-8908
▁민주당은	-8909
▁벌어졌다	-8910
▁베네딕토	-8911
▁분리주의	-8912
▁분위기를	-8913
▁살모넬라	-8914
▁생각하지	-8915
▁시위대를	-8916
▁아름다운	-8917
▁아버지인	-8918
▁영화에서	-8919
▁위스콘신	-8920
▁일으켰다	-8921
▁재판에서	-8922
▁주민들을	-8923
▁주민들의	-8924
▁직원들은	-8925
▁차지하는	-8926
▁출연했다	-8927
▁홈페이지	-8928
▁다우지수는	-8929
▁무장세력의	-8930
▁미국인들은	-8931
▁서브프라임	-8932
▁시위자들은	-8933
▁용의자들을	-8934
▁적극적으로	-8935
▁하이브리드	-8936
▁국제우주정거	-8937
▁아마디네자드	-8938
95	-8939
ph	-8940
▁Z	-8941
▁굳	-8942
▁꽃	-8943
▁덜	-8944
▁봐	-8945
▁컵	-8946
▁펭	-8947
가격	-8948
것도	-8949
당에	-8950
도와	-8951
려야	-8952
미를	-8953
받는	-8954
방이	-8955
범한	-8956
본부	-8957
색을	-8958
수감	-8959
연을	-8960
용의	-8961
유엔	-8962
자르	-8963
지노	-8964
지다	-8965
지수	-8966
차량	-8967
토는	-8968
파인	-8969
피를	-8970
히는	-8971
emp	-8972
ern	-8973
▁71	-8974
▁De	-8975
▁by	-8976
▁각국	-8977
▁것일	-8978
▁곳이	-8979
▁공대	-8980
▁국세	-8981
▁군과	-8982
▁꺾고	-8983
▁끔찍	-8984
▁남쪽	-8985
▁내다	-8986
▁도난	-8987
▁막아	-8988
▁모리	-8989
▁모집	-8990
▁무자	-8991
▁묻는	-8992
▁박사	-8993
▁박스	-8994
▁보스	-8995
▁봤다	-8996
▁부결	-8997
▁부러	-8998
▁비아	-8999
▁산맥	-9000
▁상의	-9001
▁성격	-9002
▁수족	-9003
▁수컷	-9004
▁숙박	-9005
▁시점	-9006
▁앨런	-9007
▁약혼	-9008
▁언덕	-9009
▁엔터	-9010
▁역임	-9011
▁유산	-9012
▁유수	-9013
▁유행	-9014
▁음료	-9015
▁장교	-9016
▁저렴	-9017
▁전범	-9018
▁정유	-9019
▁주거	-9020
▁줄리	-9021
▁체류	-9022
▁총통	-9023
▁포셋	-9024
▁표결	-9025
▁해체	-9026
▁협약	-9027
경기에	-9028
까지도	-9029
내에서	-9030
문제를	-9031
사항을	-9032
으려고	-9033
졌으나	-9034
통신이	-9035
하려던	-9036
ount	-9037
▁AIG	-9038
▁감정을	-9039
▁건물을	-9040
▁긴장이	-9041
▁남성을	-9042
▁내용에	-9043
▁누구도	-9044
▁다니는	-9045
▁달러로	-9046
▁돌아갈	-9047
▁레이건	-9048
▁메이저	-9049
▁못한다	-9050
▁범죄를	-9051
▁부분이	-9052
▁생각해	-9053
▁생존자	-9054
▁세력을	-9055
▁소년이	-9056
▁아스날	-9057
▁앞섰다	-9058
▁업무를	-9059
▁에르도	-9060
▁연락을	-9061
▁왔다고	-9062
▁원자력	-9063
▁위협에	-9064
▁윈도우	-9065
▁유대인	-9066
▁유력한	-9067
▁이란을	-9068
▁이유가	-9069
▁일자리	-9070
▁장관과	-9071
▁재무부	-9072
▁적합한	-9073
▁전에는	-9074
▁제시한	-9075
▁존스턴	-9076
▁주식을	-9077
▁진행될	-9078
▁총기를	-9079
▁최우선	-9080
▁취하고	-9081
▁크기의	-9082
▁클레이	-9083
▁피하기	-9084
▁해안에	-9085
▁현상이	-9086
▁형태의	-9087
▁호텔에	-9088
달러까지	-9089
대통령은	-9090
렸습니다	-9091
차전에서	-9092
▁1950	-9093
▁1986	-9094
▁elec	-9095
▁관련하여	-9096
▁당선인이	-9097
▁못했지만	-9098
▁미얀마의	-9099
▁반대하고	-9100
▁받아왔다	-9101
▁사이트를	-9102
▁선고했다	-9103
▁선수들이	-9104
▁세속주의	-9105
▁승인했다	-9106
▁시나리오	-9107
▁시티그룹	-9108
▁않습니다	-9109
▁위원회의	-9110
▁윌리엄스	-9111
▁의심되는	-9112
▁자원봉사	-9113
▁전해졌다	-9114
▁정부에서	-9115
▁창기라이	-9116
▁프로젝트	-9117
▁확인되지	-9118
▁troop	-9119
▁동영상에서	-9120
▁연구원들은	-9121
▁유죄판결을	-9122
▁정기적으로	-9123
▁프랑스에서	-9124
▁학생들에게	-9125
▁자살폭탄테러가	-9126
27	-9127
gh	-9128
▁굉	-9129
▁깔	-9130
▁춤	-9131
▁콰	-9132
▁펄	-9133
개에	-9134
기부	-9135
놓고	-9136
니를	-9137
대책	-9138
독한	-9139
런스	-9140
렌은	-9141
력과	-9142
로에	-9143
마라	-9144
만년	-9145
말라	-9146
보의	-9147
빌리	-9148
세르	-9149
아의	-9150
여성	-9151
여행	-9152
올로	-9153
자원	-9154
제이	-9155
조약	-9156
조한	-9157
청이	-9158
커스	-9159
해주	-9160
허가	-9161
eet	-9162
ish	-9163
ond	-9164
ook	-9165
ute	-9166
▁Ar	-9167
▁su	-9168
▁가끔	-9169
▁간호	-9170
▁강간	-9171
▁결합	-9172
▁고의	-9173
▁기아	-9174
▁기획	-9175
▁끊임	-9176
▁내리	-9177
▁내전	-9178
▁마찰	-9179
▁만화	-9180
▁물가	-9181
▁물어	-9182
▁믿을	-9183
▁박격	-9184
▁발매	-9185
▁부속	-9186
▁북측	-9187
▁불만	-9188
▁소니	-9189
▁스노	-9190
▁스페	-9191
▁신사	-9192
▁실적	-9193
▁싶지	-9194
▁약탈	-9195
▁양성	-9196
▁없애	-9197
▁여당	-9198
▁연극	-9199
▁연말	-9200
▁연출	-9201
▁우편	-9202
▁유통	-9203
▁이득	-9204
▁이정	-9205
▁일고	-9206
▁잠수	-9207
▁즐기	-9208
▁측이	-9209
▁치매	-9210
▁터뜨	-9211
▁포획	-9212
▁플라	-9213
▁해상	-9214
▁헬리	-9215
▁회동	-9216
권성근	-9217
까지는	-9218
들보다	-9219
랜드는	-9220
어지는	-9221
으므로	-9222
irst	-9223
▁FDA	-9224
▁has	-9225
▁가져올	-9226
▁간단한	-9227
▁개발한	-9228
▁경고를	-9229
▁구호물	-9230
▁기능을	-9231
▁긴장을	-9232
▁남부의	-9233
▁돌아올	-9234
▁맨해튼	-9235
▁반군은	-9236
▁분쟁을	-9237
▁서울시	-9238
▁선수로	-9239
▁수감된	-9240
▁수치는	-9241
▁스타벅	-9242
▁안보를	-9243
▁없다며	-9244
▁여러번	-9245
▁열심히	-9246
▁예정이	-9247
▁올라가	-9248
▁위치해	-9249
▁유럽과	-9250
▁음주운	-9251
▁일제히	-9252
▁자격이	-9253
▁자세히	-9254
▁조직을	-9255
▁조치로	-9256
▁주요한	-9257
▁줄이기	-9258
▁참가한	-9259
▁출신인	-9260
▁출전할	-9261
▁켄터키	-9262
▁클라크	-9263
▁토크쇼	-9264
▁특사는	-9265
▁퍼거슨	-9266
▁편지를	-9267
▁피랍된	-9268
▁하도록	-9269
▁학생이	-9270
▁환자가	-9271
시장에서	-9272
▁결혼식을	-9273
▁계속하고	-9274
▁국가정보	-9275
▁권고했다	-9276
▁노르웨이	-9277
▁누군가가	-9278
▁대표하는	-9279
▁보좌관은	-9280
▁뿐이라고	-9281
▁사과했다	-9282
▁수십명이	-9283
▁아시아의	-9284
▁연구결과	-9285
▁자동차업	-9286
▁주한미군	-9287
▁최고경영	-9288
▁출신으로	-9289
▁출전하지	-9290
▁테이프를	-9291
▁파리에서	-9292
▁평화적인	-9293
▁포함됐다	-9294
▁항의하는	-9295
▁헤럴드는	-9296
▁2-0(6	-9297
▁Seoul	-9298
▁교도소에서	-9299
▁알카에다가	-9300
▁오클라호마	-9301
▁유나이티드	-9302
▁지속적으로	-9303
▁Minister	-9304
-4	-9305
CI	-9306
ci	-9307
mm	-9308
sh	-9309
wo	-9310
▁깁	-9311
▁융	-9312
▁쟁	-9313
▁쳐	-9314
▁츠	-9315
▁큐	-9316
관광	-9317
나게	-9318
뉴욕	-9319
당시	-9320
력의	-9321
름이	-9322
만간	-9323
모를	-9324
백을	-9325
법이	-9326
서치	-9327
석은	-9328
스마	-9329
시즌	-9330
애틀	-9331
업자	-9332
인터	-9333
자스	-9334
적의	-9335
전략	-9336
주와	-9337
층에	-9338
타다	-9339
타운	-9340
티의	-9341
프롬	-9342
학을	-9343
호에	-9344
FBI	-9345
ime	-9346
ron	-9347
▁86	-9348
▁각종	-9349
▁갤런	-9350
▁거친	-9351
▁고어	-9352
▁내일	-9353
▁다소	-9354
▁대우	-9355
▁던져	-9356
▁던진	-9357
▁델타	-9358
▁라우	-9359
▁만료	-9360
▁매입	-9361
▁먹는	-9362
▁미셸	-9363
▁발급	-9364
▁발령	-9365
▁부처	-9366
▁사인	-9367
▁삭감	-9368
▁상위	-9369
▁상처	-9370
▁소아	-9371
▁손해	-9372
▁송금	-9373
▁수락	-9374
▁쓰는	-9375
▁아빠	-9376
▁에너	-9377
▁영구	-9378
▁오를	-9379
▁외계	-9380
▁위축	-9381
▁유괴	-9382
▁유람	-9383
▁인형	-9384
▁전년	-9385
▁절약	-9386
▁점유	-9387
▁접수	-9388
▁제정	-9389
▁진상	-9390
▁찍은	-9391
▁카스	-9392
▁통근	-9393
▁투명	-9394
▁피신	-9395
▁한달	-9396
▁항생	-9397
▁해소	-9398
▁화면	-9399
▁회수	-9400
구에서	-9401
단체의	-9402
시키지	-9403
일에서	-9404
중이다	-9405
프랑스	-9406
▁거부한	-9407
▁교전을	-9408
▁기분이	-9409
▁기지를	-9410
▁남자의	-9411
▁넣었다	-9412
▁대비해	-9413
▁대테러	-9414
▁머레이	-9415
▁모여들	-9416
▁무장한	-9417
▁미래를	-9418
▁박근혜	-9419
▁보다는	-9420
▁보유한	-9421
▁분노를	-9422
▁분량의	-9423
▁사고의	-9424
▁사용을	-9425
▁사이버	-9426
▁사회에	-9427
▁상대방	-9428
▁선거가	-9429
▁세웠다	-9430
▁소리를	-9431
▁소유한	-9432
▁슈퍼볼	-9433
▁실패한	-9434
▁아이들	-9435
▁안전에	-9436
▁언급한	-9437
▁열었다	-9438
▁외무성	-9439
▁우울증	-9440
▁위치를	-9441
▁의문을	-9442
▁의원을	-9443
▁의장이	-9444
▁이곳을	-9445
▁인상을	-9446
▁있기를	-9447
▁자국의	-9448
▁작품을	-9449
▁전쟁이	-9450
▁전투를	-9451
▁접촉을	-9452
▁제품을	-9453
▁조직의	-9454
▁죽음에	-9455
▁즐기는	-9456
▁집회에	-9457
▁평가를	-9458
▁한다면	-9459
▁행동이	-9460
▁협력을	-9461
▁회사에	-9462
경기에서	-9463
위원회에	-9464
▁Bush	-9465
▁개발도상	-9466
▁거리에서	-9467
▁남쪽으로	-9468
▁동성애자	-9469
▁방송에서	-9470
▁병사들이	-9471
▁불법으로	-9472
▁브레이크	-9473
▁샤리프는	-9474
▁수요일에	-9475
▁수천명이	-9476
▁시인했다	-9477
▁에드워드	-9478
▁예상되고	-9479
▁예측했다	-9480
▁용의자를	-9481
▁전달했다	-9482
▁정부군이	-9483
▁줄기세포	-9484
▁증가하는	-9485
▁최고치를	-9486
▁출구조사	-9487
▁클린턴과	-9488
▁하마스의	-9489
▁확신한다	-9490
▁활동하고	-9491
retary	-9492
▁노대통령은	-9493
▁러닝메이트	-9494
▁소비자들이	-9495
▁수사관들은	-9496
▁유권자들은	-9497
▁이스라엘을	-9498
▁폭력사태로	-9499
▁프로그램이	-9500
▁지지자들에게	-9501
14	-9502
MS	-9503
ON	-9504
ik	-9505
▁y	-9506
▁짝	-9507
가디	-9508
괜찮	-9509
길을	-9510
까요	-9511
내려	-9512
널티	-9513
년전	-9514
니고	-9515
니언	-9516
되던	-9517
만여	-9518
무드	-9519
미한	-9520
본을	-9521
분야	-9522
브레	-9523
색의	-9524
심한	-9525
어트	-9526
우석	-9527
있을	-9528
제품	-9529
조건	-9530
착륙	-9531
층이	-9532
크를	-9533
클리	-9534
orm	-9535
ory	-9536
▁3%	-9537
▁Le	-9538
▁가깝	-9539
▁고수	-9540
▁기분	-9541
▁나섰	-9542
▁노던	-9543
▁당일	-9544
▁덴버	-9545
▁도덕	-9546
▁동굴	-9547
▁드는	-9548
▁들이	-9549
▁딜러	-9550
▁라울	-9551
▁럼스	-9552
▁모의	-9553
▁반미	-9554
▁반전	-9555
▁배포	-9556
▁벌이	-9557
▁벌일	-9558
▁베탕	-9559
▁보증	-9560
▁복원	-9561
▁복합	-9562
▁불황	-9563
▁생겨	-9564
▁소총	-9565
▁씨의	-9566
▁예언	-9567
▁왜곡	-9568
▁워렌	-9569
▁장벽	-9570
▁전파	-9571
▁정밀	-9572
▁종사	-9573
▁줄을	-9574
▁지점	-9575
▁진실	-9576
▁진전	-9577
▁차가	-9578
▁처형	-9579
▁첫날	-9580
▁체계	-9581
▁추천	-9582
▁취급	-9583
▁치른	-9584
▁코너	-9585
▁티벳	-9586
▁파크	-9587
▁피추	-9588
▁피트	-9589
▁하드	-9590
▁호전	-9591
갔으며	-9592
거리는	-9593
그것은	-9594
그들이	-9595
달라는	-9596
만개의	-9597
센터는	-9598
스러워	-9599
시킨다	-9600
아티아	-9601
인에게	-9602
제네거	-9603
지역인	-9604
클린턴	-9605
플루엔	-9606
화되고	-9607
uman	-9608
▁70%	-9609
▁war	-9610
▁감독을	-9611
▁경계를	-9612
▁급격히	-9613
▁기술이	-9614
▁뉴욕에	-9615
▁느끼는	-9616
▁늘어날	-9617
▁단순히	-9618
▁대선주	-9619
▁대회에	-9620
▁데일리	-9621
▁된다면	-9622
▁들어와	-9623
▁디트로	-9624
▁명백한	-9625
▁무죄를	-9626
▁방향을	-9627
▁베이루	-9628
▁보여준	-9629
▁본부를	-9630
▁부인인	-9631
▁분야에	-9632
▁브리트	-9633
▁브리티	-9634
▁비공식	-9635
▁새롭게	-9636
▁선박이	-9637
▁선택할	-9638
▁수사가	-9639
▁시작될	-9640
▁실시될	-9641
▁아니며	-9642
▁억만장	-9643
▁영상을	-9644
▁외쳤다	-9645
▁유엔이	-9646
▁은신처	-9647
▁의미가	-9648
▁인도분	-9649
▁재판에	-9650
▁재판이	-9651
▁최고위	-9652
▁크루즈	-9653
▁토대로	-9654
▁파업에	-9655
▁판결에	-9656
▁행위는	-9657
▁행진을	-9658
▁헬리콥	-9659
대회에서	-9660
명이라고	-9661
학자들이	-9662
▁거래됐다	-9663
▁검토하고	-9664
▁공격했다	-9665
▁그들에게	-9666
▁대표단은	-9667
▁레이스를	-9668
▁목요일에	-9669
▁발견되지	-9670
▁법적으로	-9671
▁부상자가	-9672
▁북한과의	-9673
▁분석했다	-9674
▁사용되는	-9675
▁샤라포바	-9676
▁선수들은	-9677
▁스페인의	-9678
▁아라비아	-9679
▁요르단강	-9680
▁움직임이	-9681
▁워싱턴의	-9682
▁이들에게	-9683
▁자동차를	-9684
▁전합니다	-9685
▁정부군과	-9686
▁징역형을	-9687
▁호주오픈	-9688
팔레스타인	-9689
▁디스커버리	-9690
▁디트로이트	-9691
▁재무장관은	-9692
▁지도자들을	-9693
▁프로그램의	-9694
▁라스베이거스	-9695
▁아랍에미리트	-9696
▁연방준비제도	-9697
▁인도네시아의	-9698
16	-9699
NC	-9700
St	-9701
oy	-9702
~3	-9703
▁댈	-9704
▁램	-9705
▁킨	-9706
▁킬	-9707
▁흩	-9708
건강	-9709
건설	-9710
과정	-9711
관과	-9712
데버	-9713
돌이	-9714
두가	-9715
두를	-9716
드러	-9717
례를	-9718
로로	-9719
물인	-9720
받침	-9721
병은	-9722
복지	-9723
분경	-9724
워터	-9725
장애	-9726
주택	-9727
처리	-9728
천억	-9729
크로	-9730
퍼드	-9731
평가	-9732
프에	-9733
해도	-9734
해에	-9735
ade	-9736
amp	-9737
ber	-9738
ele	-9739
ict	-9740
▁74	-9741
▁82	-9742
▁CD	-9743
▁“2	-9744
▁가동	-9745
▁게리	-9746
▁결심	-9747
▁교과	-9748
▁규칙	-9749
▁깊이	-9750
▁나빠	-9751
▁남서	-9752
▁내의	-9753
▁놀랄	-9754
▁느껴	-9755
▁다비	-9756
▁대폭	-9757
▁도울	-9758
▁독도	-9759
▁매도	-9760
▁무산	-9761
▁무효	-9762
▁반등	-9763
▁발렌	-9764
▁배가	-9765
▁버냉	-9766
▁브랜	-9767
▁산하	-9768
▁수년	-9769
▁스콧	-9770
▁시골	-9771
▁실수	-9772
▁아라	-9773
▁아민	-9774
▁양자	-9775
▁양측	-9776
▁얻지	-9777
▁유조	-9778
▁이외	-9779
▁입어	-9780
▁자사	-9781
▁작곡	-9782
▁중반	-9783
▁집필	-9784
▁참전	-9785
▁첩보	-9786
▁취해	-9787
▁친선	-9788
▁침묵	-9789
▁케르	-9790
▁크리	-9791
▁피부	-9792
▁피할	-9793
▁필수	-9794
▁해방	-9795
▁했을	-9796
▁협정	-9797
공격을	-9798
국들이	-9799
냈으며	-9800
대학교	-9801
만명에	-9802
웨스트	-9803
작으로	-9804
정적인	-9805
토니아	-9806
할만한	-9807
▁180	-9808
▁90%	-9809
▁CDC	-9810
▁강화할	-9811
▁개발에	-9812
▁겨냥한	-9813
▁공화국	-9814
▁과정에	-9815
▁교전이	-9816
▁국민을	-9817
▁국회에	-9818
▁남성과	-9819
▁노력할	-9820
▁다수의	-9821
▁담배를	-9822
▁도시를	-9823
▁리조트	-9824
▁마이스	-9825
▁못했던	-9826
▁물건을	-9827
▁미군에	-9828
▁바하마	-9829
▁반체제	-9830
▁밝히며	-9831
▁방식을	-9832
▁보도한	-9833
▁부르는	-9834
▁브래드	-9835
▁사생활	-9836
▁사회의	-9837
▁산불이	-9838
▁서울에	-9839
▁세계를	-9840
▁스탈린	-9841
▁스파이	-9842
▁애틀란	-9843
▁약속한	-9844
▁연기가	-9845
▁우간다	-9846
▁유감을	-9847
▁유세를	-9848
▁이스트	-9849
▁임기를	-9850
▁입수한	-9851
▁자금이	-9852
▁전력을	-9853
▁정상화	-9854
▁취하지	-9855
▁친환경	-9856
▁캐릭터	-9857
▁태우고	-9858
▁파운드	-9859
▁포스트	-9860
▁하는데	-9861
▁항공은	-9862
▁협정을	-9863
▁휴스턴	-9864
시키는데	-9865
아메리칸	-9866
에서부터	-9867
왔습니다	-9868
▁거짓말을	-9869
▁국방부가	-9870
▁뉴욕타임	-9871
▁동의했다	-9872
▁둘러싸고	-9873
▁모두에게	-9874
▁문제들을	-9875
▁보였다고	-9876
▁부인하고	-9877
▁북한에서	-9878
▁사상자가	-9879
▁수백명이	-9880
▁스튜디오	-9881
▁아무것도	-9882
▁안토니오	-9883
▁여성들은	-9884
▁연구에서	-9885
▁이라크로	-9886
▁이어졌다	-9887
▁인명피해	-9888
▁인질들이	-9889
▁일으키는	-9890
▁전쟁으로	-9891
▁제외하고	-9892
▁증언했다	-9893
▁총리에게	-9894
▁코소보의	-9895
▁테러와의	-9896
▁표시했다	-9897
▁확인하고	-9898
▁확인하기	-9899
▁가족들에게	-9900
▁받아들이지	-9901
▁상원의원에	-9902
▁우주왕복선	-9903
▁이탈리아의	-9904
▁파키스탄에	-9905
▁프로그램은	-9906
▁200809	-9907
18	-9908
AC	-9909
ER	-9910
PS	-9911
US	-9912
ox	-9913
▁닭	-9914
▁슛	-9915
▁쪽	-9916
▁촛	-9917
▁험	-9918
결혼	-9919
고가	-9920
곳의	-9921
권은	-9922
덩어	-9923
들인	-9924
디가	-9925
라리	-9926
리야	-9927
림을	-9928
무기	-9929
법의	-9930
보로	-9931
보장	-9932
보좌	-9933
서의	-9934
석의	-9935
선과	-9936
션을	-9937
예를	-9938
인권	-9939
임에	-9940
조정	-9941
치인	-9942
카르	-9943
클린	-9944
타가	-9945
che	-9946
ral	-9947
row	-9948
ung	-9949
▁8%	-9950
▁im	-9951
▁가구	-9952
▁가한	-9953
▁고장	-9954
▁공사	-9955
▁광장	-9956
▁괜찮	-9957
▁군함	-9958
▁그라	-9959
▁급진	-9960
▁기뻐	-9961
▁나눠	-9962
▁날이	-9963
▁내로	-9964
▁도심	-9965
▁도핑	-9966
▁독감	-9967
▁돈이	-9968
▁돌을	-9969
▁리오	-9970
▁매몰	-9971
▁모으	-9972
▁물건	-9973
▁물품	-9974
▁믿는	-9975
▁방화	-9976
▁버크	-9977
▁번호	-9978
▁부실	-9979
▁사면	-9980
▁생태	-9981
▁세웠	-9982
▁손실	-9983
▁쉬운	-9984
▁슬로	-9985
▁시일	-9986
▁암호	-9987
▁앞선	-9988
▁엔지	-9989
▁연안	-9990
▁영광	-9991
▁영장	-9992
▁예배	-9993
▁예약	-9994
▁요즘	-9995
▁울프	-9996
▁음란	-9997
▁전임	-9998
▁절도	-9999
▁제니	-10000
▁제일	-10001
▁제프	-10002
▁조짐	-10003
▁주류	-10004
▁중도	-10005
▁집회	-10006
▁카디	-10007
▁카자	-10008
▁토마	-10009
▁퇴역	-10010
▁트라	-10011
▁호날	-10012
▁화가	-10013
▁화염	-10014
▁히트	-10015
객들이	-10016
관계가	-10017
만명을	-10018
말리키	-10019
메이션	-10020
사건에	-10021
시간이	-10022
시키려	-10023
었는데	-10024
었는지	-10025
자였던	-10026
작업이	-10027
주일에	-10028
협정을	-10029
3000	-10030
enti	-10031
ings	-10032
port	-10033
rest	-10034
▁1-0	-10035
▁170	-10036
▁Ass	-10037
▁pol	-10038
▁강타한	-10039
▁개선을	-10040
▁거리로	-10041
▁기자의	-10042
▁기준금	-10043
▁끝까지	-10044
▁나와즈	-10045
▁내리고	-10046
▁내셔널	-10047
▁노동당	-10048
▁노력의	-10049
▁뉴욕시	-10050
▁다리가	-10051
▁단체를	-10052
▁답변을	-10053
▁돌아온	-10054
▁뒷받침	-10055
▁들어온	-10056
▁라모스	-10057
▁마케팅	-10058
▁명확히	-10059
▁무소속	-10060
▁미시건	-10061
▁바닥에	-10062
▁박사가	-10063
▁부모가	-10064
▁부분은	-10065
▁부토는	-10066
▁분쟁이	-10067
▁비난한	-10068
▁사라진	-10069
▁사례가	-10070
▁석방된	-10071
▁선거는	-10072
▁센터의	-10073
▁속도를	-10074
▁손상을	-10075
▁스프링	-10076
▁시애틀	-10077
▁시위로	-10078
▁신뢰를	-10079
▁신호를	-10080
▁쌍둥이	-10081
▁안보리	-10082
▁않겠다	-10083
▁압바스	-10084
▁야당의	-10085
▁여사가	-10086
▁연료를	-10087
▁요구에	-10088
▁우리당	-10089
▁운동가	-10090
▁원숭이	-10091
▁유전자	-10092
▁유지할	-10093
▁인기가	-10094
▁임기가	-10095
▁자신에	-10096
▁재개할	-10097
▁전체에	-10098
▁주장이	-10099
▁줄이는	-10100
▁중심에	-10101
▁철저히	-10102
▁총리로	-10103
▁추락한	-10104
▁형태로	-10105
▁확보할	-10106
▁회의가	-10107
만달러를	-10108
억달러의	-10109
하였으며	-10110
▁경쟁자인	-10111
▁그곳에서	-10112
▁당선자는	-10113
▁대사관은	-10114
▁데이비스	-10115
▁들어가는	-10116
▁라이벌인	-10117
▁밝혀냈다	-10118
▁밝혔었다	-10119
▁밝혔으나	-10120
▁벌였다고	-10121
▁사망자를	-10122
▁생산하는	-10123
▁에르도간	-10124
▁영국으로	-10125
▁예정되어	-10126
▁이라크내	-10127
▁이슬람교	-10128
▁인정하지	-10129
▁인질들의	-10130
▁일어나고	-10131
▁일어나지	-10132
▁장소에서	-10133
▁취소했다	-10134
▁테러단체	-10135
▁호주에서	-10136
▁회견에서	-10137
▁휴대전화	-10138
▁힐러리가	-10139
▁가자지구를	-10140
▁되었습니다	-10141
▁때문입니다	-10142
▁상원의원인	-10143
▁오하이오주	-10144
▁지지선언을	-10145
▁플로리다주	-10146
▁하락했습니다	-10147
▁military	-10148
MA	-10149
NP	-10150
fe	-10151
ho	-10152
▁뮌	-10153
▁팜	-10154
게도	-10155
듯이	-10156
론을	-10157
롭고	-10158
메르	-10159
바흐	-10160
박한	-10161
밴드	-10162
번에	-10163
비한	-10164
소득	-10165
스텔	-10166
습을	-10167
신문	-10168
아르	-10169
인데	-10170
자지	-10171
절을	-10172
종이	-10173
주기	-10174
주전	-10175
채가	-10176
청의	-10177
총장	-10178
켓을	-10179
크가	-10180
하러	-10181
ING	-10182
PGA	-10183
ise	-10184
ock	-10185
▁Ad	-10186
▁An	-10187
▁qu	-10188
▁가죽	-10189
▁감기	-10190
▁개설	-10191
▁개표	-10192
▁거둔	-10193
▁권리	-10194
▁기증	-10195
▁남녀	-10196
▁내세	-10197
▁대니	-10198
▁대략	-10199
▁딸의	-10200
▁리우	-10201
▁말로	-10202
▁머무	-10203
▁면접	-10204
▁명에	-10205
▁모험	-10206
▁몸값	-10207
▁바쿠	-10208
▁반환	-10209
▁발레	-10210
▁삶의	-10211
▁상담	-10212
▁세트	-10213
▁숨어	-10214
▁슈워	-10215
▁승점	-10216
▁신원	-10217
▁싸움	-10218
▁아칸	-10219
▁안나	-10220
▁얼룩	-10221
▁역설	-10222
▁운반	-10223
▁워터	-10224
▁유용	-10225
▁저택	-10226
▁적응	-10227
▁전부	-10228
▁제네	-10229
▁제도	-10230
▁조항	-10231
▁종파	-10232
▁지낸	-10233
▁칼라	-10234
▁칼리	-10235
▁편안	-10236
▁품목	-10237
▁플레	-10238
▁하산	-10239
▁하트	-10240
▁현상	-10241
▁혈액	-10242
▁확장	-10243
▁흘러	-10244
가디슈	-10245
돼있다	-10246
민주당	-10247
바에서	-10248
상태를	-10249
세력을	-10250
스타인	-10251
시했다	-10252
하자는	-10253
▁가량의	-10254
▁개표가	-10255
▁공급이	-10256
▁근처에	-10257
▁글래스	-10258
▁기대를	-10259
▁기반을	-10260
▁끝나는	-10261
▁남한의	-10262
▁노력에	-10263
▁달라고	-10264
▁동물을	-10265
▁때마다	-10266
▁떨어질	-10267
▁라호르	-10268
▁머리에	-10269
▁모두를	-10270
▁목적이	-10271
▁무장대	-10272
▁문서를	-10273
▁미끄러	-10274
▁미주리	-10275
▁바람이	-10276
▁베탕쿠	-10277
▁보상을	-10278
▁복귀할	-10279
▁북극곰	-10280
▁분위기	-10281
▁붕괴된	-10282
▁선출된	-10283
▁성직자	-10284
▁수업을	-10285
▁쓰레기	-10286
▁아이는	-10287
▁않아도	-10288
▁야당은	-10289
▁야당이	-10290
▁여왕의	-10291
▁올리고	-10292
▁외교관	-10293
▁요청할	-10294
▁이래로	-10295
▁이름의	-10296
▁인근서	-10297
▁일으켜	-10298
▁자격을	-10299
▁자살을	-10300
▁자살한	-10301
▁작성한	-10302
▁장기간	-10303
▁제작된	-10304
▁조건을	-10305
▁존스는	-10306
▁종교적	-10307
▁주장은	-10308
▁지방의	-10309
▁차지한	-10310
▁취했다	-10311
▁코스피	-10312
▁테러의	-10313
▁통해서	-10314
▁판매를	-10315
▁패리스	-10316
▁페이지	-10317
▁하나가	-10318
▁행사가	-10319
▁행사할	-10320
▁확인된	-10321
▁환경에	-10322
되었지만	-10323
사람들이	-10324
▁1988	-10325
▁Show	-10326
▁가즈프롬	-10327
▁강화하고	-10328
▁경제성장	-10329
▁골든글로	-10330
▁근본주의	-10331
▁기록하며	-10332
▁명단에서	-10333
▁무승부를	-10334
▁반박했다	-10335
▁본선에서	-10336
▁부통령이	-10337
▁북부에서	-10338
▁분야에서	-10339
▁스미스의	-10340
▁시민들은	-10341
▁실질적인	-10342
▁야생동물	-10343
▁엘리베이	-10344
▁연방수사	-10345
▁온실가스	-10346
▁입었으며	-10347
▁저항세력	-10348
▁전쟁에서	-10349
▁제공하고	-10350
▁지도부는	-10351
▁책임자인	-10352
▁클린턴을	-10353
▁테러지원	-10354
▁필요성을	-10355
▁해결책을	-10356
▁행사에서	-10357
▁확신했다	-10358
▁회사들이	-10359
트레이어스	-10360
econom	-10361
ration	-10362
▁관광객들이	-10363
▁국무장관이	-10364
▁애니메이션	-10365
▁정치적으로	-10366
▁주장했지만	-10367
▁against	-10368
',	-10369
84	-10370
ES	-10371
FO	-10372
ok	-10373
▁́	-10374
▁닐	-10375
▁엉	-10376
▁챙	-10377
▁했	-10378
▁헝	-10379
가장	-10380
감시	-10381
감은	-10382
견을	-10383
냄새	-10384
누엘	-10385
동생	-10386
동성	-10387
란색	-10388
로우	-10389
론의	-10390
르며	-10391
리한	-10392
만일	-10393
미널	-10394
부족	-10395
브가	-10396
브리	-10397
성한	-10398
섹스	-10399
소시	-10400
쉬는	-10401
악한	-10402
야만	-10403
열에	-10404
의원	-10405
이들	-10406
이면	-10407
적은	-10408
조에	-10409
조치	-10410
증권	-10411
집행	-10412
층을	-10413
치기	-10414
타와	-10415
행정	-10416
화될	-10417
.13	-10418
=27	-10419
aid	-10420
eek	-10421
irl	-10422
urn	-10423
vel	-10424
▁81	-10425
▁Be	-10426
▁Cl	-10427
▁겨우	-10428
▁격돌	-10429
▁고민	-10430
▁구간	-10431
▁구경	-10432
▁끌고	-10433
▁내는	-10434
▁뇌물	-10435
▁뒤집	-10436
▁듣지	-10437
▁따를	-10438
▁라시	-10439
▁레빈	-10440
▁로맨	-10441
▁로버	-10442
▁마침	-10443
▁매주	-10444
▁맥주	-10445
▁메리	-10446
▁면제	-10447
▁명칭	-10448
▁무대	-10449
▁미셀	-10450
▁바꿔	-10451
▁발달	-10452
▁발효	-10453
▁배급	-10454
▁배상	-10455
▁본다	-10456
▁분실	-10457
▁불평	-10458
▁상어	-10459
▁성사	-10460
▁세우	-10461
▁소화	-10462
▁솔로	-10463
▁수수	-10464
▁슬픔	-10465
▁실은	-10466
▁안락	-10467
▁야구	-10468
▁역대	-10469
▁역전	-10470
▁오고	-10471
▁오케	-10472
▁유입	-10473
▁유타	-10474
▁유해	-10475
▁은하	-10476
▁이룩	-10477
▁인내	-10478
▁입력	-10479
▁잡은	-10480
▁장비	-10481
▁전원	-10482
▁정식	-10483
▁정오	-10484
▁제의	-10485
▁조속	-10486
▁존경	-10487
▁좋다	-10488
▁줄여	-10489
▁진흙	-10490
▁집무	-10491
▁착취	-10492
▁창설	-10493
▁청년	-10494
▁추종	-10495
▁충족	-10496
▁취득	-10497
▁침수	-10498
▁칭찬	-10499
▁칸다	-10500
▁코피	-10501
▁키드	-10502
▁털어	-10503
▁펀드	-10504
▁펭귄	-10505
▁포터	-10506
▁하얀	-10507
▁한층	-10508
▁핸드	-10509
▁행성	-10510
▁현행	-10511
▁흰색	-10512
대부분	-10513
대의원	-10514
대표는	-10515
되지만	-10516
면으로	-10517
미국의	-10518
버그는	-10519
베리아	-10520
역으로	-10521
연구소	-10522
이트를	-10523
총장은	-10524
테니스	-10525
해에서	-10526
해주는	-10527
회장은	-10528
able	-10529
ency	-10530
ople	-10531
ourt	-10532
ther	-10533
▁15%	-10534
▁3-0	-10535
▁Res	-10536
▁sec	-10537
▁검찰의	-10538
▁경기장	-10539
▁경영진	-10540
▁공공장	-10541
▁공급을	-10542
▁국가들	-10543
▁그곳에	-10544
▁나눴다	-10545
▁나오고	-10546
▁나타났	-10547
▁높이의	-10548
▁뉴스의	-10549
▁단계에	-10550
▁대한민	-10551
▁덕분에	-10552
▁동유럽	-10553
▁들어오	-10554
▁머리카	-10555
▁메모리	-10556
▁목소리	-10557
▁무엇이	-10558
▁미국산	-10559
▁범인은	-10560
▁보안관	-10561
▁브로드	-10562
▁사람과	-10563
▁사원을	-10564
▁사태의	-10565
▁선거의	-10566
▁수류탄	-10567
▁신문에	-10568
▁실업수	-10569
▁싶다고	-10570
▁양측이	-10571
▁어려움	-10572
▁언제나	-10573
▁없었던	-10574
▁연구의	-10575
▁영감을	-10576
▁오늘밤	-10577
▁올리는	-10578
▁요청한	-10579
▁원하지	-10580
▁위기가	-10581
▁위안부	-10582
▁의미를	-10583
▁의석을	-10584
▁이어질	-10585
▁이해할	-10586
▁있거나	-10587
▁있었기	-10588
▁자이언	-10589
▁장거리	-10590
▁장비를	-10591
▁정보가	-10592
▁제출할	-10593
▁조치에	-10594
▁주가가	-10595
▁진전을	-10596
▁차량은	-10597
▁차례로	-10598
▁차이나	-10599
▁출연해	-10600
▁트라볼	-10601
▁티셔츠	-10602
▁폭발물	-10603
▁하버드	-10604
▁해왔다	-10605
▁헬기를	-10606
▁협력할	-10607
▁호랑이	-10608
▁혼란에	-10609
▁환경을	-10610
▁회견을	-10611
만달러의	-10612
버지니아	-10613
앤젤레스	-10614
지역으로	-10615
▁OPEC	-10616
▁같습니다	-10617
▁관점에서	-10618
▁교전으로	-10619
▁국회에서	-10620
▁국회의사	-10621
▁기자들이	-10622
▁남아있다	-10623
▁도로에서	-10624
▁드립니다	-10625
▁러시아와	-10626
▁목격자는	-10627
▁받았지만	-10628
▁방지하기	-10629
▁베어스턴	-10630
▁보호하고	-10631
▁보호하는	-10632
▁사라졌다	-10633
▁사무실을	-10634
▁상공에서	-10635
▁상승세를	-10636
▁스트레스	-10637
▁시달리고	-10638
▁여객기는	-10639
▁조사하기	-10640
▁주최측은	-10641
▁중단하고	-10642
▁지도자로	-10643
▁지속적인	-10644
▁지지율을	-10645
▁진출했다	-10646
▁참여하는	-10647
▁추산했다	-10648
▁추정했다	-10649
▁크리스마	-10650
▁폭풍으로	-10651
▁프랑스와	-10652
▁피츠버그	-10653
▁하마스는	-10654
▁헤즈볼라	-10655
ission	-10656
▁2,000	-10657
▁가자지구에	-10658
▁감소했다고	-10659
▁미국에서는	-10660
▁사무총장이	-10661
▁에스토니아	-10662
▁지지한다고	-10663
▁항공우주국	-10664
▁econom	-10665
▁troops	-10666
▁가자지구에서	-10667
▁2005.09	-10668
▁2008.11	-10669
ternational	-10670
0)	-10671
67	-10672
97	-10673
DS	-10674
TI	-10675
WC	-10676
my	-10677
▁꼽	-10678
▁닌	-10679
▁뚜	-10680
경비	-10681
경이	-10682
금은	-10683
나귀	-10684
너럴	-10685
동영	-10686
란히	-10687
론은	-10688
마트	-10689
받지	-10690
범을	-10691
베리	-10692
병에	-10693
병의	-10694
부대	-10695
부인	-10696
분한	-10697
선한	-10698
수준	-10699
숙한	-10700
스프	-10701
운을	-10702
위와	-10703
있고	-10704
재를	-10705
지면	-10706
참모	-10707
츠의	-10708
캐슬	-10709
팀의	-10710
히고	-10711
ach	-10712
air	-10713
ner	-10714
org	-10715
ove	-10716
rol	-10717
urg	-10718
▁7%	-10719
▁en	-10720
▁가축	-10721
▁가할	-10722
▁거머	-10723
▁관절	-10724
▁균형	-10725
▁기습	-10726
▁내비	-10727
▁다녀	-10728
▁도주	-10729
▁독자	-10730
▁되풀	-10731
▁드물	-10732
▁득점	-10733
▁떠오	-10734
▁러드	-10735
▁레오	-10736
▁롬니	-10737
▁맞붙	-10738
▁매력	-10739
▁매머	-10740
▁모터	-10741
▁무크	-10742
▁뮌헨	-10743
▁밝힐	-10744
▁밤새	-10745
▁버진	-10746
▁블룸	-10747
▁비유	-10748
▁사카	-10749
▁선진	-10750
▁설계	-10751
▁소실	-10752
▁숫자	-10753
▁승부	-10754
▁신의	-10755
▁싶은	-10756
▁안젤	-10757
▁앞당	-10758
▁여부	-10759
▁열려	-10760
▁영원	-10761
▁요새	-10762
▁우방	-10763
▁원치	-10764
▁위태	-10765
▁유시	-10766
▁이바	-10767
▁일로	-10768
▁자크	-10769
▁잠을	-10770
▁전송	-10771
▁점이	-10772
▁주미	-10773
▁중계	-10774
▁중산	-10775
▁출국	-10776
▁콘텐	-10777
▁크고	-10778
▁크다	-10779
▁타계	-10780
▁타협	-10781
▁패한	-10782
▁포위	-10783
▁포츠	-10784
▁폭등	-10785
▁폴리	-10786
▁피의	-10787
▁할지	-10788
▁해를	-10789
▁호화	-10790
▁회부	-10791
▁힘이	-10792
년에도	-10793
디아나	-10794
방에서	-10795
블랜드	-10796
새로운	-10797
스쿠니	-10798
스페인	-10799
시까지	-10800
실리아	-10801
지기도	-10802
테리아	-10803
하기는	-10804
하다며	-10805
해서는	-10806
흐스탄	-10807
ited	-10808
rans	-10809
▁1/4	-10810
▁900	-10811
▁AFP	-10812
▁BDA	-10813
▁USA	-10814
▁pre	-10815
▁것이기	-10816
▁경우가	-10817
▁계획의	-10818
▁계획한	-10819
▁관계는	-10820
▁국가주	-10821
▁군대가	-10822
▁기간에	-10823
▁기간을	-10824
▁나가는	-10825
▁다행히	-10826
▁단순한	-10827
▁대주교	-10828
▁도시로	-10829
▁동반한	-10830
▁되돌아	-10831
▁라이브	-10832
▁런던에	-10833
▁레이저	-10834
▁로켓포	-10835
▁로한은	-10836
▁말라고	-10837
▁맞았다	-10838
▁명단에	-10839
▁목적은	-10840
▁무너져	-10841
▁미래의	-10842
▁바다로	-10843
▁박격포	-10844
▁반군을	-10845
▁발사를	-10846
▁버냉키	-10847
▁버스를	-10848
▁병원을	-10849
▁보여줄	-10850
▁북부의	-10851
▁비판을	-10852
▁빠졌다	-10853
▁사항은	-10854
▁손해를	-10855
▁수치다	-10856
▁시간에	-10857
▁시설에	-10858
▁알제리	-10859
▁어두운	-10860
▁엘바라	-10861
▁여왕은	-10862
▁영향력	-10863
▁우리베	-10864
▁의지를	-10865
▁일정이	-10866
▁임무는	-10867
▁자세를	-10868
▁재확인	-10869
▁재활용	-10870
▁접전을	-10871
▁정책이	-10872
▁제조업	-10873
▁조만간	-10874
▁주인이	-10875
▁줄이고	-10876
▁지수가	-10877
▁차례의	-10878
▁참석해	-10879
▁찾았다	-10880
▁친구가	-10881
▁카라치	-10882
▁케이시	-10883
▁타임스	-10884
▁투표할	-10885
▁판결은	-10886
▁판단을	-10887
▁판매할	-10888
▁필요할	-10889
▁하나를	-10890
▁행사는	-10891
▁향하고	-10892
▁황우석	-10893
▁히드로	-10894
▁힐튼이	-10895
자회담에	-10896
퍼센트의	-10897
▁1200	-10898
▁1981	-10899
▁2011	-10900
▁have	-10901
▁국민들을	-10902
▁금지하고	-10903
▁기록하고	-10904
▁네바다주	-10905
▁대대적인	-10906
▁럼스펠드	-10907
▁말하면서	-10908
▁모가디슈	-10909
▁백악관에	-10910
▁브리티시	-10911
▁사람들도	-10912
▁상관없이	-10913
▁수상자인	-10914
▁시스템이	-10915
▁시작되는	-10916
▁않겠다는	-10917
▁어머니가	-10918
▁어머니와	-10919
▁예상보다	-10920
▁유일하게	-10921
▁이라크는	-10922
▁이라크인	-10923
▁재무장관	-10924
▁전국적인	-10925
▁지역사회	-10926
▁지지율이	-10927
▁총격으로	-10928
▁티베트의	-10929
▁프랑스는	-10930
▁학생들의	-10931
▁헤럴드가	-10932
▁개인적으로	-10933
▁관계자들과	-10934
▁다큐멘터리	-10935
▁스피어스는	-10936
▁아시아에서	-10937
▁엘바라데이	-10938
▁웹사이트는	-10939
▁이르기까지	-10940
▁짐바브웨의	-10941
▁크로아티아	-10942
▁폭력사태를	-10943
▁폭탄테러를	-10944
▁프로젝트를	-10945
▁경찰에따르면	-10946
▁로스앤젤레스	-10947
▁파키스탄에서	-10948
▁팔레스타인의	-10949
▁Secretary	-10950
Ch	-10951
EW	-10952
GH	-10953
pl	-10954
▁.	-10955
▁:	-10956
▁는	-10957
▁렉	-10958
▁렌	-10959
▁류	-10960
▁줬	-10961
▁짜	-10962
개혁	-10963
공사	-10964
길에	-10965
년도	-10966
노는	-10967
놓은	-10968
놨다	-10969
능한	-10970
다코	-10971
락은	-10972
론이	-10973
린이	-10974
린트	-10975
미가	-10976
사우	-10977
살인	-10978
수술	-10979
스토	-10980
시경	-10981
액은	-10982
오염	-10983
욕을	-10984
우로	-10985
월과	-10986
웨어	-10987
유의	-10988
일인	-10989
저널	-10990
전선	-10991
주인	-10992
직한	-10993
질유	-10994
카스	-10995
트맨	-10996
티드	-10997
티를	-10998
폭력	-10999
ble	-11000
ind	-11001
sec	-11002
▁Ac	-11003
▁IS	-11004
▁가기	-11005
▁거세	-11006
▁검시	-11007
▁격리	-11008
▁광우	-11009
▁근교	-11010
▁김선	-11011
▁끌려	-11012
▁네이	-11013
▁녹색	-11014
▁단일	-11015
▁대가	-11016
▁대지	-11017
▁둘째	-11018
▁로빈	-11019
▁로페	-11020
▁막고	-11021
▁만났	-11022
▁말리	-11023
▁메인	-11024
▁몸무	-11025
▁문자	-11026
▁반란	-11027
▁발이	-11028
▁방치	-11029
▁배를	-11030
▁배아	-11031
▁베리	-11032
▁부른	-11033
▁부작	-11034
▁비영	-11035
▁사드	-11036
▁사탕	-11037
▁생성	-11038
▁서안	-11039
▁설정	-11040
▁신장	-11041
▁아우	-11042
▁알렌	-11043
▁언어	-11044
▁연휴	-11045
▁오키	-11046
▁옥스	-11047
▁원화	-11048
▁유효	-11049
▁응원	-11050
▁이례	-11051
▁인계	-11052
▁입학	-11053
▁재벌	-11054
▁절감	-11055
▁조명	-11056
▁주교	-11057
▁줄이	-11058
▁지닌	-11059
▁징계	-11060
▁추출	-11061
▁침투	-11062
▁클루	-11063
▁타결	-11064
▁탄소	-11065
▁페이	-11066
▁포괄	-11067
▁폭로	-11068
▁헤이	-11069
▁호킹	-11070
▁회색	-11071
▁후퇴	-11072
▁휴양	-11073
기간을	-11074
기적인	-11075
는지에	-11076
대사는	-11077
된다는	-11078
사건을	-11079
시위를	-11080
었다는	-11081
우리의	-11082
으려는	-11083
의사를	-11084
인들과	-11085
일에도	-11086
하는지	-11087
(25)	-11088
,500	-11089
FARC	-11090
atch	-11091
ital	-11092
roup	-11093
▁ins	-11094
▁감사를	-11095
▁거래가	-11096
▁경기도	-11097
▁경제는	-11098
▁경제와	-11099
▁고향인	-11100
▁군대를	-11101
▁그룹의	-11102
▁끔찍한	-11103
▁논의가	-11104
▁누르고	-11105
▁뉴스는	-11106
▁느낀다	-11107
▁당국과	-11108
▁당나귀	-11109
▁대기업	-11110
▁대만의	-11111
▁대표인	-11112
▁마라도	-11113
▁마련할	-11114
▁말아야	-11115
▁모로코	-11116
▁모았다	-11117
▁미드필	-11118
▁발전을	-11119
▁발표에	-11120
▁버마의	-11121
▁범죄에	-11122
▁보호할	-11123
▁본사를	-11124
▁사임할	-11125
▁사태는	-11126
▁서울의	-11127
▁성추행	-11128
▁소녀가	-11129
▁소리가	-11130
▁쇠고기	-11131
▁쇼핑몰	-11132
▁수준의	-11133
▁아내와	-11134
▁아들인	-11135
▁아이돌	-11136
▁아칸소	-11137
▁야후는	-11138
▁양국간	-11139
▁양국이	-11140
▁언급은	-11141
▁열차가	-11142
▁오딩가	-11143
▁운행을	-11144
▁유수프	-11145
▁의혹에	-11146
▁자산을	-11147
▁전망이	-11148
▁전하며	-11149
▁제프리	-11150
▁증시의	-11151
▁지구의	-11152
▁지나지	-11153
▁지속될	-11154
▁지키고	-11155
▁카지노	-11156
▁터키군	-11157
▁토론을	-11158
▁특별히	-11159
▁할아버	-11160
▁합의가	-11161
▁합의는	-11162
▁호텔을	-11163
▁화상을	-11164
▁환자의	-11165
▁회동을	-11166
▁후지모	-11167
▁힘들다	-11168
단체들은	-11169
되었다는	-11170
사람들은	-11171
tions	-11172
▁경찰서에	-11173
▁공동으로	-11174
▁구조대원	-11175
▁국방위원	-11176
▁군인들은	-11177
▁기상청은	-11178
▁니콜라스	-11179
▁대답했다	-11180
▁리처드슨	-11181
▁명령했다	-11182
▁모습으로	-11183
▁무장괴한	-11184
▁벌어지고	-11185
▁부문에서	-11186
▁비밀리에	-11187
▁비행기에	-11188
▁사임했다	-11189
▁상파울루	-11190
▁세계보건	-11191
▁승객들이	-11192
▁시점에서	-11193
▁아버지의	-11194
▁애완동물	-11195
▁야스쿠니	-11196
▁연기했다	-11197
▁예상되는	-11198
▁우주정거	-11199
▁원자바오	-11200
▁위협하는	-11201
▁유명하다	-11202
▁이용하고	-11203
▁인종차별	-11204
▁일정으로	-11205
▁장난감을	-11206
▁정해지지	-11207
▁제공했다	-11208
▁중요성을	-11209
▁지구에서	-11210
▁차원에서	-11211
▁착수했다	-11212
▁참여하지	-11213
▁추가적인	-11214
▁추진하고	-11215
▁커뮤니티	-11216
▁컴퓨터가	-11217
▁쿠데타로	-11218
▁쿠르드족	-11219
▁크리스티	-11220
▁탈레반과	-11221
▁탈레반의	-11222
▁판결했다	-11223
▁하더라도	-11224
▁확실하지	-11225
▁회사들은	-11226
▁후보들은	-11227
▁소식입니다	-11228
▁시상식에서	-11229
▁시카고에서	-11230
▁의원들에게	-11231
▁인도주의적	-11232
▁지도자들과	-11233
▁카자흐스탄	-11234
▁한나라당이	-11235
▁2005.12	-11236
▁2009.01	-11237
▁Foreign	-11238
▁아프가니스탄에	-11239
▁연방준비제도이사회	-11240
(8	-11241
DP	-11242
EX	-11243
▁끈	-11244
▁밸	-11245
▁빗	-11246
▁튀	-11247
고의	-11248
구간	-11249
그라	-11250
그린	-11251
극을	-11252
기상	-11253
냈던	-11254
너스	-11255
대사	-11256
데일	-11257
두에	-11258
들리	-11259
디의	-11260
려면	-11261
르바	-11262
머스	-11263
문화	-11264
발의	-11265
베르	-11266
브로	-11267
비엘	-11268
사진	-11269
석방	-11270
야의	-11271
양이	-11272
연설	-11273
열을	-11274
인가	-11275
인수	-11276
일째	-11277
자민	-11278
작업	-11279
장일	-11280
장치	-11281
재가	-11282
종일	-11283
죄로	-11284
중계	-11285
줘야	-11286
채의	-11287
층의	-11288
턴은	-11289
포트	-11290
호한	-11291
26;	-11292
CIA	-11293
ech	-11294
ran	-11295
tle	-11296
▁85	-11297
▁89	-11298
▁93	-11299
▁Af	-11300
▁가결	-11301
▁가던	-11302
▁가라	-11303
▁가서	-11304
▁각자	-11305
▁개가	-11306
▁개별	-11307
▁격려	-11308
▁결함	-11309
▁계곡	-11310
▁곳의	-11311
▁공기	-11312
▁공판	-11313
▁구형	-11314
▁놓은	-11315
▁단식	-11316
▁당원	-11317
▁당혹	-11318
▁도메	-11319
▁뒤따	-11320
▁들을	-11321
▁듯한	-11322
▁디에	-11323
▁라왈	-11324
▁만찬	-11325
▁맞게	-11326
▁맺고	-11327
▁면역	-11328
▁몰래	-11329
▁바에	-11330
▁밴드	-11331
▁뱅크	-11332
▁복사	-11333
▁부품	-11334
▁비즈	-11335
▁빛을	-11336
▁빠뜨	-11337
▁서쪽	-11338
▁속옷	-11339
▁속한	-11340
▁수업	-11341
▁승용	-11342
▁시판	-11343
▁실어	-11344
▁쓰여	-11345
▁아끼	-11346
▁아닐	-11347
▁아사	-11348
▁악영	-11349
▁연령	-11350
▁예수	-11351
▁오프	-11352
▁의석	-11353
▁의식	-11354
▁이내	-11355
▁인신	-11356
▁일단	-11357
▁일할	-11358
▁임상	-11359
▁자백	-11360
▁잔디	-11361
▁저널	-11362
▁제패	-11363
▁종신	-11364
▁죽어	-11365
▁즐거	-11366
▁차로	-11367
▁차림	-11368
▁채워	-11369
▁촛불	-11370
▁취약	-11371
▁측에	-11372
▁코네	-11373
▁타지	-11374
▁테마	-11375
▁통증	-11376
▁틀림	-11377
▁평론	-11378
▁평소	-11379
▁폴란	-11380
▁피로	-11381
▁피셔	-11382
▁피플	-11383
▁하리	-11384
▁해킹	-11385
▁허블	-11386
▁화해	-11387
▁회피	-11388
년형을	-11389
레스타	-11390
렸지만	-11391
번이나	-11392
사건이	-11393
서비스	-11394
스트롱	-11395
시간에	-11396
시설을	-11397
시켜야	-11398
에서만	-11399
연상을	-11400
였다는	-11401
이라면	-11402
자리에	-11403
장치를	-11404
&#82	-11405
UEFA	-11406
ally	-11407
▁25%	-11408
▁350	-11409
▁787	-11410
▁Day	-11411
▁For	-11412
▁Kim	-11413
▁tra	-11414
▁겪었다	-11415
▁경기의	-11416
▁경찰을	-11417
▁구하기	-11418
▁국가는	-11419
▁국제사	-11420
▁군부가	-11421
▁권한을	-11422
▁규모는	-11423
▁기도를	-11424
▁나토군	-11425
▁남편은	-11426
▁눈물을	-11427
▁뉴캐슬	-11428
▁다음과	-11429
▁대사가	-11430
▁대중의	-11431
▁던졌다	-11432
▁되풀이	-11433
▁라이프	-11434
▁마약을	-11435
▁마을에	-11436
▁매코맥	-11437
▁맥코맥	-11438
▁무너진	-11439
▁물었다	-11440
▁방문이	-11441
▁버몬트	-11442
▁부부의	-11443
▁부상당	-11444
▁불렀다	-11445
▁사고에	-11446
▁사업에	-11447
▁사이언	-11448
▁산불로	-11449
▁생산할	-11450
▁생일을	-11451
▁선언한	-11452
▁설치된	-11453
▁수십억	-11454
▁수용할	-11455
▁시즌을	-11456
▁식량을	-11457
▁심문을	-11458
▁아기가	-11459
▁아기의	-11460
▁아스널	-11461
▁양측의	-11462
▁얼음이	-11463
▁여파로	-11464
▁오마르	-11465
▁요구할	-11466
▁위에서	-11467
▁이름은	-11468
▁인정한	-11469
▁인정할	-11470
▁입국을	-11471
▁있었을	-11472
▁장소로	-11473
▁장치를	-11474
▁재정적	-11475
▁전기가	-11476
▁정도가	-11477
▁정신과	-11478
▁제니퍼	-11479
▁존드로	-11480
▁주말에	-11481
▁중국인	-11482
▁중상을	-11483
▁지키기	-11484
▁진술을	-11485
▁차이를	-11486
▁참가할	-11487
▁총기난	-11488
▁축구팬	-11489
▁출마할	-11490
▁출전한	-11491
▁커지고	-11492
▁크라우	-11493
▁태국의	-11494
▁투표는	-11495
▁페널티	-11496
▁풍부한	-11497
▁프레드	-11498
▁필요는	-11499
되었는데	-11500
센터에서	-11501
적이었다	-11502
카에다는	-11503
ights	-11504
ublic	-11505
▁가족에게	-11506
▁개최되는	-11507
▁결의안에	-11508
▁기반으로	-11509
▁단체들은	-11510
▁당국자는	-11511
▁대통령도	-11512
▁데이터를	-11513
▁동쪽으로	-11514
▁말했지만	-11515
▁미드필더	-11516
▁받았으나	-11517
▁부상자는	-11518
▁부족으로	-11519
▁브리트니	-11520
▁비즈니스	-11521
▁사망하는	-11522
▁사용되고	-11523
▁사이트에	-11524
▁상승으로	-11525
▁상원에서	-11526
▁수사관은	-11527
▁시스템은	-11528
▁시위대와	-11529
▁아이들과	-11530
▁암스트롱	-11531
▁어린이를	-11532
▁연구팀은	-11533
▁위협했다	-11534
▁유세에서	-11535
▁이재민이	-11536
▁일반적인	-11537
▁일축했다	-11538
▁자신감을	-11539
▁재정경제	-11540
▁전세계에	-11541
▁정상들은	-11542
▁중단됐다	-11543
▁지나치게	-11544
▁차베스는	-11545
▁참가했다	-11546
▁참여했다	-11547
▁촉구하는	-11548
▁활동하는	-11549
▁후보들이	-11550
▁후세인의	-11551
▁힐러리는	-11552
위원회에서	-11553
▁Party	-11554
▁국제유가는	-11555
▁대통령과의	-11556
▁동계올림픽	-11557
▁버지니아주	-11558
▁보도합니다	-11559
▁수감자들을	-11560
▁아이디어를	-11561
▁어린이들이	-11562
▁중요하다고	-11563
▁테러지원국	-11564
▁투자자들이	-11565
▁확인했다고	-11566
&#8226;	-11567
2006.08	-11568
2008.06	-11569
▁모스크바에서	-11570
▁사망했습니다	-11571
▁세계보건기구	-11572
▁정상회담에서	-11573
▁protest	-11574
▁아프가니스탄의	-11575
-7	-11576
85	-11577
BN	-11578
MP	-11579
MW	-11580
ax	-11581
▁”	-11582
▁▶	-11583
▁댓	-11584
▁릭	-11585
▁빵	-11586
▁앗	-11587
▁앰	-11588
▁웬	-11589
▁즈	-11590
▁툴	-11591
▁핑	-11592
가리	-11593
강에	-11594
거는	-11595
게는	-11596
겔라	-11597
그러	-11598
긴다	-11599
돌프	-11600
되게	-11601
디언	-11602
라노	-11603
로지	-11604
뤘다	-11605
망이	-11606
머는	-11607
문과	-11608
문의	-11609
바른	-11610
바일	-11611
보면	-11612
살이	-11613
상승	-11614
식과	-11615
심은	-11616
얄라	-11617
엄한	-11618
여러	-11619
오로	-11620
올해	-11621
와이	-11622
요원	-11623
위안	-11624
일라	-11625
일즈	-11626
조로	-11627
좋은	-11628
지나	-11629
카를	-11630
크의	-11631
테인	-11632
통화	-11633
편에	-11634
형에	-11635
FRB	-11636
ief	-11637
▁79	-11638
▁LG	-11639
▁ad	-11640
▁“1	-11641
▁개월	-11642
▁건립	-11643
▁경신	-11644
▁고마	-11645
▁고정	-11646
▁공략	-11647
▁교내	-11648
▁구할	-11649
▁군용	-11650
▁그럼	-11651
▁기조	-11652
▁길에	-11653
▁나쁘	-11654
▁냄새	-11655
▁넣어	-11656
▁노왁	-11657
▁대면	-11658
▁도구	-11659
▁두개	-11660
▁딸인	-11661
▁때가	-11662
▁라틴	-11663
▁로라	-11664
▁로한	-11665
▁리브	-11666
▁리치	-11667
▁마스	-11668
▁마호	-11669
▁매수	-11670
▁몸이	-11671
▁미망	-11672
▁미친	-11673
▁미하	-11674
▁바나	-11675
▁백신	-11676
▁번역	-11677
▁병에	-11678
▁브로	-11679
▁비준	-11680
▁산소	-11681
▁생일	-11682
▁선생	-11683
▁세균	-11684
▁섹스	-11685
▁싫어	-11686
▁않자	-11687
▁애도	-11688
▁얻는	-11689
▁에버	-11690
▁연대	-11691
▁예보	-11692
▁오차	-11693
▁완공	-11694
▁요하	-11695
▁우호	-11696
▁운하	-11697
▁월터	-11698
▁일방	-11699
▁잃고	-11700
▁잃지	-11701
▁장갑	-11702
▁장치	-11703
▁전과	-11704
▁전비	-11705
▁정통	-11706
▁조셉	-11707
▁조장	-11708
▁좌파	-11709
▁지중	-11710
▁진단	-11711
▁집어	-11712
▁창조	-11713
▁찾은	-11714
▁첨단	-11715
▁초과	-11716
▁총알	-11717
▁추격	-11718
▁출장	-11719
▁치고	-11720
▁침착	-11721
▁침팬	-11722
▁카우	-11723
▁켈리	-11724
▁콜레	-11725
▁키스	-11726
▁타입	-11727
▁티모	-11728
▁파르	-11729
▁펼칠	-11730
▁합참	-11731
▁해석	-11732
▁흥행	-11733
▁히스	-11734
계획을	-11735
기록을	-11736
달러의	-11737
되지는	-11738
력으로	-11739
문제에	-11740
방송의	-11741
법원에	-11742
선으로	-11743
시키다	-11744
에이커	-11745
였으나	-11746
위기에	-11747
장에게	-11748
적이지	-11749
조사를	-11750
혔다고	-11751
화하는	-11752
(32)	-11753
ward	-11754
▁110	-11755
▁FTS	-11756
▁Ind	-11757
▁app	-11758
▁가격에	-11759
▁가정에	-11760
▁가져다	-11761
▁가하고	-11762
▁개최된	-11763
▁갤런당	-11764
▁걸렸다	-11765
▁경보를	-11766
▁경향이	-11767
▁경호원	-11768
▁고려해	-11769
▁공격의	-11770
▁공항은	-11771
▁과거의	-11772
▁국민이	-11773
▁국세청	-11774
▁국왕은	-11775
▁그런가	-11776
▁기술의	-11777
▁나란히	-11778
▁네덜란	-11779
▁뇌물을	-11780
▁니케이	-11781
▁단어를	-11782
▁단체에	-11783
▁대선을	-11784
▁도널드	-11785
▁독일인	-11786
▁뒤에서	-11787
▁맡았던	-11788
▁맥케인	-11789
▁명으로	-11790
▁모니터	-11791
▁미네소	-11792
▁방사능	-11793
▁방송의	-11794
▁보안을	-11795
▁불안한	-11796
▁비교해	-11797
▁살해할	-11798
▁석방할	-11799
▁수위가	-11800
▁시도한	-11801
▁신발을	-11802
▁아흐메	-11803
▁않았을	-11804
▁어디서	-11805
▁어려워	-11806
▁여사와	-11807
▁역사가	-11808
▁영국이	-11809
▁영장을	-11810
▁위기로	-11811
▁유리한	-11812
▁음모를	-11813
▁의약품	-11814
▁이것을	-11815
▁이사는	-11816
▁이틀간	-11817
▁일정은	-11818
▁있을지	-11819
▁잡았다	-11820
▁장관을	-11821
▁장악한	-11822
▁재개될	-11823
▁재배치	-11824
▁잭슨은	-11825
▁전쟁의	-11826
▁정치에	-11827
▁제안한	-11828
▁주목을	-11829
▁준장은	-11830
▁지원에	-11831
▁지진은	-11832
▁진행할	-11833
▁질환을	-11834
▁총선에	-11835
▁코끼리	-11836
▁코커스	-11837
▁타이완	-11838
▁터미널	-11839
▁토론토	-11840
▁특이한	-11841
▁파병을	-11842
▁패스를	-11843
▁페리노	-11844
▁폐쇄를	-11845
▁프로듀	-11846
▁학대를	-11847
▁한다며	-11848
▁협의를	-11849
▁호르몬	-11850
▁화장실	-11851
▁활성화	-11852
▁후에도	-11853
▁휴대용	-11854
억달러를	-11855
urity	-11856
▁1982	-11857
▁거부하고	-11858
▁경찰관은	-11859
▁글래스고	-11860
▁금메달을	-11861
▁금지하는	-11862
▁기본적인	-11863
▁기소했다	-11864
▁도미니카	-11865
▁돌아왔다	-11866
▁동영상은	-11867
▁라이스는	-11868
▁모르겠다	-11869
▁무시하고	-11870
▁미얀마를	-11871
▁민주당과	-11872
▁상태라고	-11873
▁선정됐다	-11874
▁성폭행을	-11875
▁스미스는	-11876
▁스피어스	-11877
▁알자와히	-11878
▁오픈에서	-11879
▁왔습니다	-11880
▁용의자의	-11881
▁움직임에	-11882
▁유권자의	-11883
▁이상으로	-11884
▁자리잡고	-11885
▁전문가인	-11886
▁조선중앙	-11887
▁주도하는	-11888
▁중심으로	-11889
▁중앙정보	-11890
▁지역이다	-11891
▁착용하고	-11892
▁칸다하르	-11893
▁페이스북	-11894
▁표현했다	-11895
▁피추시킨	-11896
▁하겠다고	-11897
▁하나이다	-11898
▁하락세를	-11899
▁하락하며	-11900
▁학생들과	-11901
▁확인하는	-11902
▁환영했다	-11903
으로부터의	-11904
illion	-11905
▁House	-11906
▁plans	-11907
▁경기부양책	-11908
▁관광객들은	-11909
▁무샤라프의	-11910
▁살해했다고	-11911
▁시위자들이	-11912
▁아이들에게	-11913
▁이라크전에	-11914
▁이산화탄소	-11915
▁체포되었다	-11916
▁크리스티나	-11917
▁투자자들은	-11918
▁파키스탄이	-11919
▁유럽축구연맹	-11920
▁자유무역협정	-11921
American	-11922
24	-11923
FC	-11924
HS	-11925
PC	-11926
WF	-11927
ov	-11928
▁굶	-11929
▁꽤	-11930
▁닷	-11931
▁닿	-11932
▁딘	-11933
▁랄	-11934
▁칩	-11935
▁캥	-11936
▁탓	-11937
가량	-11938
개인	-11939
거루	-11940
계관	-11941
냐고	-11942
달간	-11943
등한	-11944
레아	-11945
레즈	-11946
류가	-11947
멘토	-11948
물질	-11949
봉을	-11950
사절	-11951
센은	-11952
속에	-11953
수수	-11954
스위	-11955
시바	-11956
알라	-11957
역사	-11958
오가	-11959
오프	-11960
이저	-11961
있지	-11962
자고	-11963
작을	-11964
잡을	-11965
재로	-11966
쟁을	-11967
질러	-11968
집이	-11969
총리	-11970
쿼터	-11971
튼의	-11972
퍼스	-11973
해로	-11974
해져	-11975
헤드	-11976
der	-11977
loy	-11978
uss	-11979
way	-11980
▁83	-11981
▁92	-11982
▁BB	-11983
▁Bl	-11984
▁IT	-11985
▁al	-11986
▁간섭	-11987
▁갈등	-11988
▁감추	-11989
▁강의	-11990
▁갤럭	-11991
▁걷는	-11992
▁격추	-11993
▁경보	-11994
▁공통	-11995
▁구름	-11996
▁구사	-11997
▁기권	-11998
▁기초	-11999
▁김경	-12000
▁꿈을	-12001
▁나노	-12002
▁남미	-12003
▁내장	-12004
▁넓은	-12005
▁농부	-12006
▁농작	-12007
▁누드	-12008
▁다녔	-12009
▁다뤄	-12010
▁다짐	-12011
▁닥터	-12012
▁달에	-12013
▁동점	-12014
▁두뇌	-12015
▁땅을	-12016
▁많지	-12017
▁말은	-12018
▁맹세	-12019
▁밀림	-12020
▁방한	-12021
▁백화	-12022
▁범행	-12023
▁복부	-12024
▁불공	-12025
▁불매	-12026
▁색깔	-12027
▁서버	-12028
▁서신	-12029
▁선을	-12030
▁세대	-12031
▁셔츠	-12032
▁식이	-12033
▁아미	-12034
▁악어	-12035
▁안겨	-12036
▁알파	-12037
▁앗아	-12038
▁양보	-12039
▁에디	-12040
▁에미	-12041
▁여유	-12042
▁오징	-12043
▁와지	-12044
▁웨이	-12045
▁유골	-12046
▁이겨	-12047
▁이벤	-12048
▁이스	-12049
▁이탈	-12050
▁인지	-12051
▁자서	-12052
▁재경	-12053
▁저작	-12054
▁전미	-12055
▁정규	-12056
▁정한	-12057
▁죄수	-12058
▁주당	-12059
▁죽을	-12060
▁지내	-12061
▁지침	-12062
▁지킬	-12063
▁차에	-12064
▁책정	-12065
▁최후	-12066
▁침범	-12067
▁캠벨	-12068
▁크기	-12069
▁테리	-12070
▁통일	-12071
▁특사	-12072
▁하반	-12073
▁확고	-12074
▁후계	-12075
▁후쿠	-12076
▁휴먼	-12077
겼으며	-12078
계에서	-12079
관으로	-12080
그녀는	-12081
렸다는	-12082
명이다	-12083
문제가	-12084
미얀마	-12085
세포를	-12086
스탄불	-12087
슬러는	-12088
이란은	-12089
층에서	-12090
편으로	-12091
프라이	-12092
피니언	-12093
NATO	-12094
alth	-12095
ants	-12096
▁125	-12097
▁Mar	-12098
▁NEW	-12099
▁all	-12100
▁tri	-12101
▁각국의	-12102
▁감옥에	-12103
▁걸었다	-12104
▁검찰에	-12105
▁겁니다	-12106
▁고려할	-12107
▁고립된	-12108
▁고문을	-12109
▁곧바로	-12110
▁공격할	-12111
▁과도한	-12112
▁과반수	-12113
▁과학자	-12114
▁구체적	-12115
▁국왕이	-12116
▁규제를	-12117
▁그루지	-12118
▁그쳤다	-12119
▁기술은	-12120
▁기준을	-12121
▁김선일	-12122
▁남편과	-12123
▁달한다	-12124
▁도시에	-12125
▁뛰어난	-12126
▁뛰어들	-12127
▁레이더	-12128
▁로딕은	-12129
▁만남을	-12130
▁만장일	-12131
▁메시지	-12132
▁모르고	-12133
▁목격한	-12134
▁믿는다	-12135
▁바바라	-12136
▁반군에	-12137
▁받았고	-12138
▁법정에	-12139
▁봤다고	-12140
▁부근에	-12141
▁비무장	-12142
▁비영리	-12143
▁비자를	-12144
▁사랑에	-12145
▁사적인	-12146
▁생중계	-12147
▁선거법	-12148
▁성관계	-12149
▁세계에	-12150
▁수용소	-12151
▁수치를	-12152
▁스피처	-12153
▁시도를	-12154
▁시작해	-12155
▁시장과	-12156
▁식민지	-12157
▁아이슬	-12158
▁아틀란	-12159
▁악화될	-12160
▁암살된	-12161
▁어려울	-12162
▁언제든	-12163
▁여배우	-12164
▁연합은	-12165
▁열렸던	-12166
▁오리건	-12167
▁우승한	-12168
▁유럽을	-12169
▁응답자	-12170
▁의료진	-12171
▁의식을	-12172
▁이씨는	-12173
▁이의를	-12174
▁임명된	-12175
▁장관급	-12176
▁재산을	-12177
▁재판은	-12178
▁저렴한	-12179
▁전망을	-12180
▁전화로	-12181
▁정권은	-12182
▁정당이	-12183
▁정책은	-12184
▁정치범	-12185
▁제공해	-12186
▁제품에	-12187
▁주민이	-12188
▁주석은	-12189
▁주어진	-12190
▁주치의	-12191
▁진단을	-12192
▁초래할	-12193
▁총리에	-12194
▁최대한	-12195
▁출동한	-12196
▁취임한	-12197
▁캔자스	-12198
▁캥거루	-12199
▁탈라바	-12200
▁터키는	-12201
▁파견된	-12202
▁페트로	-12203
▁피아노	-12204
▁하여금	-12205
▁행동은	-12206
▁행위가	-12207
▁헌법을	-12208
▁협조를	-12209
▁확인한	-12210
▁확인해	-12211
▁회장의	-12212
으로서의	-12213
under	-12214
▁8000	-12215
▁comm	-12216
▁year	-12217
▁건물에서	-12218
▁것이지만	-12219
▁공원에서	-12220
▁국영방송	-12221
▁그루지아	-12222
▁기자들의	-12223
▁끊임없이	-12224
▁뉴멕시코	-12225
▁다운로드	-12226
▁다음으로	-12227
▁대부분을	-12228
▁독일에서	-12229
▁들어있는	-12230
▁떨어지는	-12231
▁매케인을	-12232
▁모르지만	-12233
▁모하마드	-12234
▁목소리로	-12235
▁민주변화	-12236
▁박테리아	-12237
▁발생했던	-12238
▁부사장은	-12239
▁부총리는	-12240
▁브라질의	-12241
▁사회주의	-12242
▁산사태로	-12243
▁신용카드	-12244
▁싶어한다	-12245
▁아버지와	-12246
▁악영향을	-12247
▁알베르토	-12248
▁오토바이	-12249
▁올랐으며	-12250
▁워싱턴에	-12251
▁이스탄불	-12252
▁이용하여	-12253
▁자선단체	-12254
▁전적으로	-12255
▁정상적인	-12256
▁좋아한다	-12257
▁지원하기	-12258
▁진행중인	-12259
▁충격으로	-12260
▁케르비엘	-12261
▁팬들에게	-12262
▁평양에서	-12263
▁포기하지	-12264
▁포함하고	-12265
▁프리메라	-12266
▁하원의원	-12267
▁해외에서	-12268
▁협상에서	-12269
▁후보에게	-12270
자회담에서	-12271
eneral	-12272
▁교통사고로	-12273
▁기록했다고	-12274
▁내무장관은	-12275
▁메사추세츠	-12276
▁바이러스에	-12277
▁사망자수가	-12278
▁생각합니다	-12279
▁생방송으로	-12280
▁샤라포바는	-12281
▁선거운동을	-12282
▁수색작업을	-12283
▁슈워제네거	-12284
▁월드시리즈	-12285
▁이슬람교도	-12286
▁일부에서는	-12287
▁클리블랜드	-12288
▁평화적으로	-12289
▁한국인들이	-12290
▁베네수엘라의	-12291
▁사이클론으로	-12292
▁퍼트레이어스	-12293
titution	-12294
23	-12295
AX	-12296
BO	-12297
UV	-12298
ke	-12299
ms	-12300
▁前	-12301
▁겐	-12302
▁굿	-12303
▁람	-12304
▁섞	-12305
▁첨	-12306
▁쾌	-12307
▁톱	-12308
▁틸	-12309
▁픽	-12310
강한	-12311
게임	-12312
과를	-12313
군사	-12314
년째	-12315
능을	-12316
데르	-12317
동의	-12318
류에	-12319
리케	-12320
산이	-12321
서도	-12322
세요	-12323
수산	-12324
수출	-12325
시민	-12326
시위	-12327
식량	-12328
여야	-12329
열차	-12330
였을	-12331
예방	-12332
운트	-12333
웠던	-12334
자치	-12335
잡지	-12336
장암	-12337
조각	-12338
주며	-12339
주한	-12340
줄기	-12341
지길	-12342
지스	-12343
지않	-12344
처음	-12345
체와	-12346
특별	-12347
티컷	-12348
CTV	-12349
ORK	-12350
ces	-12351
ool	-12352
the	-12353
uro	-12354
▁9%	-12355
▁99	-12356
▁KT	-12357
▁SK	-12358
▁cl	-12359
▁ra	-12360
▁we	-12361
▁가리	-12362
▁가뭄	-12363
▁감량	-12364
▁감정	-12365
▁걸프	-12366
▁검출	-12367
▁고심	-12368
▁과잉	-12369
▁과테	-12370
▁구타	-12371
▁그때	-12372
▁그로	-12373
▁낭비	-12374
▁냉동	-12375
▁넣은	-12376
▁닉슨	-12377
▁당뇨	-12378
▁도서	-12379
▁독점	-12380
▁돕고	-12381
▁뒤로	-12382
▁러셀	-12383
▁레논	-12384
▁마닐	-12385
▁마주	-12386
▁맞을	-12387
▁맡게	-12388
▁맺은	-12389
▁메뉴	-12390
▁무리	-12391
▁무어	-12392
▁미트	-12393
▁밀리	-12394
▁밀집	-12395
▁바가	-12396
▁바퀴	-12397
▁발을	-12398
▁방북	-12399
▁복지	-12400
▁본드	-12401
▁부각	-12402
▁비싼	-12403
▁뿌리	-12404
▁사직	-12405
▁서약	-12406
▁성경	-12407
▁수마	-12408
▁수만	-12409
▁수지	-12410
▁스케	-12411
▁심슨	-12412
▁아크	-12413
▁악성	-12414
▁안고	-12415
▁야간	-12416
▁없기	-12417
▁에탄	-12418
▁열쇠	-12419
▁예로	-12420
▁오락	-12421
▁올릴	-12422
▁왕자	-12423
▁요인	-12424
▁위법	-12425
▁위장	-12426
▁유포	-12427
▁육상	-12428
▁이것	-12429
▁자매	-12430
▁제가	-12431
▁조코	-12432
▁종말	-12433
▁좋게	-12434
▁좌익	-12435
▁준다	-12436
▁증진	-12437
▁지분	-12438
▁지저	-12439
▁지폐	-12440
▁참배	-12441
▁초고	-12442
▁캐리	-12443
▁터치	-12444
▁토양	-12445
▁톰슨	-12446
▁폭도	-12447
▁폴슨	-12448
▁해가	-12449
▁허위	-12450
▁호수	-12451
▁혼합	-12452
거리가	-12453
경찰은	-12454
났지만	-12455
대학의	-12456
떨어진	-12457
로서는	-12458
미국이	-12459
미사일	-12460
민주신	-12461
버렸다	-12462
변인은	-12463
사고가	-12464
상태가	-12465
소시에	-12466
수술을	-12467
월에도	-12468
이트는	-12469
일만에	-12470
정책을	-12471
행위에	-12472
혁명군	-12473
ense	-12474
form	-12475
rime	-12476
▁101	-12477
▁190	-12478
▁80%	-12479
▁ETA	-12480
▁acc	-12481
▁감소를	-12482
▁건강을	-12483
▁경관은	-12484
▁공개할	-12485
▁공군기	-12486
▁공장을	-12487
▁공항의	-12488
▁교수가	-12489
▁구스마	-12490
▁그래미	-12491
▁그린피	-12492
▁근소한	-12493
▁기온이	-12494
▁나타낸	-12495
▁날씨가	-12496
▁남편을	-12497
▁노리에	-12498
▁뉴욕증	-12499
▁대체할	-12500
▁대학은	-12501
▁도로에	-12502
▁돌려보	-12503
▁마리가	-12504
▁마을을	-12505
▁마침내	-12506
▁맨유는	-12507
▁명백히	-12508
▁모델을	-12509
▁문제다	-12510
▁물질을	-12511
▁미치지	-12512
▁발견돼	-12513
▁베컴이	-12514
▁벨몬트	-12515
▁부상한	-12516
▁부인과	-12517
▁부인이	-12518
▁브루스	-12519
▁비롯해	-12520
▁비행사	-12521
▁빠르면	-12522
▁사태로	-12523
▁새겨진	-12524
▁샘플을	-12525
▁셰이크	-12526
▁소수의	-12527
▁수요가	-12528
▁시기를	-12529
▁신청을	-12530
▁실종자	-12531
▁아끼지	-12532
▁아니고	-12533
▁아들은	-12534
▁아들의	-12535
▁아이티	-12536
▁알았다	-12537
▁애쓰고	-12538
▁에넹은	-12539
▁엔데버	-12540
▁여동생	-12541
▁여진이	-12542
▁열렬한	-12543
▁예산을	-12544
▁운전을	-12545
▁위치에	-12546
▁유가족	-12547
▁유니버	-12548
▁은행이	-12549
▁이른바	-12550
▁이베이	-12551
▁이상한	-12552
▁자메이	-12553
▁작품은	-12554
▁장소를	-12555
▁장착된	-12556
▁전원이	-12557
▁정동영	-12558
▁정보부	-12559
▁제도를	-12560
▁제안에	-12561
▁주도의	-12562
▁주식은	-12563
▁지원한	-12564
▁철저한	-12565
▁최선의	-12566
▁출전을	-12567
▁크로커	-12568
▁토론회	-12569
▁판사가	-12570
▁판정을	-12571
▁헤럴드	-12572
▁홍수가	-12573
개월간의	-12574
과정에서	-12575
대통령이	-12576
이었으며	-12577
적으로는	-12578
투표에서	-12579
해달라고	-12580
ision	-12581
▁1800	-12582
▁Comm	-12583
▁YORK	-12584
▁work	-12585
▁가능하게	-12586
▁결의안은	-12587
▁공격하는	-12588
▁국가대표	-12589
▁국가보안	-12590
▁국민에게	-12591
▁규정하고	-12592
▁논의하고	-12593
▁논의했다	-12594
▁담당하고	-12595
▁대표들은	-12596
▁마흐무드	-12597
▁말했으며	-12598
▁매케인에	-12599
▁민간인이	-12600
▁배제하지	-12601
▁백악관의	-12602
▁보수주의	-12603
▁본격적인	-12604
▁북한으로	-12605
▁사람들에	-12606
▁사랑하는	-12607
▁사용하기	-12608
▁사용한다	-12609
▁사원에서	-12610
▁선수들의	-12611
▁세실리아	-12612
▁수만명의	-12613
▁수하르토	-12614
▁승려들이	-12615
▁앞으로의	-12616
▁애틀랜타	-12617
▁엔지니어	-12618
▁여성들을	-12619
▁예정대로	-12620
▁오키나와	-12621
▁움직이고	-12622
▁유지하는	-12623
▁응답자의	-12624
▁의료진은	-12625
▁의원들의	-12626
▁인플루엔	-12627
▁재판관은	-12628
▁주지사의	-12629
▁줄어들고	-12630
▁지목했다	-12631
▁지방에서	-12632
▁참석하기	-12633
▁카트리나	-12634
▁코미디언	-12635
▁쿠데타를	-12636
▁폭발물을	-12637
▁학생들을	-12638
▁확보했다	-12639
▁환경보호	-12640
▁희망하고	-12641
▁희망한다	-12642
▁first	-12643
▁visit	-12644
▁관계당국은	-12645
▁바그다드에	-12646
▁바이러스가	-12647
▁사살했다고	-12648
▁스피어스가	-12649
▁시작되었다	-12650
▁아웅산수치	-12651
▁알카에다를	-12652
▁엘리베이터	-12653
▁Associ	-12654
▁Center	-12655
▁결과에따르면	-12656
▁구조대원들이	-12657
▁미국인들에게	-12658
▁살해하겠다고	-12659
▁웹사이트에서	-12660
AP	-12661
GS	-12662
IT	-12663
az	-12664
io	-12665
ru	-12666
ty	-12667
we	-12668
▁댐	-12669
▁룰	-12670
▁룸	-12671
▁옵	-12672
▁웅	-12673
▁을	-12674
▁팩	-12675
▁횟	-12676
각한	-12677
건에	-12678
국과	-12679
권의	-12680
그런	-12681
놀드	-12682
담한	-12683
당신	-12684
덩이	-12685
독립	-12686
등급	-12687
라나	-12688
란다	-12689
만인	-12690
무니	-12691
무라	-12692
바가	-12693
방위	-12694
병원	-12695
비오	-12696
비용	-12697
살된	-12698
살상	-12699
상업	-12700
슈퍼	-12701
슬램	-12702
씨를	-12703
온난	-12704
의약	-12705
이전	-12706
익을	-12707
인당	-12708
인치	-12709
인한	-12710
인해	-12711
일자	-12712
있게	-12713
자연	-12714
조의	-12715
즈에	-12716
차전	-12717
채를	-12718
테랑	-12719
테이	-12720
패로	-12721
포로	-12722
폭발	-12723
피크	-12724
학년	-12725
혐오	-12726
New	-12727
app	-12728
lam	-12729
tor	-12730
▁87	-12731
▁95	-12732
▁AK	-12733
▁IC	-12734
▁go	-12735
▁ro	-12736
▁결렬	-12737
▁결별	-12738
▁고백	-12739
▁고아	-12740
▁곤돌	-12741
▁국적	-12742
▁군수	-12743
▁그날	-12744
▁기둥	-12745
▁꾸준	-12746
▁나치	-12747
▁낙찰	-12748
▁녹아	-12749
▁단백	-12750
▁도발	-12751
▁동쪽	-12752
▁들은	-12753
▁라크	-12754
▁레인	-12755
▁링컨	-12756
▁막는	-12757
▁말고	-12758
▁명인	-12759
▁미들	-12760
▁밀매	-12761
▁바위	-12762
▁밖의	-12763
▁발부	-12764
▁밝은	-12765
▁배럭	-12766
▁번영	-12767
▁베니	-12768
▁별로	-12769
▁부추	-12770
▁브란	-12771
▁브레	-12772
▁비싸	-12773
▁빠질	-12774
▁삼림	-12775
▁선적	-12776
▁수잔	-12777
▁시의	-12778
▁심판	-12779
▁썼다	-12780
▁애국	-12781
▁앤디	-12782
▁앨라	-12783
▁어울	-12784
▁연립	-12785
▁연임	-12786
▁오직	-12787
▁와서	-12788
▁요격	-12789
▁윈프	-12790
▁유물	-12791
▁유예	-12792
▁유혹	-12793
▁이룬	-12794
▁인력	-12795
▁입지	-12796
▁입찰	-12797
▁재발	-12798
▁재생	-12799
▁제임	-12800
▁종업	-12801
▁주관	-12802
▁주를	-12803
▁주일	-12804
▁중소	-12805
▁체스	-12806
▁측의	-12807
▁컨퍼	-12808
▁크누	-12809
▁탐지	-12810
▁통역	-12811
▁퇴직	-12812
▁파울	-12813
▁편지	-12814
▁피어	-12815
▁하려	-12816
▁한쪽	-12817
▁행한	-12818
▁헤르	-12819
▁혁신	-12820
▁홀리	-12821
▁화석	-12822
개국이	-12823
객들은	-12824
국들의	-12825
는지를	-12826
됐는지	-12827
라이프	-12828
레스테	-12829
레이션	-12830
레이트	-12831
르에서	-12832
리스탄	-12833
면서도	-12834
범으로	-12835
법안을	-12836
선고를	-12837
성에서	-12838
스트를	-12839
심으로	-12840
여명을	-12841
연승을	-12842
월드컵	-12843
으로의	-12844
은행의	-12845
자들로	-12846
지수도	-12847
카드를	-12848
텍사스	-12849
필요한	-12850
하려면	-12851
해진다	-12852
회담을	-12853
회사가	-12854
ator	-12855
ents	-12856
ting	-12857
▁1-1	-12858
▁1/3	-12859
▁95%	-12860
▁BMW	-12861
▁Eng	-12862
▁dec	-12863
▁def	-12864
▁rec	-12865
▁강경한	-12866
▁갖는다	-12867
▁거라고	-12868
▁건설을	-12869
▁격차로	-12870
▁결혼식	-12871
▁경우에	-12872
▁공군은	-12873
▁공무원	-12874
▁구멍을	-12875
▁그린스	-12876
▁극적인	-12877
▁급속히	-12878
▁기간이	-12879
▁끝났다	-12880
▁나가고	-12881
▁남편의	-12882
▁논란을	-12883
▁높이고	-12884
▁뉴스를	-12885
▁달러화	-12886
▁당분간	-12887
▁당수는	-12888
▁대결을	-12889
▁대사를	-12890
▁대학살	-12891
▁동물의	-12892
▁동안에	-12893
▁되면서	-12894
▁라왈핀	-12895
▁리얼리	-12896
▁린제이	-12897
▁마호메	-12898
▁면담을	-12899
▁명성을	-12900
▁무기한	-12901
▁미국발	-12902
▁밀란은	-12903
▁발표가	-12904
▁범행을	-12905
▁변화의	-12906
▁보고는	-12907
▁보내기	-12908
▁부대가	-12909
▁부딪혀	-12910
▁부토가	-12911
▁분석가	-12912
▁비핵화	-12913
▁사람도	-12914
▁사전에	-12915
▁상승을	-12916
▁상승할	-12917
▁상품을	-12918
▁생물학	-12919
▁선데이	-12920
▁세력의	-12921
▁세상을	-12922
▁소년의	-12923
▁수준을	-12924
▁숨지게	-12925
▁승부를	-12926
▁식으로	-12927
▁신속한	-12928
▁싱가폴	-12929
▁안타까	-12930
▁않다는	-12931
▁알리기	-12932
▁앙겔라	-12933
▁얘기를	-12934
▁어렵다	-12935
▁업체인	-12936
▁영화로	-12937
▁오르며	-12938
▁오스틴	-12939
▁오프라	-12940
▁외치며	-12941
▁요구가	-12942
▁우려로	-12943
▁우즈는	-12944
▁위반한	-12945
▁유엔과	-12946
▁은행은	-12947
▁의무를	-12948
▁이메일	-12949
▁이정인	-12950
▁이하의	-12951
▁인권을	-12952
▁인도와	-12953
▁인식을	-12954
▁일기로	-12955
▁입원한	-12956
▁작업은	-12957
▁저질렀	-12958
▁전역의	-12959
▁전체를	-12960
▁점에서	-12961
▁접근을	-12962
▁정보는	-12963
▁정상에	-12964
▁제기한	-12965
▁제너럴	-12966
▁제이미	-12967
▁주장해	-12968
▁지니고	-12969
▁지명을	-12970
▁지원이	-12971
▁질병을	-12972
▁집행유	-12973
▁창문을	-12974
▁카리스	-12975
▁카톨릭	-12976
▁탈북자	-12977
▁토마토	-12978
▁퍼레이	-12979
▁펼치고	-12980
▁평범한	-12981
▁평화상	-12982
▁포스터	-12983
▁폭발은	-12984
▁프랑크	-12985
▁피난민	-12986
▁피해는	-12987
▁하기로	-12988
▁하원은	-12989
▁학교의	-12990
▁항소할	-12991
▁해결에	-12992
▁해군은	-12993
▁해안을	-12994
▁해주는	-12995
▁향하던	-12996
▁허커비	-12997
▁협상은	-12998
▁홍콩의	-12999
▁확률이	-13000
▁후보자	-13001
세트에서	-13002
예비선거	-13003
잉글랜드	-13004
자회담이	-13005
했는지는	-13006
arket	-13007
▁1979	-13008
▁1984	-13009
▁2014	-13010
▁FTSE	-13011
▁comp	-13012
▁says	-13013
▁가자시티	-13014
▁강조하고	-13015
▁것인지에	-13016
▁게임에서	-13017
▁결승에서	-13018
▁경제적인	-13019
▁공개되지	-13020
▁교회에서	-13021
▁기록적인	-13022
▁기업들이	-13023
▁기울이고	-13024
▁나머지는	-13025
▁나타내고	-13026
▁내무부가	-13027
▁노력으로	-13028
▁담겨있다	-13029
▁도착했을	-13030
▁보건복지	-13031
▁보여주기	-13032
▁부정선거	-13033
▁사망했고	-13034
▁살해했다	-13035
▁서명했다	-13036
▁석방됐다	-13037
▁선수들을	-13038
▁소개했다	-13039
▁승리하며	-13040
▁여기에는	-13041
▁연합군은	-13042
▁외교부는	-13043
▁우주선이	-13044
▁유지하기	-13045
▁유혈사태	-13046
▁이끌었던	-13047
▁이라크가	-13048
▁이란에서	-13049
▁이자율을	-13050
▁인도에서	-13051
▁자신들을	-13052
▁장악하고	-13053
▁전형적인	-13054
▁정보기관	-13055
▁지지율로	-13056
▁초등학교	-13057
▁총격전이	-13058
▁콘서트를	-13059
▁탈라바니	-13060
▁포함된다	-13061
▁플레이어	-13062
▁항공사는	-13063
▁핵시설을	-13064
▁휴대폰을	-13065
들에따르면	-13066
minist	-13067
▁3,000	-13068
▁Court	-13069
▁World	-13070
▁고위관리는	-13071
▁구체적으로	-13072
▁동남아시아	-13073
▁만장일치로	-13074
▁무샤라프가	-13075
▁바그다드의	-13076
▁살모넬라균	-13077
▁상태입니다	-13078
▁생각한다고	-13079
▁어린이들을	-13080
▁유권자들의	-13081
▁정부로부터	-13082
▁크리스티아	-13083
▁파키스탄을	-13084
▁희생자들을	-13085
2006.01	-13086
▁Americ	-13087
▁유권자들에게	-13088
▁2007.11	-13089
▁웨스트버지니아	-13090
)”	-13091
63	-13092
65	-13093
=3	-13094
NY	-13095
PF	-13096
▁Q	-13097
▁닮	-13098
▁쉐	-13099
▁싣	-13100
▁팰	-13101
▁힉	-13102
가게	-13103
고문	-13104
곳은	-13105
느라	-13106
달라	-13107
뤼셀	-13108
르카	-13109
리히	-13110
마가	-13111
마에	-13112
모는	-13113
바리	-13114
박을	-13115
범이	-13116
볍게	-13117
빌에	-13118
샤는	-13119
세탁	-13120
소연	-13121
시다	-13122
아리	-13123
야드	-13124
어느	-13125
어드	-13126
연대	-13127
정말	-13128
제인	-13129
주재	-13130
질환	-13131
척이	-13132
츠를	-13133
치료	-13134
컨드	-13135
타로	-13136
탕카	-13137
파르	-13138
편을	-13139
폰을	-13140
합의	-13141
행동	-13142
화학	-13143
)’,	-13144
IOC	-13145
WHO	-13146
arg	-13147
ety	-13148
ick	-13149
ino	-13150
oft	-13151
yst	-13152
▁DC	-13153
▁감면	-13154
▁감안	-13155
▁감원	-13156
▁갤러	-13157
▁검정	-13158
▁계절	-13159
▁고생	-13160
▁고집	-13161
▁공조	-13162
▁과다	-13163
▁구역	-13164
▁군복	-13165
▁군을	-13166
▁궁극	-13167
▁궁금	-13168
▁금년	-13169
▁기쁨	-13170
▁나간	-13171
▁나뉘	-13172
▁낙하	-13173
▁날개	-13174
▁남지	-13175
▁노선	-13176
▁농산	-13177
▁농촌	-13178
▁뇌졸	-13179
▁닌텐	-13180
▁돕는	-13181
▁두목	-13182
▁두자	-13183
▁뒤덮	-13184
▁드문	-13185
▁디아	-13186
▁땅에	-13187
▁라인	-13188
▁레젭	-13189
▁리트	-13190
▁마가	-13191
▁맥코	-13192
▁메일	-13193
▁뮤직	-13194
▁받던	-13195
▁배터	-13196
▁버린	-13197
▁범람	-13198
▁보드	-13199
▁보류	-13200
▁볼리	-13201
▁분출	-13202
▁붙어	-13203
▁뽑아	-13204
▁사제	-13205
▁산유	-13206
▁산토	-13207
▁상정	-13208
▁세이	-13209
▁속해	-13210
▁술에	-13211
▁얀코	-13212
▁억압	-13213
▁엔진	-13214
▁올드	-13215
▁용인	-13216
▁월경	-13217
▁유네	-13218
▁유태	-13219
▁의구	-13220
▁이길	-13221
▁이끈	-13222
▁이데	-13223
▁이브	-13224
▁인원	-13225
▁일명	-13226
▁임산	-13227
▁자격	-13228
▁자라	-13229
▁저격	-13230
▁전례	-13231
▁정체	-13232
▁종이	-13233
▁줬다	-13234
▁지뢰	-13235
▁지수	-13236
▁지칭	-13237
▁직장	-13238
▁질식	-13239
▁짝짓	-13240
▁창립	-13241
▁채권	-13242
▁체제	-13243
▁카나	-13244
▁칼로	-13245
▁코트	-13246
▁클래	-13247
▁타는	-13248
▁타운	-13249
▁터진	-13250
▁테크	-13251
▁퇴장	-13252
▁팔루	-13253
▁페퍼	-13254
▁펼쳤	-13255
▁평생	-13256
▁포유	-13257
▁폴라	-13258
▁피델	-13259
▁피오	-13260
▁항복	-13261
▁헌신	-13262
▁호위	-13263
▁홈런	-13264
▁황교	-13265
가스를	-13266
내용을	-13267
년동안	-13268
되도록	-13269
들에서	-13270
마니아	-13271
방으로	-13272
보다도	-13273
상황을	-13274
성으로	-13275
센터의	-13276
스에게	-13277
스와의	-13278
안으로	-13279
연하게	-13280
웠다고	-13281
이란이	-13282
작업에	-13283
전부터	-13284
지거나	-13285
지었다	-13286
차례나	-13287
차례의	-13288
크에서	-13289
하기에	-13290
(23)	-13291
acks	-13292
oldi	-13293
ourn	-13294
▁230	-13295
▁43%	-13296
▁750	-13297
▁NFL	-13298
▁SUV	-13299
▁rel	-13300
▁가톨릭	-13301
▁강에서	-13302
▁같았다	-13303
▁결정될	-13304
▁경력을	-13305
▁고래를	-13306
▁공습이	-13307
▁구매할	-13308
▁국정원	-13309
▁긴밀한	-13310
▁김계관	-13311
▁날짜를	-13312
▁남자아	-13313
▁논쟁의	-13314
▁다하고	-13315
▁대답을	-13316
▁대도시	-13317
▁대통합	-13318
▁데니스	-13319
▁도로가	-13320
▁동부에	-13321
▁동원해	-13322
▁마을의	-13323
▁만나는	-13324
▁물러날	-13325
▁바람직	-13326
▁바이오	-13327
▁발견은	-13328
▁발사된	-13329
▁발사한	-13330
▁방송이	-13331
▁배터리	-13332
▁베테랑	-13333
▁보고가	-13334
▁복용한	-13335
▁부당한	-13336
▁부모는	-13337
▁부족을	-13338
▁블로거	-13339
▁비율이	-13340
▁빨간색	-13341
▁사인을	-13342
▁사카쉬	-13343
▁새끼를	-13344
▁생각은	-13345
▁생활에	-13346
▁서로를	-13347
▁세워진	-13348
▁소감을	-13349
▁소방관	-13350
▁소유의	-13351
▁수단을	-13352
▁스타일	-13353
▁시한을	-13354
▁신경을	-13355
▁싸움을	-13356
▁앞에서	-13357
▁야후가	-13358
▁업체가	-13359
▁에어버	-13360
▁에이미	-13361
▁에탄올	-13362
▁연관된	-13363
▁연이어	-13364
▁올바른	-13365
▁원장은	-13366
▁이들에	-13367
▁이라고	-13368
▁이유에	-13369
▁인접한	-13370
▁임신한	-13371
▁작전에	-13372
▁전기를	-13373
▁전달한	-13374
▁점수를	-13375
▁접근할	-13376
▁정권의	-13377
▁제조사	-13378
▁조언을	-13379
▁중서부	-13380
▁중점을	-13381
▁증거로	-13382
▁지구로	-13383
▁지위를	-13384
▁지점에	-13385
▁지지율	-13386
▁진실을	-13387
▁첼시의	-13388
▁초대형	-13389
▁촬영을	-13390
▁최우수	-13391
▁추수감	-13392
▁충돌을	-13393
▁치르는	-13394
▁콘서트	-13395
▁쿠바의	-13396
▁태양열	-13397
▁터키가	-13398
▁터키를	-13399
▁통과한	-13400
▁포기할	-13401
▁폭발해	-13402
▁표적이	-13403
▁학교를	-13404
▁합참의	-13405
▁해제할	-13406
▁협정에	-13407
▁협회는	-13408
▁활용할	-13409
기때문에	-13410
리우드의	-13411
알카에다	-13412
오바마는	-13413
▁1600	-13414
▁APEC	-13415
▁more	-13416
▁take	-13417
▁공급하는	-13418
▁공장에서	-13419
▁국토안보	-13420
▁근무하는	-13421
▁금융제재	-13422
▁기념하기	-13423
▁기다리는	-13424
▁나타나고	-13425
▁내전으로	-13426
▁대중교통	-13427
▁대처하기	-13428
▁대표단이	-13429
▁도움으로	-13430
▁득표율을	-13431
▁말입니다	-13432
▁미네소타	-13433
▁반대했다	-13434
▁발생한지	-13435
▁벌어지는	-13436
▁보수적인	-13437
▁사건에서	-13438
▁사상자는	-13439
▁상태였다	-13440
▁선택했다	-13441
▁소수민족	-13442
▁수행하고	-13443
▁승리하는	-13444
▁시작하는	-13445
▁아흐마디	-13446
▁앤더슨은	-13447
▁어머니는	-13448
▁없었지만	-13449
▁엔터테인	-13450
▁여객기를	-13451
▁연속으로	-13452
▁연합군이	-13453
▁원한다고	-13454
▁의료진이	-13455
▁이데올로	-13456
▁이뤄지지	-13457
▁인용하여	-13458
▁인정하고	-13459
▁일자리가	-13460
▁잃었다고	-13461
▁전설적인	-13462
▁조사했다	-13463
▁주지사와	-13464
▁지도자를	-13465
▁최저치를	-13466
▁추구하는	-13467
▁추락했다	-13468
▁친구들과	-13469
▁컬럼비아	-13470
▁킬로미터	-13471
▁타임스가	-13472
▁터키군은	-13473
▁테스트를	-13474
▁특파원이	-13475
▁판매하는	-13476
▁팔레스타	-13477
▁페르난도	-13478
▁푸에르토	-13479
▁풀려났다	-13480
▁해변에서	-13481
▁행동으로	-13482
▁국방장관이	-13483
▁도착했다고	-13484
▁러시아에서	-13485
▁메드베데프	-13486
▁무장단체가	-13487
▁발견했으며	-13488
▁사무실에서	-13489
▁스피어스의	-13490
▁용의자들이	-13491
▁이루어지고	-13492
▁이스라엘군	-13493
▁전반적으로	-13494
▁정상적으로	-13495
▁참가자들은	-13496
▁토네이도가	-13497
▁필요하다는	-13498
▁희생자들이	-13499
2007.09	-13500
2007.11	-13501
akistan	-13502
▁달라이라마는	-13503
▁대통합민주신	-13504
▁이스라엘군은	-13505
▁천문학자들은	-13506
▁프리메라리가	-13507
National	-13508
▁2006.01	-13509
13	-13510
22	-13511
49	-13512
7-	-13513
GM	-13514
MD	-13515
My	-13516
Sp	-13517
▁갓	-13518
▁깜	-13519
▁꿀	-13520
▁뭉	-13521
▁삽	-13522
▁쉴	-13523
▁쏜	-13524
▁젖	-13525
▁족	-13526
▁컸	-13527
▁펌	-13528
▁휠	-13529
감과	-13530
객이	-13531
그리	-13532
글리	-13533
네트	-13534
노프	-13535
다르	-13536
델라	-13537
됐기	-13538
둘러	-13539
라서	-13540
락이	-13541
렐은	-13542
로써	-13543
마드	-13544
마켓	-13545
맨은	-13546
먼이	-13547
배나	-13548
법과	-13549
변을	-13550
사전	-13551
세스	-13552
센티	-13553
스케	-13554
시스	-13555
씨와	-13556
액이	-13557
연상	-13558
우가	-13559
월말	-13560
웰은	-13561
유권	-13562
전인	-13563
조는	-13564
직원	-13565
차이	-13566
처에	-13567
철도	-13568
청을	-13569
탄과	-13570
통이	-13571
파이	-13572
700	-13573
ECD	-13574
ext	-13575
gra	-13576
tig	-13577
▁&#	-13578
▁2/	-13579
▁98	-13580
▁Ge	-13581
▁HD	-13582
▁Or	-13583
▁it	-13584
▁no	-13585
▁간첩	-13586
▁걸고	-13587
▁공부	-13588
▁공안	-13589
▁공직	-13590
▁공학	-13591
▁권유	-13592
▁그냥	-13593
▁그랜	-13594
▁글렌	-13595
▁급파	-13596
▁기번	-13597
▁깨달	-13598
▁날을	-13599
▁남을	-13600
▁납세	-13601
▁내게	-13602
▁냉각	-13603
▁농구	-13604
▁농장	-13605
▁누설	-13606
▁대조	-13607
▁덩어	-13608
▁동요	-13609
▁동일	-13610
▁됐던	-13611
▁랜드	-13612
▁리타	-13613
▁마오	-13614
▁맡아	-13615
▁매체	-13616
▁맨하	-13617
▁모닝	-13618
▁무려	-13619
▁민감	-13620
▁밀러	-13621
▁발자	-13622
▁벽에	-13623
▁보아	-13624
▁볼튼	-13625
▁부의	-13626
▁불태	-13627
▁비치	-13628
▁사장	-13629
▁상임	-13630
▁새해	-13631
▁생기	-13632
▁생후	-13633
▁샤론	-13634
▁서해	-13635
▁섬에	-13636
▁성당	-13637
▁쇼에	-13638
▁수염	-13639
▁시체	-13640
▁시키	-13641
▁신설	-13642
▁싱글	-13643
▁싸울	-13644
▁애널	-13645
▁앵커	-13646
▁얼어	-13647
▁에밀	-13648
▁여야	-13649
▁영입	-13650
▁올랜	-13651
▁외각	-13652
▁요금	-13653
▁요소	-13654
▁우드	-13655
▁원격	-13656
▁유아	-13657
▁의지	-13658
▁일곱	-13659
▁잃을	-13660
▁임박	-13661
▁임원	-13662
▁자부	-13663
▁잡기	-13664
▁잡을	-13665
▁잡힌	-13666
▁적힌	-13667
▁접한	-13668
▁제국	-13669
▁조달	-13670
▁조카	-13671
▁지미	-13672
▁지에	-13673
▁지표	-13674
▁집이	-13675
▁쫓겨	-13676
▁청원	-13677
▁체인	-13678
▁추도	-13679
▁클로	-13680
▁토끼	-13681
▁퇴진	-13682
▁투기	-13683
▁팀에	-13684
▁펠리	-13685
▁평창	-13686
▁표면	-13687
▁헤드	-13688
▁환수	-13689
개국의	-13690
거래를	-13691
고했다	-13692
기에는	-13693
뉴스는	-13694
들간의	-13695
라이트	-13696
릴랜드	-13697
북한의	-13698
사들의	-13699
사진을	-13700
석에서	-13701
센트럴	-13702
시간의	-13703
았으나	-13704
어지고	-13705
연패를	-13706
운드를	-13707
이들은	-13708
인터넷	-13709
임이사	-13710
자마자	-13711
조사에	-13712
주의를	-13713
터바흐	-13714
회사는	-13715
ated	-13716
mitt	-13717
ower	-13718
reak	-13719
reen	-13720
▁1.5	-13721
▁103	-13722
▁240	-13723
▁3-1	-13724
▁911	-13725
▁BBK	-13726
▁Rep	-13727
▁Sci	-13728
▁dem	-13729
▁get	-13730
▁iss	-13731
▁was	-13732
▁가속화	-13733
▁가스를	-13734
▁거머쥐	-13735
▁건물로	-13736
▁결정한	-13737
▁경사는	-13738
▁경선이	-13739
▁경우는	-13740
▁경의를	-13741
▁계기가	-13742
▁공동성	-13743
▁관리를	-13744
▁광장에	-13745
▁교수인	-13746
▁국기를	-13747
▁군복을	-13748
▁그림을	-13749
▁기관의	-13750
▁기술에	-13751
▁끌어들	-13752
▁끌어올	-13753
▁끝나지	-13754
▁끝내고	-13755
▁나라가	-13756
▁노조는	-13757
▁높였다	-13758
▁늘어난	-13759
▁다르게	-13760
▁더이상	-13761
▁들어보	-13762
▁등에서	-13763
▁때로는	-13764
▁리서치	-13765
▁마르코	-13766
▁마음이	-13767
▁말았다	-13768
▁맥도날	-13769
▁면에서	-13770
▁목표가	-13771
▁몸무게	-13772
▁못하면	-13773
▁무차별	-13774
▁무책임	-13775
▁문화를	-13776
▁반군과	-13777
▁발전소	-13778
▁버시바	-13779
▁법적인	-13780
▁벤자민	-13781
▁별도로	-13782
▁병력은	-13783
▁보도된	-13784
▁브뤼셀	-13785
▁사냥꾼	-13786
▁사이로	-13787
▁산업이	-13788
▁서부의	-13789
▁석방에	-13790
▁선택한	-13791
▁설립한	-13792
▁설명을	-13793
▁성범죄	-13794
▁세번째	-13795
▁세우고	-13796
▁센터는	-13797
▁소방대	-13798
▁소방서	-13799
▁속으로	-13800
▁수반이	-13801
▁수행한	-13802
▁스카이	-13803
▁승객을	-13804
▁시기가	-13805
▁시대에	-13806
▁식사를	-13807
▁실수로	-13808
▁실험에	-13809
▁앨라배	-13810
▁앨범을	-13811
▁어디에	-13812
▁어렵게	-13813
▁억류된	-13814
▁여권을	-13815
▁여사의	-13816
▁여자아	-13817
▁열린다	-13818
▁왔으며	-13819
▁우주로	-13820
▁운행이	-13821
▁원조를	-13822
▁의견에	-13823
▁의원과	-13824
▁이동할	-13825
▁이소연	-13826
▁이어진	-13827
▁자신도	-13828
▁자유의	-13829
▁자이툰	-13830
▁작용할	-13831
▁장면은	-13832
▁저녁식	-13833
▁저희는	-13834
▁주변을	-13835
▁줄어든	-13836
▁증거는	-13837
▁지나친	-13838
▁지명에	-13839
▁지속된	-13840
▁지정된	-13841
▁지켜보	-13842
▁지키지	-13843
▁직면한	-13844
▁직면해	-13845
▁진출에	-13846
▁차지할	-13847
▁첼시는	-13848
▁추진할	-13849
▁취해야	-13850
▁친구인	-13851
▁하기도	-13852
▁합의된	-13853
▁해결책	-13854
▁행위로	-13855
▁향했다	-13856
▁허드슨	-13857
▁확신을	-13858
▁확실시	-13859
레스테롤	-13860
민주당은	-13861
아메리카	-13862
항공우주	-13863
했음에도	-13864
pport	-13865
▁1985	-13866
▁6000	-13867
▁LPGA	-13868
▁said	-13869
▁가했다고	-13870
▁강력하게	-13871
▁강화했다	-13872
▁결승전에	-13873
▁경고하고	-13874
▁경쟁에서	-13875
▁공항으로	-13876
▁관광객이	-13877
▁관광산업	-13878
▁구호품을	-13879
▁그린스펀	-13880
▁내비쳤다	-13881
▁내용이다	-13882
▁다국적군	-13883
▁답변했다	-13884
▁대량살상	-13885
▁대변인의	-13886
▁대한민국	-13887
▁도쿄에서	-13888
▁돌아가는	-13889
▁동물들이	-13890
▁동부에서	-13891
▁들어오는	-13892
▁러시아를	-13893
▁루마니아	-13894
▁리얼리티	-13895
▁마련했다	-13896
▁무크타다	-13897
▁무하메드	-13898
▁받았다는	-13899
▁발표하지	-13900
▁방콕에서	-13901
▁변호사를	-13902
▁보스니아	-13903
▁보였지만	-13904
▁불가능한	-13905
▁불과하다	-13906
▁불과했다	-13907
▁블룸버그	-13908
▁상징적인	-13909
▁서쪽으로	-13910
▁선관위는	-13911
▁선보였다	-13912
▁소지하고	-13913
▁수마트라	-13914
▁시민들의	-13915
▁시스템에	-13916
▁식품의약	-13917
▁신고했다	-13918
▁악화되고	-13919
▁어려움이	-13920
▁여겨지는	-13921
▁여러가지	-13922
▁여성에게	-13923
▁연결하는	-13924
▁움직이는	-13925
▁원인으로	-13926
▁의료보험	-13927
▁이끌었다	-13928
▁이루어질	-13929
▁이야기는	-13930
▁입장이다	-13931
▁자메이카	-13932
▁자살폭탄	-13933
▁전투기가	-13934
▁전해지고	-13935
▁정식으로	-13936
▁주도하고	-13937
▁줄리아니	-13938
▁중앙은행	-13939
▁증권거래	-13940
▁진행됐다	-13941
▁참가하는	-13942
▁컴퓨터와	-13943
▁콘크리트	-13944
▁클럽에서	-13945
▁탑승하고	-13946
▁태국에서	-13947
▁파업으로	-13948
▁파파라치	-13949
▁페일린은	-13950
▁한국전쟁	-13951
▁허용하는	-13952
▁환자들이	-13953
▁효과적인	-13954
▁희생자가	-13955
라운드에서	-13956
해리포터와	-13957
▁국경지역에	-13958
▁국제사회가	-13959
▁노동자들이	-13960
▁대선주자인	-13961
▁목격했다고	-13962
▁미국인들의	-13963
▁바이러스는	-13964
▁받아들였다	-13965
▁받았습니다	-13966
▁부상했으며	-13967
▁실종됐다고	-13968
▁아웅산수지	-13969
▁에드워즈는	-13970
▁여론조사를	-13971
▁연방수사국	-13972
▁오바마에게	-13973
▁요청했다고	-13974
▁이라크전을	-13975
▁콜레스테롤	-13976
▁파키스탄과	-13977
▁파키스탄은	-13978
▁프로그램과	-13979
▁프로젝트에	-13980
ization	-13981
▁보도했습니다	-13982
▁2007.12	-13983
▁관계자에따르면	-13984
▁인도네시아에서	-13985
▁남아프리카공화국	-13986
!”	-13987
%,	-13988
21	-13989
68	-13990
91	-13991
99	-13992
AT	-13993
DR	-13994
GB	-13995
NL	-13996
PL	-13997
ae	-13998
ef	-13999
ev	-14000
~4	-14001
▁곁	-14002
▁낡	-14003
▁딴	-14004
▁멘	-14005
▁솜	-14006
▁숭	-14007
▁왈	-14008
▁젠	-14009
▁짙	-14010
▁켐	-14011
▁틈	-14012
▁펴	-14013
▁훈	-14014
강을	-14015
고는	-14016
기념	-14017
낸셜	-14018
년은	-14019
델타	-14020
등의	-14021
레드	-14022
렬히	-14023
리즘	-14024
링턴	-14025
막을	-14026
모어	-14027
몬드	-14028
물과	-14029
바의	-14030
반응	-14031
받게	-14032
방한	-14033
배에	-14034
버는	-14035
벌리	-14036
보이	-14037
셀러	-14038
슬로	-14039
시께	-14040
시미	-14041
시픽	-14042
아무	-14043
애를	-14044
액을	-14045
여명	-14046
오밍	-14047
워즈	-14048
이익	-14049
작가	-14050
잡이	-14051
전시	-14052
전한	-14053
점의	-14054
제작	-14055
조가	-14056
중독	-14057
중력	-14058
중을	-14059
지오	-14060
측과	-14061
카라	-14062
카이	-14063
코트	-14064
쿠버	-14065
퀘어	-14066
크레	-14067
투스	-14068
트만	-14069
폰테	-14070
피는	-14071
해준	-14072
헤란	-14073
협상	-14074
FTA	-14075
leg	-14076
tim	-14077
ues	-14078
▁Fr	-14079
▁가금	-14080
▁가두	-14081
▁개념	-14082
▁객실	-14083
▁건의	-14084
▁극장	-14085
▁극히	-14086
▁나르	-14087
▁납부	-14088
▁내야	-14089
▁다룰	-14090
▁다툼	-14091
▁단축	-14092
▁달할	-14093
▁당장	-14094
▁당첨	-14095
▁데비	-14096
▁라자	-14097
▁로열	-14098
▁롱고	-14099
▁마텔	-14100
▁맞출	-14101
▁먹을	-14102
▁명명	-14103
▁모자	-14104
▁목에	-14105
▁몬테	-14106
▁몰디	-14107
▁무관	-14108
▁무서	-14109
▁미치	-14110
▁발송	-14111
▁법에	-14112
▁병역	-14113
▁보르	-14114
▁보행	-14115
▁본래	-14116
▁부당	-14117
▁부수	-14118
▁비로	-14119
▁빈번	-14120
▁상속	-14121
▁서류	-14122
▁서열	-14123
▁선동	-14124
▁성전	-14125
▁수습	-14126
▁스틸	-14127
▁시범	-14128
▁신생	-14129
▁신종	-14130
▁십대	-14131
▁안심	-14132
▁약품	-14133
▁언색	-14134
▁에바	-14135
▁역을	-14136
▁영부	-14137
▁예일	-14138
▁온건	-14139
▁온천	-14140
▁옮기	-14141
▁육성	-14142
▁이반	-14143
▁인천	-14144
▁일기	-14145
▁일대	-14146
▁일삼	-14147
▁잊지	-14148
▁자위	-14149
▁잡스	-14150
▁장군	-14151
▁전세	-14152
▁전의	-14153
▁제라	-14154
▁제보	-14155
▁제어	-14156
▁진공	-14157
▁진원	-14158
▁채로	-14159
▁초콜	-14160
▁키우	-14161
▁탑재	-14162
▁토지	-14163
▁투항	-14164
▁팀은	-14165
▁팔을	-14166
▁퍼져	-14167
▁편의	-14168
▁푸켓	-14169
▁해명	-14170
▁해협	-14171
▁현수	-14172
▁황박	-14173
▁휴일	-14174
감으로	-14175
대서양	-14176
렸으나	-14177
로서의	-14178
리면서	-14179
법으로	-14180
부들이	-14181
스트리	-14182
시장의	-14183
자들도	-14184
주었다	-14185
하기가	-14186
협회는	-14187
(21)	-14188
(27)	-14189
ange	-14190
arth	-14191
cess	-14192
head	-14193
ious	-14194
reet	-14195
umer	-14196
▁...	-14197
▁2~3	-14198
▁42%	-14199
▁450	-14200
▁Lee	-14201
▁MDC	-14202
▁Med	-14203
▁one	-14204
▁sum	-14205
▁가방을	-14206
▁가볍게	-14207
▁가이드	-14208
▁거두며	-14209
▁게임에	-14210
▁결정된	-14211
▁경기후	-14212
▁경로를	-14213
▁경보가	-14214
▁경우를	-14215
▁계획과	-14216
▁고어는	-14217
▁관여한	-14218
▁구조를	-14219
▁궤도를	-14220
▁균형을	-14221
▁그룹은	-14222
▁급상승	-14223
▁기리기	-14224
▁기업에	-14225
▁기자를	-14226
▁기존의	-14227
▁꾸준히	-14228
▁남겼다	-14229
▁내리지	-14230
▁논평을	-14231
▁놓았다	-14232
▁능력이	-14233
▁니스텔	-14234
▁대단히	-14235
▁대신해	-14236
▁대출을	-14237
▁대표와	-14238
▁도전을	-14239
▁도착해	-14240
▁독일은	-14241
▁돈세탁	-14242
▁되어야	-14243
▁따뜻한	-14244
▁뜨거운	-14245
▁라일라	-14246
▁로맨틱	-14247
▁리더십	-14248
▁마련된	-14249
▁만나고	-14250
▁말하지	-14251
▁몬타나	-14252
▁못하다	-14253
▁물러난	-14254
▁미국내	-14255
▁미하일	-14256
▁바스크	-14257
▁방안에	-14258
▁벌이던	-14259
▁병원의	-14260
▁보낸다	-14261
▁부모의	-14262
▁부상은	-14263
▁부시가	-14264
▁부시와	-14265
▁부정부	-14266
▁분명한	-14267
▁불길이	-14268
▁비정부	-14269
▁비틀즈	-14270
▁빙하가	-14271
▁사랑을	-14272
▁선박에	-14273
▁선수는	-14274
▁성적을	-14275
▁소니는	-14276
▁손해배	-14277
▁솔로몬	-14278
▁수익이	-14279
▁슈나이	-14280
▁시점에	-14281
▁신행정	-14282
▁심슨은	-14283
▁아내가	-14284
▁아놀드	-14285
▁아직은	-14286
▁안타깝	-14287
▁애플은	-14288
▁엄마가	-14289
▁역사의	-14290
▁역할에	-14291
▁열리고	-14292
▁열차는	-14293
▁오르는	-14294
▁요인이	-14295
▁운영을	-14296
▁운전사	-14297
▁위성을	-14298
▁이른다	-14299
▁이틀째	-14300
▁일정에	-14301
▁자금은	-14302
▁자사의	-14303
▁작전이	-14304
▁장례식	-14305
▁저자인	-14306
▁전문의	-14307
▁전에도	-14308
▁전통을	-14309
▁접어들	-14310
▁정보에	-14311
▁정부청	-14312
▁주유소	-14313
▁중단된	-14314
▁증가로	-14315
▁지구를	-14316
▁지난밤	-14317
▁지불할	-14318
▁지시를	-14319
▁지중해	-14320
▁차량의	-14321
▁찬사를	-14322
▁처음에	-14323
▁철수할	-14324
▁체제를	-14325
▁총으로	-14326
▁취임식	-14327
▁커피를	-14328
▁크기가	-14329
▁크리켓	-14330
▁통과할	-14331
▁투쟁을	-14332
▁파업은	-14333
▁파티를	-14334
▁페인트	-14335
▁폭동이	-14336
▁표한다	-14337
▁프라임	-14338
▁하에서	-14339
▁한번도	-14340
▁해준다	-14341
▁화재는	-14342
▁확산을	-14343
▁회장과	-14344
▁휴식을	-14345
그로폰테	-14346
리스트인	-14347
블로이드	-14348
시간으로	-14349
한나라당	-14350
▁1975	-14351
▁Cons	-14352
▁FIFA	-14353
▁down	-14354
▁into	-14355
▁가졌다고	-14356
▁가족들을	-14357
▁결의안이	-14358
▁고조되고	-14359
▁공격하기	-14360
▁국제사면	-14361
▁그렇다면	-14362
▁기념하는	-14363
▁나오면서	-14364
▁내다봤다	-14365
▁노력했다	-14366
▁높아졌다	-14367
▁뉴욕상업	-14368
▁다큐멘터	-14369
▁당선자가	-14370
▁돌아갔다	-14371
▁돌입했다	-14372
▁롱고리아	-14373
▁마련하기	-14374
▁말했었다	-14375
▁무너졌다	-14376
▁미국인의	-14377
▁미얀마에	-14378
▁발생하자	-14379
▁발언으로	-14380
▁방침이다	-14381
▁법무장관	-14382
▁베이징에	-14383
▁분명하다	-14384
▁분석가는	-14385
▁불법적인	-14386
▁비행기는	-14387
▁사람으로	-14388
▁사령관이	-14389
▁사무총장	-14390
▁사실이다	-14391
▁산타클로	-14392
▁살아있는	-14393
▁삼성그룹	-14394
▁서식하는	-14395
▁선거캠프	-14396
▁수행하는	-14397
▁시위대에	-14398
▁신속하게	-14399
▁싶어하는	-14400
▁아이디어	-14401
▁안보리의	-14402
▁어머니인	-14403
▁에너지를	-14404
▁여객기에	-14405
▁여겨지고	-14406
▁여성으로	-14407
▁오케스트	-14408
▁요하네스	-14409
▁용의자인	-14410
▁우주에서	-14411
▁위원회가	-14412
▁은신처를	-14413
▁이송됐다	-14414
▁있겠지만	-14415
▁장기적인	-14416
▁중태라고	-14417
▁직원들을	-14418
▁진행하는	-14419
▁총격전을	-14420
▁총기난사	-14421
▁컴퓨터에	-14422
▁탈레반에	-14423
▁텔레비전	-14424
▁피라미드	-14425
▁하원에서	-14426
▁한국으로	-14427
▁한반도에	-14428
▁항공기가	-14429
▁해결하는	-14430
▁헬리콥터	-14431
▁확실하다	-14432
ustral	-14433
▁가자지구의	-14434
▁결과에따라	-14435
▁골든글로브	-14436
▁기록했으며	-14437
▁노대통령의	-14438
▁떨어졌다고	-14439
▁리히터규모	-14440
▁바르셀로나	-14441
▁발견됐으며	-14442
▁발표하면서	-14443
▁상대적으로	-14444
▁선거캠프는	-14445
▁아파트에서	-14446
▁여론조사는	-14447
▁예상된다고	-14448
▁올림픽에서	-14449
▁인터넷에서	-14450
▁일시적으로	-14451
▁자발적으로	-14452
▁전문가들의	-14453
▁전통적으로	-14454
▁주식시장이	-14455
▁주차장에서	-14456
▁중앙일보가	-14457
▁하원의장은	-14458
▁한국인들은	-14459
▁현지경찰이	-14460
▁홈페이지에	-14461
▁희생자들의	-14462
eration	-14463
▁로드리게스는	-14464
▁이라크에서의	-14465
▁크라이슬러는	-14466
▁프라이머리를	-14467
▁2006.02	-14468
▁America	-14469
▁England	-14470
▁election	-14471
ministration	-14472
▁Association	-14473
.’	-14474
64	-14475
:0	-14476
AE	-14477
AI	-14478
GO	-14479
RI	-14480
Th	-14481
aj	-14482
be	-14483
ne	-14484
oe	-14485
oh	-14486
”,	-14487
▁낫	-14488
▁놔	-14489
▁샀	-14490
▁샬	-14491
▁션	-14492
▁첸	-14493
▁췌	-14494
▁퀴	-14495
가자	-14496
강산	-14497
개는	-14498
건물	-14499
건희	-14500
경색	-14501
경의	-14502
과이	-14503
귀한	-14504
꺼이	-14505
끼를	-14506
나드	-14507
나르	-14508
대출	-14509
레오	-14510
리학	-14511
모델	-14512
문서	-14513
방의	-14514
변에	-14515
보나	-14516
봐야	-14517
브스	-14518
수퍼	-14519
악의	-14520
없다	-14521
에트	-14522
외교	-14523
운영	-14524
원도	-14525
자키	-14526
전과	-14527
제한	-14528
지요	-14529
차에	-14530
타스	-14531
투자	-14532
튼을	-14533
파에	-14534
팍스	-14535
판매	-14536
펀드	-14537
폴로	-14538
함에	-14539
합을	-14540
햄은	-14541
황을	-14542
ASH	-14543
MEX	-14544
TON	-14545
als	-14546
ich	-14547
ned	-14548
ony	-14549
ows	-14550
urm	-14551
▁97	-14552
▁Al	-14553
▁Wh	-14554
▁fl	-14555
▁op	-14556
▁se	-14557
▁각기	-14558
▁간접	-14559
▁강아	-14560
▁개조	-14561
▁갱신	-14562
▁경유	-14563
▁경주	-14564
▁곡물	-14565
▁공표	-14566
▁굉장	-14567
▁구급	-14568
▁기름	-14569
▁난폭	-14570
▁낡은	-14571
▁남측	-14572
▁납북	-14573
▁내달	-14574
▁넬슨	-14575
▁녹화	-14576
▁놀랍	-14577
▁단기	-14578
▁대공	-14579
▁대원	-14580
▁더블	-14581
▁데는	-14582
▁동해	-14583
▁동행	-14584
▁들며	-14585
▁등급	-14586
▁레노	-14587
▁레저	-14588
▁리사	-14589
▁린다	-14590
▁맞춘	-14591
▁매트	-14592
▁메가	-14593
▁면허	-14594
▁모토	-14595
▁물려	-14596
▁반짝	-14597
▁발의	-14598
▁방코	-14599
▁배달	-14600
▁법의	-14601
▁보트	-14602
▁본거	-14603
▁볼드	-14604
▁분양	-14605
▁불거	-14606
▁사로	-14607
▁사촌	-14608
▁살펴	-14609
▁상무	-14610
▁상세	-14611
▁세기	-14612
▁세라	-14613
▁순회	-14614
▁스필	-14615
▁쓰지	-14616
▁아로	-14617
▁아리	-14618
▁아유	-14619
▁알카	-14620
▁양은	-14621
▁여덟	-14622
▁연맹	-14623
▁연상	-14624
▁예금	-14625
▁예외	-14626
▁완수	-14627
▁왕궁	-14628
▁외신	-14629
▁외출	-14630
▁우익	-14631
▁운이	-14632
▁울머	-14633
▁유언	-14634
▁은폐	-14635
▁이성	-14636
▁인적	-14637
▁있길	-14638
▁자고	-14639
▁자란	-14640
▁장성	-14641
▁재단	-14642
▁재차	-14643
▁전념	-14644
▁점은	-14645
▁접경	-14646
▁정글	-14647
▁정비	-14648
▁졌다	-14649
▁조세	-14650
▁조차	-14651
▁졸릭	-14652
▁종양	-14653
▁주력	-14654
▁진료	-14655
▁쫓아	-14656
▁차고	-14657
▁첫째	-14658
▁청중	-14659
▁출간	-14660
▁치르	-14661
▁카림	-14662
▁탄약	-14663
▁탄원	-14664
▁파고	-14665
▁판명	-14666
▁팔려	-14667
▁패널	-14668
▁평방	-14669
▁포옹	-14670
▁풍자	-14671
▁하비	-14672
▁행방	-14673
▁행해	-14674
▁향년	-14675
▁혼다	-14676
▁화폐	-14677
▁후속	-14678
▁후안	-14679
▁흡수	-14680
개월이	-14681
나갔다	-14682
내셔널	-14683
년대에	-14684
다니는	-14685
되기를	-14686
라인을	-14687
렌스탐	-14688
바이를	-14689
분기에	-14690
살짜리	-14691
상황이	-14692
시부터	-14693
시한을	-14694
야당인	-14695
억원의	-14696
업체가	-14697
위기가	-14698
이기도	-14699
일러는	-14700
지원을	-14701
측에서	-14702
카메라	-14703
탕카멘	-14704
티베트	-14705
하지도	-14706
(24)	-14707
6-3)	-14708
9000	-14709
ould	-14710
riti	-14711
tain	-14712
▁112	-14713
▁220	-14714
▁Cor	-14715
▁Int	-14716
▁Tim	-14717
▁inc	-14718
▁may	-14719
▁par	-14720
▁ref	-14721
▁reg	-14722
▁가동을	-14723
▁가라앉	-14724
▁가석방	-14725
▁가슴에	-14726
▁가이트	-14727
▁가졌던	-14728
▁감독과	-14729
▁감추지	-14730
▁감축할	-14731
▁강세를	-14732
▁걸리는	-14733
▁것과는	-14734
▁공격해	-14735
▁교황의	-14736
▁구성할	-14737
▁구입한	-14738
▁국가와	-14739
▁군정은	-14740
▁군정이	-14741
▁궤도에	-14742
▁근처의	-14743
▁기금을	-14744
▁기다려	-14745
▁깃발을	-14746
▁나라는	-14747
▁남았다	-14748
▁내년에	-14749
▁내부의	-14750
▁노선을	-14751
▁노조가	-14752
▁다루는	-14753
▁대선이	-14754
▁대응할	-14755
▁대표단	-14756
▁독일과	-14757
▁동생인	-14758
▁떨어뜨	-14759
▁똑같은	-14760
▁라스무	-14761
▁레드삭	-14762
▁로한이	-14763
▁마누엘	-14764
▁마시는	-14765
▁마찰을	-14766
▁만나기	-14767
▁맺었다	-14768
▁먹이를	-14769
▁메르세	-14770
▁모바일	-14771
▁모하메	-14772
▁무너뜨	-14773
▁무너지	-14774
▁무료로	-14775
▁물질이	-14776
▁물품을	-14777
▁바다에	-14778
▁바람에	-14779
▁발언이	-14780
▁방송국	-14781
▁배우인	-14782
▁버렸다	-14783
▁버스에	-14784
▁변화는	-14785
▁보리스	-14786
▁부분에	-14787
▁부유한	-14788
▁북측의	-14789
▁불안정	-14790
▁비용은	-14791
▁빈라덴	-14792
▁사망에	-14793
▁사항이	-14794
▁산업의	-14795
▁살았던	-14796
▁삼았다	-14797
▁삼엄한	-14798
▁상반기	-14799
▁생각할	-14800
▁생겼다	-14801
▁서명한	-14802
▁석유를	-14803
▁선박을	-14804
▁선생님	-14805
▁선정된	-14806
▁선택을	-14807
▁선포한	-14808
▁설치한	-14809
▁성장이	-14810
▁소녀의	-14811
▁소문이	-14812
▁소아과	-14813
▁수비수	-14814
▁수색을	-14815
▁수준에	-14816
▁수치가	-14817
▁스콜세	-14818
▁시민이	-14819
▁식이요	-14820
▁신부는	-14821
▁아들과	-14822
▁아이만	-14823
▁아이팟	-14824
▁애플의	-14825
▁약물을	-14826
▁언론을	-14827
▁없었고	-14828
▁연관이	-14829
▁와중에	-14830
▁외국의	-14831
▁요구해	-14832
▁우려해	-14833
▁의사와	-14834
▁이득을	-14835
▁이었다	-14836
▁이행할	-14837
▁인디언	-14838
▁임무에	-14839
▁장소에	-14840
▁장애가	-14841
▁적당한	-14842
▁전략적	-14843
▁전투가	-14844
▁점이다	-14845
▁정말로	-14846
▁정책의	-14847
▁제목의	-14848
▁제시할	-14849
▁조직은	-14850
▁주머니	-14851
▁지내고	-14852
▁지방에	-14853
▁지진의	-14854
▁징역형	-14855
▁착륙을	-14856
▁참석을	-14857
▁초부터	-14858
▁친구와	-14859
▁케냐의	-14860
▁코스타	-14861
▁클라우	-14862
▁텔레콤	-14863
▁통화를	-14864
▁파괴된	-14865
▁폐쇄할	-14866
▁폭격을	-14867
▁필리스	-14868
▁하는지	-14869
▁한국계	-14870
▁혐의와	-14871
▁혼란이	-14872
▁확보에	-14873
▁회의는	-14874
▁후쿠다	-14875
▁힌두교	-14876
되었으나	-14877
무샤라프	-14878
법원에서	-14879
하겠지만	-14880
하였다고	-14881
회견에서	-14882
andid	-14883
gency	-14884
inanc	-14885
▁1953	-14886
▁meet	-14887
▁가로질러	-14888
▁가졌으며	-14889
▁갑작스런	-14890
▁게이츠는	-14891
▁격돌한다	-14892
▁결정하기	-14893
▁경찰관이	-14894
▁경찰에게	-14895
▁고양이가	-14896
▁곳곳에서	-14897
▁구스마오	-14898
▁구호단체	-14899
▁국가들과	-14900
▁그루지야	-14901
▁기업들은	-14902
▁기업들의	-14903
▁끌어들이	-14904
▁나스닥은	-14905
▁나타나는	-14906
▁당신에게	-14907
▁대표들이	-14908
▁돌아오는	-14909
▁동영상에	-14910
▁드레스를	-14911
▁루아얄은	-14912
▁매들린의	-14913
▁모른다는	-14914
▁무엇인지	-14915
▁미국인이	-14916
▁발생한다	-14917
▁방문하고	-14918
▁버시바우	-14919
▁베탕쿠르	-14920
▁보고되지	-14921
▁부모들이	-14922
▁분석가인	-14923
▁비핵화를	-14924
▁사생활을	-14925
▁살해하고	-14926
▁생각했던	-14927
▁생산량을	-14928
▁서비스가	-14929
▁성공적인	-14930
▁세계무역	-14931
▁소속으로	-14932
▁수단으로	-14933
▁스스로를	-14934
▁시민들을	-14935
▁시사했다	-14936
▁시작했고	-14937
▁실종됐다	-14938
▁안젤리나	-14939
▁압도적인	-14940
▁양국간의	-14941
▁여객기의	-14942
▁올해들어	-14943
▁외곽에서	-14944
▁요원들이	-14945
▁우려하는	-14946
▁우승자인	-14947
▁원한다면	-14948
▁유네스코	-14949
▁의미하는	-14950
▁의존하고	-14951
▁이야기가	-14952
▁이후에도	-14953
▁일이었다	-14954
▁입원했다	-14955
▁자유로운	-14956
▁재무부는	-14957
▁전투에서	-14958
▁정권인수	-14959
▁정보통신	-14960
▁제공하기	-14961
▁조사하는	-14962
▁지구온난	-14963
▁지도자의	-14964
▁지켜보는	-14965
▁집회에서	-14966
▁최루탄을	-14967
▁코네티컷	-14968
▁테네시주	-14969
▁텍사스와	-14970
▁토로했다	-14971
▁폐쇄했다	-14972
▁포기했다	-14973
▁포틀랜드	-14974
▁하마스를	-14975
▁하마스와	-14976
▁한반도의	-14977
▁행정부에	-14978
▁현지에서	-14979
▁환영한다	-14980
▁후임으로	-14981
vestig	-14982
▁State	-14983
▁death	-14984
▁offic	-14985
▁soldi	-14986
▁교착상태에	-14987
▁나타났다고	-14988
▁다이애나가	-14989
▁당국자들은	-14990
▁라우터바흐	-14991
▁무장세력을	-14992
▁베를린에서	-14993
▁보고서에는	-14994
▁브로드웨이	-14995
▁비평가들은	-14996
▁사망자수는	-14997
▁수용소에서	-14998
▁승무원들은	-14999
▁시작됐으며	-15000
▁시작했으며	-15001
▁아니었다고	-15002
▁알카에다는	-15003
▁와지리스탄	-15004
▁직접적으로	-15005
▁추정된다고	-15006
▁코커스에서	-15007
▁플로리다에	-15008
▁플로리다의	-15009
2007.12	-15010
2008.12	-15011
▁달라이라마가	-15012
▁마이스페이스	-15013
▁푸에르토리코	-15014
inancial	-15015
▁국가비상사태를	-15016
▁소식통에따르면	-15017
▁Pakistan	-15018
-8	-15019
35	-15020
53	-15021
93	-15022
An	-15023
RA	-15024
UC	-15025
▁둥	-15026
▁띠	-15027
▁랩	-15028
▁럭	-15029
▁롭	-15030
▁맑	-15031
▁멍	-15032
▁뭔	-15033
▁봅	-15034
▁셔	-15035
▁싼	-15036
▁잦	-15037
▁째	-15038
▁킴	-15039
가며	-15040
결국	-15041
계와	-15042
고등	-15043
교회	-15044
구는	-15045
구로	-15046
구역	-15047
균형	-15048
그레	-15049
그만	-15050
기서	-15051
나갈	-15052
나왓	-15053
넷소	-15054
들만	-15055
디다	-15056
라니	-15057
려져	-15058
류는	-15059
망에	-15060
바닥	-15061
바를	-15062
바에	-15063
버린	-15064
벌을	-15065
베키	-15066
별로	-15067
비안	-15068
비츠	-15069
사망	-15070
시내	-15071
신고	-15072
아마	-15073
어에	-15074
오를	-15075
와르	-15076
위성	-15077
인하	-15078
자녀	-15079
자산	-15080
저우	-15081
적일	-15082
전투	-15083
질의	-15084
천옹	-15085
추가	-15086
취를	-15087
코가	-15088
탄이	-15089
토록	-15090
토프	-15091
통은	-15092
투어	-15093
티노	-15094
팀에	-15095
팅을	-15096
편은	-15097
평을	-15098
폭풍	-15099
표로	-15100
플로	-15101
함과	-15102
혈을	-15103
호프	-15104
(30	-15105
-16	-15106
.15	-15107
/11	-15108
ANU	-15109
ale	-15110
ars	-15111
▁09	-15112
▁4,	-15113
▁84	-15114
▁94	-15115
▁As	-15116
▁BO	-15117
▁FC	-15118
▁PA	-15119
▁Pe	-15120
▁SA	-15121
▁가혹	-15122
▁갖춰	-15123
▁거센	-15124
▁걸음	-15125
▁견해	-15126
▁공범	-15127
▁광대	-15128
▁괴롭	-15129
▁구분	-15130
▁구상	-15131
▁구해	-15132
▁귀를	-15133
▁나체	-15134
▁날카	-15135
▁낮게	-15136
▁낳은	-15137
▁넣고	-15138
▁노숙	-15139
▁눈보	-15140
▁능력	-15141
▁다카	-15142
▁단언	-15143
▁당이	-15144
▁더미	-15145
▁도피	-15146
▁돌며	-15147
▁되살	-15148
▁될지	-15149
▁든다	-15150
▁땅콩	-15151
▁때에	-15152
▁라마	-15153
▁로보	-15154
▁루디	-15155
▁루시	-15156
▁리스	-15157
▁만회	-15158
▁말도	-15159
▁맞교	-15160
▁맞설	-15161
▁맞지	-15162
▁목을	-15163
▁무의	-15164
▁물라	-15165
▁미수	-15166
▁바랍	-15167
▁바랬	-15168
▁바비	-15169
▁바시	-15170
▁발명	-15171
▁밤을	-15172
▁방식	-15173
▁봉인	-15174
▁봉착	-15175
▁부착	-15176
▁불명	-15177
▁불행	-15178
▁비방	-15179
▁사마	-15180
▁사모	-15181
▁섬유	-15182
▁성지	-15183
▁쇼를	-15184
▁스릴	-15185
▁시몬	-15186
▁시트	-15187
▁식물	-15188
▁싣고	-15189
▁씨를	-15190
▁악의	-15191
▁암시	-15192
▁에르	-15193
▁외딴	-15194
▁위헌	-15195
▁인준	-15196
▁일환	-15197
▁잃게	-15198
▁자수	-15199
▁자진	-15200
▁잘라	-15201
▁재해	-15202
▁적지	-15203
▁점에	-15204
▁제퍼	-15205
▁조립	-15206
▁죄를	-15207
▁주권	-15208
▁주어	-15209
▁지식	-15210
▁진도	-15211
▁진열	-15212
▁처분	-15213
▁철거	-15214
▁청색	-15215
▁출범	-15216
▁쿠르	-15217
▁쿼터	-15218
▁토드	-15219
▁투여	-15220
▁투옥	-15221
▁투하	-15222
▁트루	-15223
▁파커	-15224
▁팔아	-15225
▁퍼뜨	-15226
▁평결	-15227
▁포도	-15228
▁표기	-15229
▁풍력	-15230
▁하위	-15231
▁하퍼	-15232
▁현직	-15233
▁혐오	-15234
▁호의	-15235
▁훔쳐	-15236
검사를	-15237
계선을	-15238
관계에	-15239
국가의	-15240
달러가	-15241
리라고	-15242
만에서	-15243
방안을	-15244
보나레	-15245
부장은	-15246
브리지	-15247
사건과	-15248
사건의	-15249
소시엄	-15250
스럽고	-15251
시리아	-15252
안에는	-15253
었었다	-15254
여부를	-15255
왔다는	-15256
월에서	-15257
이치로	-15258
자에서	-15259
정책에	-15260
지역은	-15261
차관은	-15262
케이션	-15263
테이프	-15264
포스트	-15265
하였고	-15266
하우스	-15267
하자고	-15268
화하고	-15269
회사를	-15270
회사에	-15271
(29)	-15272
.25%	-15273
6-2)	-15274
Kore	-15275
ines	-15276
laim	-15277
ones	-15278
ounc	-15279
▁2.5	-15280
▁2/3	-15281
▁360	-15282
▁51%	-15283
▁Pol	-15284
▁UFO	-15285
▁WFP	-15286
▁WTO	-15287
▁ann	-15288
▁cap	-15289
▁leg	-15290
▁ter	-15291
▁가하는	-15292
▁감행한	-15293
▁강화된	-15294
▁개인의	-15295
▁거리가	-15296
▁거슬러	-15297
▁검토할	-15298
▁게임은	-15299
▁격차가	-15300
▁격차를	-15301
▁결심을	-15302
▁경쟁이	-15303
▁공연은	-15304
▁과학적	-15305
▁관계로	-15306
▁교수의	-15307
▁권한이	-15308
▁극심한	-15309
▁기꺼이	-15310
▁기준에	-15311
▁길이의	-15312
▁김경준	-15313
▁깨끗한	-15314
▁나타내	-15315
▁남자와	-15316
▁내각을	-15317
▁내놓은	-15318
▁놀라게	-15319
▁누구든	-15320
▁당선된	-15321
▁당신을	-15322
▁당하는	-15323
▁대령은	-15324
▁대화가	-15325
▁동북아	-15326
▁돼있다	-15327
▁두려움	-15328
▁등록된	-15329
▁디에고	-15330
▁떠나지	-15331
▁마리화	-15332
▁많았다	-15333
▁망명을	-15334
▁매카트	-15335
▁메디컬	-15336
▁면밀히	-15337
▁명단을	-15338
▁목록을	-15339
▁몰려들	-15340
▁몰아넣	-15341
▁무기와	-15342
▁무중력	-15343
▁미소를	-15344
▁바이든	-15345
▁반대의	-15346
▁반응이	-15347
▁발견해	-15348
▁방송사	-15349
▁변호인	-15350
▁분야의	-15351
▁비공개	-15352
▁비난이	-15353
▁사기를	-15354
▁사진기	-15355
▁상세한	-15356
▁서울대	-15357
▁선고를	-15358
▁설립된	-15359
▁성화를	-15360
▁세계가	-15361
▁세포를	-15362
▁소녀는	-15363
▁손상된	-15364
▁수단이	-15365
▁수반과	-15366
▁순간에	-15367
▁스타가	-15368
▁승객과	-15369
▁시험을	-15370
▁식량과	-15371
▁신천옹	-15372
▁실었다	-15373
▁쓰러져	-15374
▁아라파	-15375
▁안락사	-15376
▁알자지	-15377
▁암스테	-15378
▁언급도	-15379
▁얼굴에	-15380
▁얼어붙	-15381
▁없도록	-15382
▁여당이	-15383
▁염두에	-15384
▁예상한	-15385
▁예수의	-15386
▁예언자	-15387
▁올랜도	-15388
▁용납할	-15389
▁우비넨	-15390
▁운항을	-15391
▁운항이	-15392
▁웃으며	-15393
▁윌리암	-15394
▁유람선	-15395
▁유럽에	-15396
▁음와이	-15397
▁의장의	-15398
▁의혹이	-15399
▁이르게	-15400
▁이상은	-15401
▁이전의	-15402
▁인도는	-15403
▁입장에	-15404
▁있을까	-15405
▁작성된	-15406
▁잘못을	-15407
▁잠재적	-15408
▁장식된	-15409
▁전당대	-15410
▁전통적	-15411
▁절반이	-15412
▁제한을	-15413
▁조약을	-15414
▁좋았다	-15415
▁주변의	-15416
▁지배를	-15417
▁지수도	-15418
▁찍었다	-15419
▁총리도	-15420
▁추락해	-15421
▁출마를	-15422
▁충돌한	-15423
▁치료에	-15424
▁친구를	-15425
▁카르발	-15426
▁카이로	-15427
▁커플은	-15428
▁코카인	-15429
▁클레멘	-15430
▁타이거	-15431
▁태어나	-15432
▁테이블	-15433
▁테헤란	-15434
▁통신에	-15435
▁통제를	-15436
▁통증을	-15437
▁트럭이	-15438
▁파도가	-15439
▁파손된	-15440
▁파업이	-15441
▁판매가	-15442
▁팬들의	-15443
▁포드는	-15444
▁폭풍이	-15445
▁프로디	-15446
▁프리츨	-15447
▁피고인	-15448
▁하나다	-15449
▁함유된	-15450
▁해결될	-15451
▁해리왕	-15452
▁해외로	-15453
▁해제를	-15454
▁화해를	-15455
▁휴전을	-15456
났습니다	-15457
대통령의	-15458
스타인은	-15459
인이었다	-15460
하였으나	-15461
함으로서	-15462
earch	-15463
ivers	-15464
ology	-15465
secut	-15466
tical	-15467
ystem	-15468
▁1400	-15469
▁1965	-15470
▁2050	-15471
▁News	-15472
▁WASH	-15473
▁가르시아	-15474
▁가정에서	-15475
▁강화하는	-15476
▁것인지는	-15477
▁결정하지	-15478
▁고객들이	-15479
▁고마움을	-15480
▁공화당은	-15481
▁관계자와	-15482
▁국민투표	-15483
▁근본적인	-15484
▁기후변화	-15485
▁나왔다고	-15486
▁나타나지	-15487
▁뉴저지주	-15488
▁늘어나고	-15489
▁달한다고	-15490
▁당선자의	-15491
▁대사관이	-15492
▁동물보호	-15493
▁레바논의	-15494
▁리버풀은	-15495
▁말했으나	-15496
▁매니저인	-15497
▁메시지가	-15498
▁못한다고	-15499
▁못했으며	-15500
▁발생하기	-15501
▁백악관을	-15502
▁부통령의	-15503
▁사형집행	-15504
▁상승하며	-15505
▁소렌스탐	-15506
▁수감됐다	-15507
▁수준이다	-15508
▁수퍼대의	-15509
▁수행했다	-15510
▁슈퍼대의	-15511
▁승객들은	-15512
▁시도했다	-15513
▁시리아와	-15514
▁시민권을	-15515
▁시작하기	-15516
▁신용경색	-15517
▁신중하게	-15518
▁실시됐다	-15519
▁앞서있다	-15520
▁어렵다고	-15521
▁억류되어	-15522
▁억만장자	-15523
▁없었으며	-15524
▁여성들의	-15525
▁연구하고	-15526
▁연구하는	-15527
▁연기됐다	-15528
▁연말까지	-15529
▁영향으로	-15530
▁위원회에	-15531
▁위험성을	-15532
▁유엔사무	-15533
▁의원들과	-15534
▁이뤄져야	-15535
▁이뤄지고	-15536
▁이전에는	-15537
▁이혼했다	-15538
▁인권단체	-15539
▁인정하는	-15540
▁인질들은	-15541
▁인터폴은	-15542
▁일요일에	-15543
▁일주일에	-15544
▁있는지에	-15545
▁있었는지	-15546
▁있음에도	-15547
▁자본주의	-15548
▁자전거를	-15549
▁재미있는	-15550
▁저질렀다	-15551
▁전까지는	-15552
▁제공한다	-15553
▁조사결과	-15554
▁조종사가	-15555
▁주문했다	-15556
▁주인공인	-15557
▁중국으로	-15558
▁지지했다	-15559
▁직원들의	-15560
▁진지하게	-15561
▁촉구하고	-15562
▁취소됐다	-15563
▁쿠즈넷소	-15564
▁태어났다	-15565
▁통신과의	-15566
▁트로피를	-15567
▁특파원은	-15568
▁파견했다	-15569
▁파예드의	-15570
▁함부르크	-15571
▁합법적인	-15572
▁항의했다	-15573
▁확신하고	-15574
▁획득했다	-15575
폴리스에서	-15576
INGTON	-15577
▁about	-15578
▁peace	-15579
▁start	-15580
▁가능하다고	-15581
▁경기장에서	-15582
▁그랜드슬램	-15583
▁긍정적으로	-15584
▁기준금리를	-15585
▁네그로폰테	-15586
▁뉴올리언스	-15587
▁미얀마에서	-15588
▁민간인들을	-15589
▁바스라에서	-15590
▁베스트셀러	-15591
▁본격적으로	-15592
▁이라크군이	-15593
▁자르다리는	-15594
▁젊은이들이	-15595
▁지시했다고	-15596
▁체포됐으며	-15597
▁추가적으로	-15598
▁타블로이드	-15599
▁평론가들은	-15600
▁합법적으로	-15601
2006.05	-15602
2008.09	-15603
▁resign	-15604
▁떨어졌습니다	-15605
▁매사추세츠주	-15606
▁어린이들에게	-15607
▁인도네시아는	-15608
▁주장했습니다	-15609
▁핵프로그램을	-15610
▁investig	-15611
▁WASHINGTON	-15612
6%	-15613
CD	-15614
EF	-15615
MI	-15616
TC	-15617
mp	-15618
uk	-15619
▁몫	-15620
▁뻔	-15621
▁뻗	-15622
▁씻	-15623
▁찔	-15624
▁퓨	-15625
▁핫	-15626
개와	-15627
골에	-15628
권과	-15629
그렇	-15630
기증	-15631
니오	-15632
다피	-15633
당할	-15634
대인	-15635
데자	-15636
든지	-15637
때로	-15638
라브	-15639
라트	-15640
럴드	-15641
럽게	-15642
레티	-15643
로그	-15644
루즈	-15645
르담	-15646
릭스	-15647
마저	-15648
마지	-15649
매설	-15650
먼의	-15651
면허	-15652
목이	-15653
묘한	-15654
바인	-15655
박물	-15656
배럴	-15657
배로	-15658
보드	-15659
부상	-15660
사찰	-15661
소송	-15662
솔린	-15663
수단	-15664
스팅	-15665
신저	-15666
아나	-15667
아웃	-15668
액의	-15669
여객	-15670
여론	-15671
연패	-15672
왔고	-15673
운하	-15674
월로	-15675
이게	-15676
인들	-15677
일드	-15678
있어	-15679
자나	-15680
자리	-15681
작은	-15682
정희	-15683
제와	-15684
차관	-15685
천후	-15686
출한	-15687
치다	-15688
킨스	-15689
탐사	-15690
투아	-15691
특한	-15692
튼이	-15693
파리	-15694
펠러	-15695
풋볼	-15696
프와	-15697
한한	-15698
홍보	-15699
히지	-15700
.19	-15701
MDC	-15702
ame	-15703
gan	-15704
ied	-15705
ins	-15706
lay	-15707
oti	-15708
pos	-15709
rin	-15710
▁PS	-15711
▁or	-15712
▁sc	-15713
▁“‘	-15714
▁같아	-15715
▁개리	-15716
▁거행	-15717
▁게놈	-15718
▁겪은	-15719
▁경이	-15720
▁곤란	-15721
▁골로	-15722
▁과시	-15723
▁관제	-15724
▁국유	-15725
▁권한	-15726
▁급히	-15727
▁기용	-15728
▁길게	-15729
▁김영	-15730
▁끄는	-15731
▁날려	-15732
▁남긴	-15733
▁났다	-15734
▁노린	-15735
▁놓인	-15736
▁늘릴	-15737
▁다스	-15738
▁다할	-15739
▁다해	-15740
▁단절	-15741
▁대단	-15742
▁더글	-15743
▁도박	-15744
▁돌진	-15745
▁돌풍	-15746
▁동아	-15747
▁됐고	-15748
▁딜런	-15749
▁때도	-15750
▁뚜렷	-15751
▁라싸	-15752
▁로즈	-15753
▁루고	-15754
▁리베	-15755
▁마루	-15756
▁막바	-15757
▁메흐	-15758
▁몸싸	-15759
▁믿지	-15760
▁바바	-15761
▁바우	-15762
▁발리	-15763
▁법규	-15764
▁벤처	-15765
▁보궐	-15766
▁분기	-15767
▁불리	-15768
▁불빛	-15769
▁블래	-15770
▁비율	-15771
▁빌리	-15772
▁사귀	-15773
▁샌안	-15774
▁생길	-15775
▁서머	-15776
▁서한	-15777
▁세골	-15778
▁섹시	-15779
▁순교	-15780
▁숨져	-15781
▁스몰	-15782
▁스텔	-15783
▁식수	-15784
▁심어	-15785
▁쌓인	-15786
▁안다	-15787
▁야외	-15788
▁야자	-15789
▁양이	-15790
▁에워	-15791
▁연못	-15792
▁오디	-15793
▁오페	-15794
▁왔던	-15795
▁우파	-15796
▁워커	-15797
▁유독	-15798
▁의상	-15799
▁이빨	-15800
▁자가	-15801
▁자민	-15802
▁작별	-15803
▁재계	-15804
▁재규	-15805
▁적도	-15806
▁절단	-15807
▁정원	-15808
▁제주	-15809
▁져야	-15810
▁조율	-15811
▁주니	-15812
▁주된	-15813
▁주입	-15814
▁죽고	-15815
▁중립	-15816
▁증폭	-15817
▁지어	-15818
▁지향	-15819
▁직무	-15820
▁척추	-15821
▁철강	-15822
▁체첸	-15823
▁총살	-15824
▁추기	-15825
▁춤을	-15826
▁충청	-15827
▁침대	-15828
▁카펠	-15829
▁탔다	-15830
▁토튼	-15831
▁파워	-15832
▁팽팽	-15833
▁퍼부	-15834
▁폭넓	-15835
▁푸미	-15836
▁한창	-15837
▁합리	-15838
▁해줄	-15839
▁호박	-15840
▁홈구	-15841
▁활주	-15842
▁황폐	-15843
▁회상	-15844
▁횡단	-15845
▁후인	-15846
▁휘말	-15847
갔지만	-15848
과정을	-15849
냐하면	-15850
되었을	-15851
렀으며	-15852
레이터	-15853
루스코	-15854
리스는	-15855
목으로	-15856
문으로	-15857
미디어	-15858
바이잔	-15859
사이드	-15860
센터에	-15861
스위스	-15862
습니까	-15863
시장에	-15864
여사는	-15865
여행을	-15866
왔지만	-15867
인민당	-15868
있다는	-15869
장관을	-15870
정부에	-15871
정이다	-15872
조직을	-15873
크리스	-15874
타임스	-15875
투데이	-15876
품으로	-15877
프레드	-15878
하에서	-15879
하이머	-15880
할머니	-15881
했거나	-15882
협회의	-15883
회사의	-15884
(33)	-15885
alif	-15886
ands	-15887
ject	-15888
oint	-15889
oney	-15890
reed	-15891
▁1.6	-15892
▁128	-15893
▁31%	-15894
▁GNP	-15895
▁Man	-15896
▁Tal	-15897
▁neg	-15898
▁가담한	-15899
▁가솔린	-15900
▁강풍을	-15901
▁개정된	-15902
▁개정을	-15903
▁거부할	-15904
▁거짓말	-15905
▁건물은	-15906
▁게임의	-15907
▁결함이	-15908
▁계약이	-15909
▁계획된	-15910
▁고르바	-15911
▁공개될	-15912
▁관절염	-15913
▁교전은	-15914
▁그래픽	-15915
▁금강산	-15916
▁급격한	-15917
▁기업체	-15918
▁기자인	-15919
▁나갔다	-15920
▁나온다	-15921
▁나이에	-15922
▁나중에	-15923
▁나토의	-15924
▁내부에	-15925
▁넘어서	-15926
▁노워크	-15927
▁놀랐다	-15928
▁뉴델리	-15929
▁니제르	-15930
▁단거리	-15931
▁단장은	-15932
▁당시의	-15933
▁대가를	-15934
▁대열에	-15935
▁대운하	-15936
▁대학이	-15937
▁댈러스	-15938
▁도덕적	-15939
▁동료인	-15940
▁동의를	-15941
▁뒤이어	-15942
▁드러나	-15943
▁로널드	-15944
▁리치는	-15945
▁마리의	-15946
▁마스크	-15947
▁마을로	-15948
▁맥주를	-15949
▁며칠간	-15950
▁모였다	-15951
▁목록에	-15952
▁목사가	-15953
▁목사의	-15954
▁무대에	-15955
▁미확인	-15956
▁밀라노	-15957
▁밀란의	-15958
▁밀접한	-15959
▁바이에	-15960
▁박사의	-15961
▁박정희	-15962
▁반대를	-15963
▁반대해	-15964
▁반하는	-15965
▁발레리	-15966
▁발표될	-15967
▁밝히기	-15968
▁방침을	-15969
▁방화를	-15970
▁버려진	-15971
▁버스는	-15972
▁버틀러	-15973
▁벌어들	-15974
▁벌이다	-15975
▁법안의	-15976
▁병사가	-15977
▁보건부	-15978
▁보고된	-15979
▁보안군	-15980
▁복장을	-15981
▁부담을	-15982
▁부드러	-15983
▁부인은	-15984
▁부정적	-15985
▁불만이	-15986
▁불안을	-15987
▁비난의	-15988
▁비율은	-15989
▁사라질	-15990
▁사회를	-15991
▁산업에	-15992
▁상금을	-15993
▁상원은	-15994
▁선거유	-15995
▁선거인	-15996
▁성공할	-15997
▁소니의	-15998
▁소령은	-15999
▁소유주	-16000
▁손으로	-16001
▁쇼핑을	-16002
▁수년간	-16003
▁수입이	-16004
▁스테판	-16005
▁승리가	-16006
▁승인한	-16007
▁시신의	-16008
▁신문의	-16009
▁신문이	-16010
▁신원은	-16011
▁실업률	-16012
▁아내는	-16013
▁아이다	-16014
▁아지즈	-16015
▁않았기	-16016
▁애도의	-16017
▁언론과	-16018
▁업계의	-16019
▁여왕이	-16020
▁연구원	-16021
▁열리기	-16022
▁영상은	-16023
▁영어를	-16024
▁예산이	-16025
▁올라온	-16026
▁왕복선	-16027
▁외곽에	-16028
▁유가가	-16029
▁은행인	-16030
▁의문이	-16031
▁이건희	-16032
▁이바노	-16033
▁이자율	-16034
▁인물로	-16035
▁인수를	-16036
▁일했다	-16037
▁임시로	-16038
▁입원해	-16039
▁잠비아	-16040
▁재건축	-16041
▁저소득	-16042
▁전국의	-16043
▁전달할	-16044
▁전반에	-16045
▁정교회	-16046
▁제품이	-16047
▁조선일	-16048
▁조직인	-16049
▁주석이	-16050
▁주위를	-16051
▁주장인	-16052
▁주제로	-16053
▁죽음이	-16054
▁증가에	-16055
▁지도부	-16056
▁지역과	-16057
▁직원은	-16058
▁진압을	-16059
▁질병에	-16060
▁차원의	-16061
▁차질이	-16062
▁착용한	-16063
▁체계를	-16064
▁체중이	-16065
▁초안을	-16066
▁초콜릿	-16067
▁촉발된	-16068
▁총선이	-16069
▁총재가	-16070
▁촬영된	-16071
▁축제를	-16072
▁충돌해	-16073
▁케이스	-16074
▁쿠알라	-16075
▁크메르	-16076
▁탁신은	-16077
▁탈출한	-16078
▁터무니	-16079
▁팔렸다	-16080
▁폭설로	-16081
▁폭우가	-16082
▁하늘을	-16083
▁하락을	-16084
▁하려는	-16085
▁하이킹	-16086
▁학교는	-16087
▁학부모	-16088
▁항의를	-16089
▁헌법에	-16090
▁혐의도	-16091
▁호주는	-16092
▁화산이	-16093
▁확보해	-16094
▁환자는	-16095
▁환자를	-16096
▁회복을	-16097
▁희생을	-16098
관계자는	-16099
억달러에	-16100
업자들은	-16101
조사에서	-16102
크라멘토	-16103
퍼센트가	-16104
하면서도	-16105
NYMEX	-16106
World	-16107
ative	-16108
iness	-16109
▁0.5%	-16110
▁1949	-16111
▁1973	-16112
▁2.13	-16113
▁9/11	-16114
▁Bank	-16115
▁Life	-16116
▁Russ	-16117
▁Wild	-16118
▁head	-16119
▁miss	-16120
▁next	-16121
▁stri	-16122
▁가이트너	-16123
▁가족들의	-16124
▁감소했다	-16125
▁강화하기	-16126
▁걱정하고	-16127
▁경쟁력을	-16128
▁계속됐다	-16129
▁고양이를	-16130
▁공격하고	-16131
▁관광객을	-16132
▁구조대는	-16133
▁국가안전	-16134
▁국내에서	-16135
▁군인들을	-16136
▁금요일에	-16137
▁급속도로	-16138
▁기각했다	-16139
▁기록됐다	-16140
▁기자들과	-16141
▁납치됐다	-16142
▁내놓았다	-16143
▁대통령궁	-16144
▁도로매설	-16145
▁도착하자	-16146
▁등장하는	-16147
▁마스터스	-16148
▁매릴랜드	-16149
▁매케인과	-16150
▁멸종위기	-16151
▁목격했다	-16152
▁무대에서	-16153
▁민족주의	-16154
▁밀리밴드	-16155
▁바랍니다	-16156
▁발표되지	-16157
▁방문했을	-16158
▁방코델타	-16159
▁벌였으며	-16160
▁베이루트	-16161
▁보였으며	-16162
▁보이지만	-16163
▁보조금을	-16164
▁부적절한	-16165
▁비극적인	-16166
▁비서실장	-16167
▁사망했을	-16168
▁생각된다	-16169
▁서비스는	-16170
▁석방했다	-16171
▁성명서를	-16172
▁수용소에	-16173
▁시간으로	-16174
▁시민단체	-16175
▁시상식은	-16176
▁시위대의	-16177
▁심리에서	-16178
▁아버지를	-16179
▁아시아와	-16180
▁아프간의	-16181
▁않았다면	-16182
▁앨라배마	-16183
▁양곤에서	-16184
▁어린이가	-16185
▁연구소는	-16186
▁올림픽에	-16187
▁와이오밍	-16188
▁완화하기	-16189
▁요청하는	-16190
▁우승으로	-16191
▁위원장의	-16192
▁위협적인	-16193
▁유명인사	-16194
▁유전자를	-16195
▁이뤄지는	-16196
▁이사회는	-16197
▁잃어버린	-16198
▁자이언트	-16199
▁적극적인	-16200
▁전당대회	-16201
▁전문가는	-16202
▁전시작전	-16203
▁제기됐다	-16204
▁제한하는	-16205
▁지지자들	-16206
▁총회에서	-16207
▁최근까지	-16208
▁추정되고	-16209
▁충돌했다	-16210
▁측에서는	-16211
▁카불에서	-16212
▁크레이그	-16213
▁탈출했다	-16214
▁테러범이	-16215
▁통과하는	-16216
▁투탕카멘	-16217
▁티셔츠를	-16218
▁파손됐다	-16219
▁파악하고	-16220
▁파예드는	-16221
▁폐쇄하고	-16222
▁포기하고	-16223
▁포기하는	-16224
▁폭발물이	-16225
▁폭발했다	-16226
▁프랑스가	-16227
▁하루종일	-16228
▁한국은행	-16229
▁해안경비	-16230
▁환자들은	-16231
▁회복하고	-16232
제르바이잔	-16233
ournal	-16234
▁2007~	-16235
▁state	-16236
▁under	-16237
▁경제적으로	-16238
▁관계당국이	-16239
▁구조작업을	-16240
▁국제적으로	-16241
▁나이트클럽	-16242
▁다우지수가	-16243
▁대선후보가	-16244
▁디스플레이	-16245
▁만들어졌다	-16246
▁미항공우주	-16247
▁바에따르면	-16248
▁밝혀졌다고	-16249
▁불가능하다	-16250
▁사르코지가	-16251
▁소식통들은	-16252
▁스트레스를	-16253
▁아프리카의	-16254
▁애틀랜티스	-16255
▁예정이지만	-16256
▁운동가들은	-16257
▁자체적으로	-16258
▁조사에서는	-16259
▁주장했다고	-16260
▁주장했었다	-16261
▁중앙일보는	-16262
▁중앙정보국	-16263
▁집중적으로	-16264
▁추수감사절	-16265
▁코리아타임	-16266
▁콜롬비아의	-16267
▁토론회에서	-16268
▁페널티킥을	-16269
▁플레이오프	-16270
▁피해자들을	-16271
▁효과적으로	-16272
▁희망한다고	-16273
2007.07	-16274
loyment	-16275
▁관광객들에게	-16276
▁소프트웨어를	-16277
▁열린우리당은	-16278
▁예정이었으나	-16279
▁요하네스버그	-16280
▁이슬라마바드	-16281
▁캘리포니아에	-16282
▁팔레스타인과	-16283
▁프로그램에서	-16284
▁2007.10	-16285
▁foreign	-16286
▁방코델타아시아	-16287
▁캘리포니아에서	-16288
39	-16289
EI	-16290
FK	-16291
OS	-16292
Un	-16293
gy	-16294
uy	-16295
▁굽	-16296
▁눌	-16297
▁돋	-16298
▁룩	-16299
▁슐	-16300
▁썩	-16301
▁쐈	-16302
▁죠	-16303
▁캡	-16304
▁콤	-16305
▁퀘	-16306
감에	-16307
고로	-16308
고리	-16309
곳이	-16310
공주	-16311
구와	-16312
군데	-16313
누가	-16314
다를	-16315
더미	-16316
되다	-16317
라기	-16318
래에	-16319
랜더	-16320
럼을	-16321
면이	-16322
모니	-16323
무가	-16324
미스	-16325
민순	-16326
반이	-16327
병과	-16328
분석	-16329
블리	-16330
석유	-16331
석현	-16332
설이	-16333
시마	-16334
시앙	-16335
시킴	-16336
실한	-16337
심장	-16338
야마	-16339
어서	-16340
업계	-16341
에어	-16342
여자	-16343
예프	-16344
우드	-16345
유는	-16346
을때	-16347
인간	-16348
자루	-16349
잡한	-16350
정과	-16351
정권	-16352
지휘	-16353
집에	-16354
집을	-16355
코드	-16356
탄의	-16357
테스	-16358
트랙	-16359
티네	-16360
티호	-16361
팀인	-16362
패닉	-16363
하드	-16364
함은	-16365
히기	-16366
007	-16367
SAF	-16368
SBC	-16369
WTI	-16370
WTO	-16371
bal	-16372
eep	-16373
ely	-16374
ger	-16375
rit	-16376
ros	-16377
ult	-16378
use	-16379
▁4~	-16380
▁91	-16381
▁AD	-16382
▁JP	-16383
▁NH	-16384
▁Ph	-16385
▁가계	-16386
▁가루	-16387
▁가야	-16388
▁가이	-16389
▁값싼	-16390
▁강에	-16391
▁강연	-16392
▁강철	-16393
▁개구	-16394
▁결장	-16395
▁경력	-16396
▁고맙	-16397
▁고층	-16398
▁공업	-16399
▁과속	-16400
▁과장	-16401
▁교역	-16402
▁굶주	-16403
▁규명	-16404
▁그랬	-16405
▁그럴	-16406
▁그외	-16407
▁그저	-16408
▁금전	-16409
▁금치	-16410
▁깜짝	-16411
▁깨고	-16412
▁끝내	-16413
▁나뭇	-16414
▁나자	-16415
▁나포	-16416
▁난처	-16417
▁날로	-16418
▁날에	-16419
▁놀랐	-16420
▁농담	-16421
▁다나	-16422
▁다닐	-16423
▁달고	-16424
▁대성	-16425
▁동기	-16426
▁디젤	-16427
▁때를	-16428
▁때와	-16429
▁로렌	-16430
▁로브	-16431
▁로야	-16432
▁로얄	-16433
▁로젠	-16434
▁루스	-16435
▁마츠	-16436
▁많을	-16437
▁매리	-16438
▁멜리	-16439
▁무척	-16440
▁문학	-16441
▁묻혀	-16442
▁반경	-16443
▁발작	-16444
▁변형	-16445
▁병을	-16446
▁보니	-16447
▁북경	-16448
▁분화	-16449
▁블리	-16450
▁비만	-16451
▁비참	-16452
▁비춰	-16453
▁빨라	-16454
▁사립	-16455
▁살상	-16456
▁삼각	-16457
▁상실	-16458
▁서던	-16459
▁서두	-16460
▁선교	-16461
▁설교	-16462
▁섬의	-16463
▁성행	-16464
▁소란	-16465
▁숨겨	-16466
▁스펙	-16467
▁시리	-16468
▁시한	-16469
▁신병	-16470
▁실감	-16471
▁실내	-16472
▁실용	-16473
▁안을	-16474
▁애슐	-16475
▁액션	-16476
▁야심	-16477
▁약을	-16478
▁어드	-16479
▁어윈	-16480
▁오닐	-16481
▁올림	-16482
▁왕복	-16483
▁외모	-16484
▁우체	-16485
▁원심	-16486
▁육박	-16487
▁의논	-16488
▁이타	-16489
▁일일	-16490
▁잉그	-16491
▁자궁	-16492
▁자는	-16493
▁자정	-16494
▁잠겨	-16495
▁잠정	-16496
▁장이	-16497
▁재결	-16498
▁적게	-16499
▁적혀	-16500
▁전술	-16501
▁점심	-16502
▁정박	-16503
▁제왕	-16504
▁좁은	-16505
▁종의	-16506
▁주소	-16507
▁죽게	-16508
▁즐겁	-16509
▁즐겨	-16510
▁증산	-16511
▁집결	-16512
▁찍힌	-16513
▁참수	-16514
▁창업	-16515
▁첼시	-16516
▁총회	-16517
▁최다	-16518
▁출항	-16519
▁출현	-16520
▁치타	-16521
▁친미	-16522
▁카렌	-16523
▁칼데	-16524
▁컨셉	-16525
▁탈퇴	-16526
▁터져	-16527
▁템파	-16528
▁토레	-16529
▁트러	-16530
▁트위	-16531
▁페라	-16532
▁품질	-16533
▁프란	-16534
▁피를	-16535
▁한꺼	-16536
▁할인	-16537
▁핵을	-16538
▁행크	-16539
▁헬만	-16540
▁형을	-16541
▁혼인	-16542
▁화상	-16543
가능한	-16544
기구가	-16545
기구를	-16546
나이트	-16547
라이너	-16548
법안에	-16549
법원의	-16550
법원이	-16551
북한은	-16552
분으로	-16553
석으로	-16554
스트로	-16555
스파일	-16556
영장을	-16557
인지는	-16558
졌는데	-16559
졌었다	-16560
줬다고	-16561
친구를	-16562
케인이	-16563
크라이	-16564
판에서	-16565
하게도	-16566
화하기	-16567
회의가	-16568
FIFA	-16569
arly	-16570
arry	-16571
ater	-16572
emoc	-16573
ning	-16574
ries	-16575
▁126	-16576
▁14%	-16577
▁210	-16578
▁45%	-16579
▁7.9	-16580
▁Ins	-16581
▁Sen	-16582
▁aid	-16583
▁int	-16584
▁law	-16585
▁가깝게	-16586
▁가옥이	-16587
▁가치는	-16588
▁갈수록	-16589
▁감소할	-16590
▁개성공	-16591
▁개최될	-16592
▁개최할	-16593
▁거래에	-16594
▁검사가	-16595
▁것들을	-16596
▁결혼한	-16597
▁공약을	-16598
▁과정은	-16599
▁과정이	-16600
▁교회에	-16601
▁교회의	-16602
▁구속된	-16603
▁국회는	-16604
▁군인을	-16605
▁그런데	-16606
▁그리핀	-16607
▁금지된	-16608
▁금지를	-16609
▁급속한	-16610
▁기사에	-16611
▁기원전	-16612
▁기존에	-16613
▁기지에	-16614
▁나타날	-16615
▁난동을	-16616
▁납치를	-16617
▁낳았다	-16618
▁내각의	-16619
▁노리는	-16620
▁눈으로	-16621
▁느꼈다	-16622
▁달했다	-16623
▁당선이	-16624
▁대니얼	-16625
▁대만에	-16626
▁대응을	-16627
▁대학에	-16628
▁던지는	-16629
▁데에는	-16630
▁데이브	-16631
▁도달할	-16632
▁도시는	-16633
▁독립한	-16634
▁독재자	-16635
▁동맹을	-16636
▁됐지만	-16637
▁되는데	-16638
▁두개골	-16639
▁들어갔	-16640
▁들어서	-16641
▁들어올	-16642
▁디얄라	-16643
▁따르지	-16644
▁때부터	-16645
▁떠나는	-16646
▁라덴은	-16647
▁라시드	-16648
▁롤링은	-16649
▁마련해	-16650
▁만델라	-16651
▁만든다	-16652
▁말라는	-16653
▁명확한	-16654
▁모델로	-16655
▁모두는	-16656
▁목격자	-16657
▁목표에	-16658
▁무게가	-16659
▁무혐의	-16660
▁문화적	-16661
▁물의를	-16662
▁바오로	-16663
▁반면에	-16664
▁반응은	-16665
▁받기도	-16666
▁발간된	-16667
▁발견할	-16668
▁밝혀질	-16669
▁밝혔고	-16670
▁버리고	-16671
▁버스가	-16672
▁번화가	-16673
▁벌어질	-16674
▁북쪽에	-16675
▁불과한	-16676
▁불길에	-16677
▁불참을	-16678
▁불편한	-16679
▁붙였다	-16680
▁비난해	-16681
▁비스타	-16682
▁사망할	-16683
▁사업은	-16684
▁사업의	-16685
▁사용이	-16686
▁산업을	-16687
▁상태는	-16688
▁서류를	-16689
▁선언을	-16690
▁성공회	-16691
▁성매매	-16692
▁성장률	-16693
▁성향을	-16694
▁세레나	-16695
▁세컨드	-16696
▁센터에	-16697
▁소년은	-16698
▁소동이	-16699
▁소유즈	-16700
▁소재로	-16701
▁소지한	-16702
▁소행성	-16703
▁손실이	-16704
▁송민순	-16705
▁수상은	-16706
▁수상자	-16707
▁수집한	-16708
▁승객이	-16709
▁승부차	-16710
▁승인할	-16711
▁시간은	-16712
▁시대가	-16713
▁시에서	-16714
▁시위자	-16715
▁실적을	-16716
▁실행에	-16717
▁쏟아져	-16718
▁아디다	-16719
▁아로요	-16720
▁아르메	-16721
▁아름다	-16722
▁아메드	-16723
▁아브라	-16724
▁아시안	-16725
▁아프카	-16726
▁안에는	-16727
▁않을까	-16728
▁알아야	-16729
▁암으로	-16730
▁얻는데	-16731
▁업무에	-16732
▁없음을	-16733
▁없이는	-16734
▁여론이	-16735
▁연합의	-16736
▁영국을	-16737
▁영업이	-16738
▁영토를	-16739
▁예술가	-16740
▁올해는	-16741
▁외국계	-16742
▁우주의	-16743
▁위원장	-16744
▁은행을	-16745
▁음베키	-16746
▁의사의	-16747
▁의사인	-16748
▁이겼다	-16749
▁이곳의	-16750
▁이들과	-16751
▁이미지	-16752
▁이어져	-16753
▁이와는	-16754
▁인구는	-16755
▁인질이	-16756
▁일부다	-16757
▁일종의	-16758
▁자국민	-16759
▁자전거	-16760
▁자체가	-16761
▁작품이	-16762
▁잔혹한	-16763
▁장기를	-16764
▁장벽을	-16765
▁재건을	-16766
▁전투로	-16767
▁정권에	-16768
▁정부군	-16769
▁제품의	-16770
▁조용히	-16771
▁존슨은	-16772
▁주최한	-16773
▁중령은	-16774
▁증상을	-16775
▁지명된	-16776
▁지방을	-16777
▁지지한	-16778
▁지켜본	-16779
▁직원과	-16780
▁직원을	-16781
▁진지한	-16782
▁차량과	-16783
▁철회할	-16784
▁초드리	-16785
▁최상의	-16786
▁추방된	-16787
▁췌장암	-16788
▁타이어	-16789
▁통과된	-16790
▁통치를	-16791
▁트럭에	-16792
▁트럭을	-16793
▁파란색	-16794
▁파리의	-16795
▁퍼센트	-16796
▁편안한	-16797
▁평양에	-16798
▁평했다	-16799
▁포기한	-16800
▁폭동을	-16801
▁표결에	-16802
▁푸미폰	-16803
▁하반기	-16804
▁학생들	-16805
▁학생의	-16806
▁합류할	-16807
▁해변에	-16808
▁해안의	-16809
▁했는지	-16810
▁현상을	-16811
▁협력해	-16812
▁호르타	-16813
▁홀에서	-16814
▁화재를	-16815
▁화합을	-16816
▁확정될	-16817
▁흐름을	-16818
니케이션	-16819
다이애나	-16820
랜드에서	-16821
로부터의	-16822
받았다고	-16823
연구소의	-16824
연설에서	-16825
자회담을	-16826
줄기세포	-16827
현장에서	-16828
chool	-16829
feren	-16830
▁100%	-16831
▁1930	-16832
▁1945	-16833
▁1983	-16834
▁Cont	-16835
▁Corp	-16836
▁HSBC	-16837
▁RCTV	-16838
▁call	-16839
▁fund	-16840
▁개체수가	-16841
▁결정하는	-16842
▁결혼했다	-16843
▁경기후퇴	-16844
▁경찰들이	-16845
▁관리들과	-16846
▁구조대가	-16847
▁국가들에	-16848
▁국경지역	-16849
▁극적으로	-16850
▁기점으로	-16851
▁남자아이	-16852
▁노력하는	-16853
▁단체들이	-16854
▁담당자인	-16855
▁대법원에	-16856
▁대사관에	-16857
▁대표적인	-16858
▁대학교의	-16859
▁동성결혼	-16860
▁동점골을	-16861
▁두번째로	-16862
▁들어가기	-16863
▁들었다고	-16864
▁라왈핀디	-16865
▁리트비넨	-16866
▁매들린이	-16867
▁무가베는	-16868
▁무너지고	-16869
▁무하마드	-16870
▁미시간주	-16871
▁민간인을	-16872
▁민주적인	-16873
▁바탕으로	-16874
▁박물관은	-16875
▁받았었다	-16876
▁방문한다	-16877
▁배경으로	-16878
▁변호사와	-16879
▁병사들은	-16880
▁보고서의	-16881
▁보도자료	-16882
▁불필요한	-16883
▁사무실에	-16884
▁사살하고	-16885
▁사용자가	-16886
▁사용하여	-16887
▁사직서를	-16888
▁상임이사	-16889
▁상황으로	-16890
▁선거기부	-16891
▁선수들과	-16892
▁센터에서	-16893
▁소송에서	-16894
▁수십명의	-16895
▁수치이다	-16896
▁스튜어트	-16897
▁스파이스	-16898
▁스프레이	-16899
▁시상식을	-16900
▁시스템의	-16901
▁식당에서	-16902
▁심사위원	-16903
▁안보리는	-16904
▁압수했다	-16905
▁어소시에	-16906
▁언론과의	-16907
▁에스트라	-16908
▁연구진이	-16909
▁영향력이	-16910
▁왕세자의	-16911
▁요구한다	-16912
▁요청으로	-16913
▁우승했다	-16914
▁유권자가	-16915
▁유니세프	-16916
▁의구심을	-16917
▁이라크군	-16918
▁이제까지	-16919
▁이틀간의	-16920
▁일상적인	-16921
▁임명했다	-16922
▁장례식에	-16923
▁전세계의	-16924
▁정부에게	-16925
▁정상들이	-16926
▁정확하게	-16927
▁주둔중인	-16928
▁주지사를	-16929
▁중심부에	-16930
▁즈보나레	-16931
▁지불하고	-16932
▁지지자의	-16933
▁지켜보고	-16934
▁진압하기	-16935
▁집권당인	-16936
▁차량에서	-16937
▁참석하는	-16938
▁청와대는	-16939
▁총리와의	-16940
▁충돌하는	-16941
▁측면에서	-16942
▁캐나다의	-16943
▁태풍으로	-16944
▁토요일에	-16945
▁트레이드	-16946
▁파예드가	-16947
▁파이낸셜	-16948
▁페르난데	-16949
▁포괄적인	-16950
▁폭락했다	-16951
▁푸에르타	-16952
▁프랑스를	-16953
▁프로듀서	-16954
▁한꺼번에	-16955
▁항공사가	-16956
▁항구도시	-16957
▁확보해야	-16958
▁확인하지	-16959
▁환경에서	-16960
▁환자에게	-16961
▁회사에서	-16962
▁획기적인	-16963
▁히스패닉	-16964
▁힐러리의	-16965
평균지수는	-16966
mittee	-16967
▁2-0(7	-16968
▁Prime	-16969
▁고속도로를	-16970
▁관계자들의	-16971
▁국무장관과	-16972
▁뉴잉글랜드	-16973
▁동의했다고	-16974
▁무장단체의	-16975
▁배심원단은	-16976
▁베를루스코	-16977
▁비행기에서	-16978
▁사르코지의	-16979
▁새크라멘토	-16980
▁서부텍사스	-16981
▁성공시켰다	-16982
▁소행이라고	-16983
▁신행정수도	-16984
▁아이슬란드	-16985
▁외국인들이	-16986
▁외무장관이	-16987
▁재정경제부	-16988
▁정상회담에	-16989
▁제조업체인	-16990
▁줄리아니는	-16991
▁중국에서는	-16992
▁지지자들을	-16993
▁청문회에서	-16994
▁플로리다와	-16995
▁하락했다고	-16996
▁할리우드의	-16997
올림픽위원회	-16998
2005.12	-16999
2006.06	-17000
▁Street	-17001
▁arrest	-17002
▁forces	-17003
▁leader	-17004
▁국제축구연맹	-17005
▁미항공우주국	-17006
▁아제르바이잔	-17007
▁아프카니스탄	-17008
▁알자와히리는	-17009
▁플로리다에서	-17010
▁2006.12	-17011
▁Austral	-17012
▁Chinese	-17013
▁attacks	-17014
▁오사마빈라덴의	-17015
▁자살폭탄테러로	-17016
29	-17017
43	-17018
48	-17019
CA	-17020
IP	-17021
do	-17022
ky	-17023
▁$	-17024
▁꾀	-17025
▁낚	-17026
▁딱	-17027
▁뭐	-17028
▁뷰	-17029
▁셈	-17030
▁쇄	-17031
▁율	-17032
▁춘	-17033
▁튜	-17034
▁홉	-17035
▁흠	-17036
각이	-17037
공개	-17038
공을	-17039
구호	-17040
군요	-17041
금의	-17042
난을	-17043
단지	-17044
대기	-17045
더가	-17046
더드	-17047
더와	-17048
동료	-17049
동에	-17050
로워	-17051
르모	-17052
린의	-17053
메일	-17054
목에	-17055
박신	-17056
반을	-17057
방향	-17058
버릴	-17059
보지	-17060
분은	-17061
분쟁	-17062
빌은	-17063
사르	-17064
살에	-17065
살을	-17066
생의	-17067
섬에	-17068
소비	-17069
손은	-17070
수비	-17071
수아	-17072
슬링	-17073
식간	-17074
실의	-17075
열로	-17076
오던	-17077
완다	-17078
이치	-17079
이하	-17080
자도	-17081
자문	-17082
재는	-17083
전국	-17084
제조	-17085
젠은	-17086
중생	-17087
증에	-17088
차의	-17089
초를	-17090
충돌	-17091
층은	-17092
카와	-17093
컴은	-17094
쿠스	-17095
크와	-17096
터에	-17097
토가	-17098
토바	-17099
토의	-17100
통계	-17101
특히	-17102
티와	-17103
파와	-17104
판무	-17105
판은	-17106
포럼	-17107
하원	-17108
하의	-17109
행에	-17110
행이	-17111
히드	-17112
힐러	-17113
NBC	-17114
PML	-17115
ady	-17116
arm	-17117
ati	-17118
ful	-17119
les	-17120
oot	-17121
ote	-17122
ror	-17123
▁CO	-17124
▁Gu	-17125
▁IR	-17126
▁SG	-17127
▁TG	-17128
▁가시	-17129
▁간다	-17130
▁갈망	-17131
▁강대	-17132
▁강탈	-17133
▁갖기	-17134
▁개회	-17135
▁거울	-17136
▁건스	-17137
▁걸림	-17138
▁겪게	-17139
▁겪을	-17140
▁결백	-17141
▁고독	-17142
▁고전	-17143
▁공백	-17144
▁공영	-17145
▁과일	-17146
▁교량	-17147
▁구소	-17148
▁권장	-17149
▁규탄	-17150
▁금주	-17151
▁까다	-17152
▁끝낼	-17153
▁난투	-17154
▁낳을	-17155
▁내기	-17156
▁넘기	-17157
▁넘쳐	-17158
▁농림	-17159
▁뇌의	-17160
▁누워	-17161
▁누출	-17162
▁늦추	-17163
▁다둘	-17164
▁다름	-17165
▁다저	-17166
▁대거	-17167
▁대담	-17168
▁대배	-17169
▁델라	-17170
▁독극	-17171
▁동거	-17172
▁뒤쳐	-17173
▁드미	-17174
▁들려	-17175
▁라드	-17176
▁라벨	-17177
▁로하	-17178
▁리옹	-17179
▁리틀	-17180
▁마샤	-17181
▁마신	-17182
▁마자	-17183
▁마테	-17184
▁말아	-17185
▁매설	-17186
▁매진	-17187
▁머피	-17188
▁먼지	-17189
▁명단	-17190
▁명시	-17191
▁명절	-17192
▁몰린	-17193
▁무언	-17194
▁묶여	-17195
▁물과	-17196
▁미만	-17197
▁미식	-17198
▁미안	-17199
▁미용	-17200
▁민영	-17201
▁방금	-17202
▁방을	-17203
▁배정	-17204
▁백과	-17205
▁버려	-17206
▁법이	-17207
▁변함	-17208
▁병이	-17209
▁복수	-17210
▁본선	-17211
▁부를	-17212
▁부친	-17213
▁불꽃	-17214
▁불사	-17215
▁비리	-17216
▁사교	-17217
▁사료	-17218
▁산체	-17219
▁살던	-17220
▁상기	-17221
▁상아	-17222
▁상트	-17223
▁새우	-17224
▁생겼	-17225
▁서기	-17226
▁선사	-17227
▁세관	-17228
▁세울	-17229
▁셰르	-17230
▁소더	-17231
▁속의	-17232
▁속출	-17233
▁수에	-17234
▁순조	-17235
▁스탤	-17236
▁스폰	-17237
▁시급	-17238
▁식별	-17239
▁아드	-17240
▁아비	-17241
▁아세	-17242
▁아티	-17243
▁양조	-17244
▁어리	-17245
▁어미	-17246
▁언젠	-17247
▁에반	-17248
▁여사	-17249
▁여우	-17250
▁연습	-17251
▁연애	-17252
▁연일	-17253
▁예고	-17254
▁오지	-17255
▁오찬	-17256
▁오클	-17257
▁온도	-17258
▁용기	-17259
▁원로	-17260
▁위크	-17261
▁유머	-17262
▁의거	-17263
▁의류	-17264
▁의정	-17265
▁이나	-17266
▁이병	-17267
▁인텔	-17268
▁일광	-17269
▁일조	-17270
▁잃어	-17271
▁입힌	-17272
▁있으	-17273
▁재가	-17274
▁재앙	-17275
▁저가	-17276
▁저하	-17277
▁전두	-17278
▁전후	-17279
▁제인	-17280
▁제휴	-17281
▁조업	-17282
▁존엄	-17283
▁좁혀	-17284
▁좌우	-17285
▁주먹	-17286
▁주제	-17287
▁중대	-17288
▁중장	-17289
▁지대	-17290
▁지을	-17291
▁진짜	-17292
▁짙은	-17293
▁체험	-17294
▁총파	-17295
▁최장	-17296
▁취업	-17297
▁치뤄	-17298
▁친지	-17299
▁칠면	-17300
▁카니	-17301
▁카펫	-17302
▁캐피	-17303
▁캠퍼	-17304
▁콜럼	-17305
▁크랜	-17306
▁클릭	-17307
▁키르	-17308
▁태워	-17309
▁투병	-17310
▁트래	-17311
▁특혜	-17312
▁파기	-17313
▁파는	-17314
▁파편	-17315
▁패러	-17316
▁페리	-17317
▁페어	-17318
▁프랜	-17319
▁피에	-17320
▁핑크	-17321
▁하누	-17322
▁하토	-17323
▁해발	-17324
▁햇빛	-17325
▁헤어	-17326
▁헬렌	-17327
▁현저	-17328
▁현존	-17329
▁확립	-17330
▁휘두	-17331
▁희박	-17332
가격이	-17333
개월을	-17334
겠는가	-17335
기관인	-17336
냈지만	-17337
네이루	-17338
노동자	-17339
리아스	-17340
박신원	-17341
버스터	-17342
부대를	-17343
비용을	-17344
사건은	-17345
사고를	-17346
사회는	-17347
선거를	-17348
센터를	-17349
소리가	-17350
스키는	-17351
시설에	-17352
시장은	-17353
시장이	-17354
억원을	-17355
언론이	-17356
에너지	-17357
위기의	-17358
위성을	-17359
일정을	-17360
임에도	-17361
자라고	-17362
자료를	-17363
자리를	-17364
자신의	-17365
자였다	-17366
장관의	-17367
정치적	-17368
주일간	-17369
집에서	-17370
총장이	-17371
평의회	-17372
한다며	-17373
행진을	-17374
호에서	-17375
(36)	-17376
.75%	-17377
6-4)	-17378
irls	-17379
ives	-17380
ross	-17381
urch	-17382
vers	-17383
very	-17384
▁135	-17385
▁270	-17386
▁Fed	-17387
▁KBS	-17388
▁Mus	-17389
▁Pal	-17390
▁WWF	-17391
▁ret	-17392
▁two	-17393
▁가격의	-17394
▁가져야	-17395
▁감소한	-17396
▁감시를	-17397
▁강타해	-17398
▁검정색	-17399
▁것이나	-17400
▁게임이	-17401
▁경선에	-17402
▁경수로	-17403
▁경제성	-17404
▁고객을	-17405
▁고릴라	-17406
▁곤경에	-17407
▁공격수	-17408
▁공급할	-17409
▁공원에	-17410
▁공장이	-17411
▁공항이	-17412
▁구조조	-17413
▁국방성	-17414
▁그래도	-17415
▁그룹이	-17416
▁극도로	-17417
▁금메달	-17418
▁기관인	-17419
▁기네스	-17420
▁기념행	-17421
▁기지로	-17422
▁기회로	-17423
▁까지는	-17424
▁나아가	-17425
▁날씨는	-17426
▁남쪽에	-17427
▁내각이	-17428
▁넣으며	-17429
▁노력해	-17430
▁노리고	-17431
▁노출된	-17432
▁농산물	-17433
▁높았다	-17434
▁뉴욕과	-17435
▁느끼지	-17436
▁다윈은	-17437
▁다이앤	-17438
▁단계를	-17439
▁단백질	-17440
▁달라는	-17441
▁대승을	-17442
▁대표로	-17443
▁대표의	-17444
▁대하여	-17445
▁도요타	-17446
▁독특한	-17447
▁드레스	-17448
▁라운드	-17449
▁로날드	-17450
▁로드맵	-17451
▁로브는	-17452
▁마을이	-17453
▁맞추고	-17454
▁메릴린	-17455
▁메트로	-17456
▁모습은	-17457
▁몰디브	-17458
▁미쳤다	-17459
▁바나프	-17460
▁바다가	-17461
▁반지를	-17462
▁받기로	-17463
▁받도록	-17464
▁벌였던	-17465
▁벌이며	-17466
▁범인을	-17467
▁베이비	-17468
▁병원은	-17469
▁보내며	-17470
▁보았다	-17471
▁본사가	-17472
▁볼티모	-17473
▁부근의	-17474
▁부담이	-17475
▁분리된	-17476
▁불안이	-17477
▁불편을	-17478
▁블랙홀	-17479
▁사례를	-17480
▁사이를	-17481
▁사임한	-17482
▁사장이	-17483
▁사진과	-17484
▁사진에	-17485
▁상승은	-17486
▁생기는	-17487
▁생산된	-17488
▁서둘러	-17489
▁석방될	-17490
▁선관위	-17491
▁선물로	-17492
▁선수의	-17493
▁설명할	-17494
▁설치할	-17495
▁세골렌	-17496
▁세력과	-17497
▁세상에	-17498
▁센트럴	-17499
▁셰퍼드	-17500
▁소동을	-17501
▁수개월	-17502
▁수영을	-17503
▁수위를	-17504
▁수하물	-17505
▁순간을	-17506
▁순이익	-17507
▁시도로	-17508
▁신생아	-17509
▁신선한	-17510
▁신중한	-17511
▁실적이	-17512
▁실험이	-17513
▁심리를	-17514
▁심슨의	-17515
▁심슨이	-17516
▁십자가	-17517
▁싶다는	-17518
▁싶다면	-17519
▁아내를	-17520
▁아내인	-17521
▁아폴로	-17522
▁악천후	-17523
▁악화된	-17524
▁안았다	-17525
▁없다면	-17526
▁에서도	-17527
▁여기에	-17528
▁여중생	-17529
▁여행할	-17530
▁역할이	-17531
▁연기에	-17532
▁영어로	-17533
▁예방접	-17534
▁오늘은	-17535
▁오디오	-17536
▁오르고	-17537
▁오사카	-17538
▁오전에	-17539
▁온난화	-17540
▁올라와	-17541
▁올해로	-17542
▁요소가	-17543
▁요청에	-17544
▁용기를	-17545
▁용의가	-17546
▁우연히	-17547
▁운동이	-17548
▁운명을	-17549
▁원칙을	-17550
▁유가는	-17551
▁유용한	-17552
▁유조선	-17553
▁유지될	-17554
▁유지해	-17555
▁의도가	-17556
▁의심을	-17557
▁이견을	-17558
▁이목을	-17559
▁이외의	-17560
▁이해를	-17561
▁인물을	-17562
▁인물이	-17563
▁인수제	-17564
▁일하던	-17565
▁입장이	-17566
▁잇따라	-17567
▁작년에	-17568
▁잡스는	-17569
▁장군이	-17570
▁재개를	-17571
▁재단은	-17572
▁잭슨이	-17573
▁저작권	-17574
▁정당은	-17575
▁정상은	-17576
▁정착촌	-17577
▁정치가	-17578
▁정통한	-17579
▁정해진	-17580
▁제보를	-17581
▁제의를	-17582
▁제이슨	-17583
▁제작자	-17584
▁제조한	-17585
▁조류독	-17586
▁조사해	-17587
▁조직원	-17588
▁조직이	-17589
▁졸업생	-17590
▁주기로	-17591
▁주목할	-17592
▁주민은	-17593
▁중심의	-17594
▁즐거운	-17595
▁증상이	-17596
▁지나가	-17597
▁지냈던	-17598
▁지분을	-17599
▁지지해	-17600
▁지켰다	-17601
▁지하드	-17602
▁진영의	-17603
▁집권한	-17604
▁쪽으로	-17605
▁찾아야	-17606
▁추측이	-17607
▁취하는	-17608
▁치안을	-17609
▁친밀한	-17610
▁카르자	-17611
▁커플이	-17612
▁콜린스	-17613
▁쿼터백	-17614
▁탄압을	-17615
▁탐사선	-17616
▁테러와	-17617
▁투자에	-17618
▁판매될	-17619
▁패배한	-17620
▁퍼시픽	-17621
▁편이다	-17622
▁포즈를	-17623
▁폭격기	-17624
▁폭행을	-17625
▁표현을	-17626
▁푸틴의	-17627
▁하루가	-17628
▁하리리	-17629
▁하지는	-17630
▁학교와	-17631
▁학생을	-17632
▁학위를	-17633
▁한가지	-17634
▁한동안	-17635
▁항공모	-17636
▁핸드폰	-17637
▁행해진	-17638
▁헝가리	-17639
▁혐의는	-17640
▁협상의	-17641
▁획득한	-17642
▁효력을	-17643
▁흔들며	-17644
▁흔적이	-17645
▁흡연을	-17646
▁흥미를	-17647
▁흥분한	-17648
▁흩어져	-17649
▁희생된	-17650
론자들은	-17651
세르비아	-17652
적이지만	-17653
중앙은행	-17654
지대에서	-17655
코트에서	-17656
하기에는	-17657
ather	-17658
ences	-17659
illed	-17660
mbass	-17661
▁1974	-17662
▁2.5%	-17663
▁4500	-17664
▁Burm	-17665
▁More	-17666
▁high	-17667
▁test	-17668
▁time	-17669
▁감소하고	-17670
▁감행했다	-17671
▁개발하고	-17672
▁거래에서	-17673
▁거부하는	-17674
▁결심했다	-17675
▁경기침체	-17676
▁경우에는	-17677
▁고등학생	-17678
▁고르바초	-17679
▁고위관리	-17680
▁과도하게	-17681
▁관리하고	-17682
▁광장에서	-17683
▁국무총리	-17684
▁국제유가	-17685
▁군사력을	-17686
▁규정했다	-17687
▁극장에서	-17688
▁금융감독	-17689
▁금융기관	-17690
▁기다렸다	-17691
▁기대된다	-17692
▁나타난다	-17693
▁나토군이	-17694
▁넘어섰다	-17695
▁농장에서	-17696
▁늘어났다	-17697
▁대변인을	-17698
▁대항하는	-17699
▁동료들은	-17700
▁드미트리	-17701
▁들어왔다	-17702
▁들어있다	-17703
▁들어주지	-17704
▁리우데자	-17705
▁메시지는	-17706
▁멕시코의	-17707
▁모색하고	-17708
▁목소리가	-17709
▁문제점을	-17710
▁물리치고	-17711
▁민주노동	-17712
▁박물관에	-17713
▁반발했다	-17714
▁발견하지	-17715
▁발령했다	-17716
▁발생했을	-17717
▁발표하는	-17718
▁벌였지만	-17719
▁베이징의	-17720
▁보건부는	-17721
▁본국으로	-17722
▁불쾌감을	-17723
▁블레이크	-17724
▁사회에서	-17725
▁상징으로	-17726
▁생존자를	-17727
▁설명하지	-17728
▁성장률을	-17729
▁수도에서	-17730
▁스트리트	-17731
▁승리해야	-17732
▁시리아는	-17733
▁시리즈의	-17734
▁시작하고	-17735
▁시작한다	-17736
▁어머니의	-17737
▁여러차례	-17738
▁영국군은	-17739
▁외교관은	-17740
▁외교정책	-17741
▁우리당은	-17742
▁위태롭게	-17743
▁이동했다	-17744
▁이어갔다	-17745
▁이어지고	-17746
▁이해하고	-17747
▁인신매매	-17748
▁일으키고	-17749
▁장식했다	-17750
▁적대적인	-17751
▁정부군은	-17752
▁제작했다	-17753
▁죽음으로	-17754
▁중국과의	-17755
▁중단해야	-17756
▁중소기업	-17757
▁중앙일보	-17758
▁지도부가	-17759
▁지역에는	-17760
▁지원했다	-17761
▁진행자인	-17762
▁참여하고	-17763
▁촬영했다	-17764
▁축하하기	-17765
▁충격적인	-17766
▁친구들은	-17767
▁크리스틴	-17768
▁판매량이	-17769
▁판사에게	-17770
▁평화로운	-17771
▁포함하는	-17772
▁프랑스로	-17773
▁프랑스에	-17774
▁피해자가	-17775
▁피해자의	-17776
▁핵심적인	-17777
▁현장으로	-17778
▁환자들을	-17779
▁활주로를	-17780
▁회원국이	-17781
▁후보였던	-17782
▁후세인은	-17783
이었습니다	-17784
ritish	-17785
▁Press	-17786
▁claim	-17787
▁관광객들을	-17788
▁구호물품을	-17789
▁근로자들이	-17790
▁기대한다고	-17791
▁다이애나의	-17792
▁당국자들이	-17793
▁레바논에서	-17794
▁마라도나는	-17795
▁모여들었다	-17796
▁무장세력과	-17797
▁북서쪽으로	-17798
▁북아일랜드	-17799
▁불러일으키	-17800
▁비상사태가	-17801
▁사무국장은	-17802
▁석방됐다고	-17803
▁선고받았다	-17804
▁시위자들을	-17805
▁심장마비로	-17806
▁싱가포르의	-17807
▁암스테르담	-17808
▁압도적으로	-17809
▁약속했다고	-17810
▁오래전부터	-17811
▁위원회에서	-17812
▁의미한다고	-17813
▁인플루엔자	-17814
▁전달했다고	-17815
▁조심스럽게	-17816
▁중심부에서	-17817
▁지역에서도	-17818
▁지지자들의	-17819
▁캐나다에서	-17820
▁폭탄테러는	-17821
▁폭탄테러의	-17822
▁플루토늄을	-17823
위원회에서는	-17824
2006.10	-17825
2007.08	-17826
▁people	-17827
▁summit	-17828
▁고속도로에서	-17829
▁공공장소에서	-17830
▁구조대원들은	-17831
▁국경지역에서	-17832
▁마드리드에서	-17833
▁말레이시아의	-17834
▁불가능하다고	-17835
▁소비자들에게	-17836
▁아프리카에서	-17837
▁와인하우스가	-17838
▁이탈리아에서	-17839
▁주식시장에서	-17840
▁크리스티아누	-17841
▁뉴욕상업거래소	-17842
▁리우데자네이루	-17843
▁economic	-17844
▁이슬라마바드에서	-17845
8%	-17846
89	-17847
Al	-17848
DM	-17849
MX	-17850
br	-17851
ye	-17852
▁)	-17853
▁±	-17854
▁州	-17855
▁英	-17856
▁긱	-17857
▁꽂	-17858
▁꽉	-17859
▁랭	-17860
▁얇	-17861
▁왓	-17862
▁윗	-17863
▁챌	-17864
▁캘	-17865
▁켜	-17866
▁탕	-17867
▁흙	-17868
고에	-17869
공원	-17870
구나	-17871
구성	-17872
기준	-17873
나도	-17874
내용	-17875
낸다	-17876
네오	-17877
뉴얼	-17878
대상	-17879
든은	-17880
디치	-17881
란은	-17882
러코	-17883
로윈	-17884
로키	-17885
록을	-17886
롭다	-17887
르노	-17888
르베	-17889
리버	-17890
리안	-17891
린첨	-17892
마을	-17893
만개	-17894
만톤	-17895
반은	-17896
발이	-17897
버락	-17898
버른	-17899
범의	-17900
보관	-17901
보라	-17902
본이	-17903
빨리	-17904
상도	-17905
서비	-17906
서와	-17907
설에	-17908
세서	-17909
셨다	-17910
수이	-17911
실히	-17912
심에	-17913
씨로	-17914
아드	-17915
압을	-17916
애국	-17917
야에	-17918
언더	-17919
에겐	-17920
여년	-17921
열한	-17922
우려	-17923
우지	-17924
운이	-17925
유가	-17926
이미	-17927
이은	-17928
자다	-17929
조지	-17930
종은	-17931
중의	-17932
천히	-17933
총을	-17934
최고	-17935
츠와	-17936
카우	-17937
케는	-17938
코프	-17939
콜롬	-17940
클레	-17941
키마	-17942
킨은	-17943
티리	-17944
평방	-17945
품은	-17946
품의	-17947
프만	-17948
행은	-17949
향의	-17950
헤딘	-17951
화할	-17952
회복	-17953
효율	-17954
CEO	-17955
HCR	-17956
aun	-17957
eas	-17958
hes	-17959
iam	-17960
raw	-17961
ruc	-17962
ted	-17963
ube	-17964
ump	-17965
urd	-17966
▁6%	-17967
▁96	-17968
▁Fl	-17969
▁UC	-17970
▁do	-17971
▁wh	-17972
▁가방	-17973
▁감동	-17974
▁갖지	-17975
▁격분	-17976
▁겪는	-17977
▁결성	-17978
▁경색	-17979
▁계승	-17980
▁고령	-17981
▁고릴	-17982
▁공헌	-17983
▁과실	-17984
▁관통	-17985
▁구직	-17986
▁권위	-17987
▁근접	-17988
▁기내	-17989
▁기적	-17990
▁깨닫	-17991
▁꼬리	-17992
▁꿈이	-17993
▁나눈	-17994
▁나미	-17995
▁내륙	-17996
▁내외	-17997
▁냉소	-17998
▁냉장	-17999
▁넘긴	-18000
▁넘길	-18001
▁넣을	-18002
▁농경	-18003
▁단편	-18004
▁당수	-18005
▁당직	-18006
▁대미	-18007
▁대슐	-18008
▁돌고	-18009
▁됐을	-18010
▁되자	-18011
▁두지	-18012
▁듣게	-18013
▁따르	-18014
▁뚫고	-18015
▁래드	-18016
▁랜디	-18017
▁러브	-18018
▁로게	-18019
▁루머	-18020
▁루터	-18021
▁룰라	-18022
▁리츠	-18023
▁마우	-18024
▁만드	-18025
▁말씀	-18026
▁무패	-18027
▁바꾼	-18028
▁배에	-18029
▁법사	-18030
▁법은	-18031
▁보라	-18032
▁본질	-18033
▁봤을	-18034
▁부지	-18035
▁부터	-18036
▁부합	-18037
▁분개	-18038
▁불고	-18039
▁불량	-18040
▁비관	-18041
▁비축	-18042
▁비키	-18043
▁빚을	-18044
▁산시	-18045
▁살레	-18046
▁생생	-18047
▁생선	-18048
▁속도	-18049
▁스즈	-18050
▁슬픈	-18051
▁시모	-18052
▁시술	-18053
▁시합	-18054
▁신혼	-18055
▁신흥	-18056
▁십년	-18057
▁쌓여	-18058
▁아델	-18059
▁아웃	-18060
▁아쿠	-18061
▁아타	-18062
▁안된	-18063
▁알릴	-18064
▁알메	-18065
▁압승	-18066
▁야만	-18067
▁양을	-18068
▁어스	-18069
▁어지	-18070
▁엄격	-18071
▁에비	-18072
▁열광	-18073
▁영사	-18074
▁예의	-18075
▁오웬	-18076
▁와코	-18077
▁외설	-18078
▁요트	-18079
▁용서	-18080
▁용이	-18081
▁원동	-18082
▁위배	-18083
▁의대	-18084
▁이룰	-18085
▁이맘	-18086
▁이의	-18087
▁인접	-18088
▁자페	-18089
▁자폭	-18090
▁잠깐	-18091
▁잠들	-18092
▁장병	-18093
▁전락	-18094
▁전한	-18095
▁정계	-18096
▁정복	-18097
▁제레	-18098
▁제마	-18099
▁조롱	-18100
▁주모	-18101
▁주와	-18102
▁주행	-18103
▁죽이	-18104
▁중개	-18105
▁집값	-18106
▁찍어	-18107
▁철폐	-18108
▁청산	-18109
▁추돌	-18110
▁추억	-18111
▁추운	-18112
▁추후	-18113
▁츠방	-18114
▁칸은	-18115
▁컨설	-18116
▁퀘벡	-18117
▁클랩	-18118
▁키팅	-18119
▁타개	-18120
▁타바	-18121
▁탈세	-18122
▁톤의	-18123
▁트랙	-18124
▁티나	-18125
▁팔로	-18126
▁퍼붓	-18127
▁포크	-18128
▁피그	-18129
▁하노	-18130
▁하라	-18131
▁하르	-18132
▁하우	-18133
▁한해	-18134
▁합쳐	-18135
▁해온	-18136
▁햇볕	-18137
▁헤엄	-18138
▁회전	-18139
▁휠체	-18140
▁흉내	-18141
▁흔히	-18142
▁흡입	-18143
그들의	-18144
그리고	-18145
기관은	-18146
기구인	-18147
느냐는	-18148
는다면	-18149
다코타	-18150
데일리	-18151
등고래	-18152
때보다	-18153
라리온	-18154
랜드의	-18155
로에서	-18156
명령을	-18157
명하게	-18158
밀하게	-18159
발적인	-18160
베이스	-18161
비치가	-18162
사드르	-18163
사들을	-18164
사르코	-18165
섰다고	-18166
시드르	-18167
시장을	-18168
심각한	-18169
언론은	-18170
업체에	-18171
위원은	-18172
위츠는	-18173
으로도	-18174
의원은	-18175
자원부	-18176
재판소	-18177
전세계	-18178
정보를	-18179
중국의	-18180
즈에서	-18181
치료를	-18182
코리아	-18183
타니아	-18184
테러범	-18185
트로스	-18186
해지는	-18187
행위로	-18188
협상을	-18189
회의는	-18190
(26)	-18191
lect	-18192
line	-18193
omes	-18194
pect	-18195
ppos	-18196
ures	-18197
▁1.2	-18198
▁107	-18199
▁11%	-18200
▁16%	-18201
▁35%	-18202
▁550	-18203
▁ABN	-18204
▁ISS	-18205
▁Mic	-18206
▁Two	-18207
▁UMP	-18208
▁bet	-18209
▁env	-18210
▁mar	-18211
▁rev	-18212
▁six	-18213
▁sur	-18214
▁tax	-18215
▁가득한	-18216
▁가정을	-18217
▁간단히	-18218
▁강원도	-18219
▁개막식	-18220
▁개인적	-18221
▁개최를	-18222
▁거리의	-18223
▁건강검	-18224
▁결승에	-18225
▁결승전	-18226
▁경영자	-18227
▁계기로	-18228
▁고고학	-18229
▁고유가	-18230
▁공상과	-18231
▁관람객	-18232
▁관리인	-18233
▁광우병	-18234
▁교육부	-18235
▁교통부	-18236
▁교회는	-18237
▁구성에	-18238
▁구성원	-18239
▁국가적	-18240
▁국경에	-18241
▁국민은	-18242
▁국왕의	-18243
▁군대에	-18244
▁군부는	-18245
▁군부의	-18246
▁권총을	-18247
▁그려진	-18248
▁그린존	-18249
▁기관은	-18250
▁기록은	-18251
▁기록할	-18252
▁기사는	-18253
▁기숙사	-18254
▁기술로	-18255
▁기한을	-18256
▁나라에	-18257
▁나아갈	-18258
▁나이키	-18259
▁내리기	-18260
▁내용도	-18261
▁냄새가	-18262
▁노력은	-18263
▁노벨상	-18264
▁노인성	-18265
▁높이기	-18266
▁높이는	-18267
▁누구나	-18268
▁뉴스가	-18269
▁느끼게	-18270
▁다루고	-18271
▁다리에	-18272
▁다비드	-18273
▁단계로	-18274
▁단체로	-18275
▁달성할	-18276
▁대사와	-18277
▁대사의	-18278
▁대우를	-18279
▁대처할	-18280
▁대체로	-18281
▁도메인	-18282
▁도왔다	-18283
▁도움의	-18284
▁되도록	-18285
▁드라이	-18286
▁때때로	-18287
▁라이더	-18288
▁레이드	-18289
▁레이크	-18290
▁르완다	-18291
▁리스트	-18292
▁리투아	-18293
▁마가렛	-18294
▁만나게	-18295
▁만토바	-18296
▁만화를	-18297
▁망원경	-18298
▁맞교환	-18299
▁머리가	-18300
▁메신저	-18301
▁멜버른	-18302
▁모두의	-18303
▁모레스	-18304
▁모색할	-18305
▁모자를	-18306
▁못했을	-18307
▁무력을	-18308
▁무릎을	-18309
▁무조건	-18310
▁문제도	-18311
▁문화의	-18312
▁물질의	-18313
▁물체가	-18314
▁미스터	-18315
▁미연방	-18316
▁미프로	-18317
▁바다위	-18318
▁바쿠바	-18319
▁박사와	-18320
▁박수를	-18321
▁박차를	-18322
▁방에서	-18323
▁배후로	-18324
▁벌인다	-18325
▁법으로	-18326
▁병사를	-18327
▁보고에	-18328
▁보안이	-18329
▁보트를	-18330
▁볼드윈	-18331
▁부대의	-18332
▁부문의	-18333
▁부위에	-18334
▁부채를	-18335
▁분노한	-18336
▁분쟁에	-18337
▁붕괴로	-18338
▁비자금	-18339
▁비정상	-18340
▁사무차	-18341
▁사업가	-18342
▁사이먼	-18343
▁사형이	-18344
▁사형제	-18345
▁살리기	-18346
▁생산이	-18347
▁서서히	-18348
▁서울을	-18349
▁서한을	-18350
▁선보일	-18351
▁선수인	-18352
▁성명에	-18353
▁세력에	-18354
▁세력은	-18355
▁세우는	-18356
▁섹시한	-18357
▁소속된	-18358
▁소요될	-18359
▁속도가	-18360
▁순례객	-18361
▁순식간	-18362
▁숨겨진	-18363
▁스타인	-18364
▁승리에	-18365
▁승리의	-18366
▁승용차	-18367
▁시간당	-18368
▁시대의	-18369
▁시도가	-18370
▁시민권	-18371
▁시설의	-18372
▁시위의	-18373
▁시켰다	-18374
▁신문을	-18375
▁심리가	-18376
▁심리학	-18377
▁심의를	-18378
▁아래로	-18379
▁아마드	-18380
▁아시프	-18381
▁안보와	-18382
▁알라헴	-18383
▁압력에	-18384
▁애도를	-18385
▁애슐리	-18386
▁양상을	-18387
▁언론인	-18388
▁없으나	-18389
▁에드로	-18390
▁엘리엇	-18391
▁연계된	-18392
▁영향에	-18393
▁옆에서	-18394
▁오르지	-18395
▁올랐고	-18396
▁요금을	-18397
▁우세를	-18398
▁운동에	-18399
▁원인에	-18400
▁위협은	-18401
▁윌슨은	-18402
▁유발할	-18403
▁유치를	-18404
▁은퇴를	-18405
▁의무가	-18406
▁의미로	-18407
▁의식이	-18408
▁이익이	-18409
▁인류가	-18410
▁인수가	-18411
▁일했던	-18412
▁임신을	-18413
▁있느냐	-18414
▁자녀가	-18415
▁자유당	-18416
▁자치구	-18417
▁작곡가	-18418
▁잔해를	-18419
▁잭슨의	-18420
▁전국에	-18421
▁전쟁은	-18422
▁정당한	-18423
▁정보국	-18424
▁정치를	-18425
▁정했다	-18426
▁제안은	-18427
▁조그만	-18428
▁조명을	-18429
▁조세프	-18430
▁조속히	-18431
▁조용한	-18432
▁조직에	-18433
▁죽음과	-18434
▁죽음의	-18435
▁중동의	-18436
▁중질유	-18437
▁증가를	-18438
▁지금도	-18439
▁지금이	-18440
▁지시한	-18441
▁지었다	-18442
▁지출이	-18443
▁진료를	-18444
▁징후가	-18445
▁차세대	-18446
▁찾아온	-18447
▁처해질	-18448
▁천천히	-18449
▁청문회	-18450
[...]
