<pad>	0
<s>	0
</s>	0
<unk>	0
▁t	-0
▁a	-1
he	-2
in	-3
▁s	-4
▁the	-5
re	-6
on	-7
er	-8
▁w	-9
▁c	-10
▁.	-11
▁,	-12
▁o	-13
en	-14
▁p	-15
▁b	-16
ed	-17
an	-18
at	-19
▁f	-20
or	-21
▁m	-22
it	-23
es	-24
▁in	-25
is	-26
ar	-27
ing	-28
▁to	-29
▁h	-30
al	-31
▁an	-32
▁of	-33
▁d	-34
ou	-35
as	-36
ic	-37
id	-38
▁n	-39
le	-40
▁and	-41
ion	-42
ro	-43
il	-44
▁th	-45
ent	-46
▁re	-47
▁l	-48
▁g	-49
▁e	-50
ay	-51
om	-52
▁be	-53
▁u	-54
ve	-55
st	-56
ad	-57
ut	-58
▁on	-59
▁st	-60
▁sa	-61
▁for	-62
ol	-63
ir	-64
▁he	-65
ter	-66
ur	-67
ac	-68
▁k	-69
im	-70
▁said	-71
ig	-72
ly	-73
am	-74
ot	-75
▁de	-76
ation	-77
▁is	-78
ver	-79
▁that	-80
ill	-81
▁r	-82
▁we	-83
▁it	-84
ore	-85
ow	-86
ct	-87
se	-88
▁se	-89
ld	-90
▁wh	-91
th	-92
▁at	-93
▁as	-94
ce	-95
▁was	-96
▁y	-97
▁j	-98
▁al	-99
ith	-100
▁ch	-101
▁ne	-102
▁con	-103
▁with	-104
un	-105
us	-106
oun	-107
ts	-108
ment	-109
ers	-110
▁1	-111
res	-112
▁pro	-113
day	-114
op	-115
▁v	-116
ate	-117
et	-118
ak	-119
ch	-120
est	-121
her	-122
ul	-123
▁com	-124
ri	-125
ain	-126
ist	-127
and	-128
▁un	-129
▁le	-130
el	-131
ap	-132
ave	-133
rom	-134
ag	-135
▁2	-136
▁sh	-137
▁from	-138
▁by	-139
os	-140
igh	-141
ial	-142
if	-143
ort	-144
▁has	-145
▁sp	-146
▁af	-147
▁su	-148
ast	-149
▁are	-150
ear	-151
▁off	-152
▁ex	-153
▁have	-154
▁his	-155
ity	-156
red	-157
art	-158
00	-159
▁go	-160
ies	-161
pp	-162
▁ab	-163
ice	-164
oc	-165
out	-166
ould	-167
▁pres	-168
ding	-169
▁but	-170
▁tr	-171
our	-172
▁year	-173
▁were	-174
ident	-175
ab	-176
▁will	-177
ack	-178
▁ar	-179
▁not	-180
▁rep	-181
um	-182
▁ag	-183
ong	-184
ian	-185
em	-186
ive	-187
qu	-188
▁pl	-189
ia	-190
all	-191
▁who	-192
od	-193
▁kore	-194
▁pol	-195
▁wor	-196
ary	-197
ess	-198
▁pe	-199
iv	-200
▁or	-201
cc	-202
▁new	-203
end	-204
gh	-205
ie	-206
ect	-207
▁cl	-208
▁after	-209
ry	-210
▁mon	-211
▁they	-212
▁whe	-213
ight	-214
ust	-215
ok	-216
ome	-217
▁had	-218
ren	-219
ich	-220
mer	-221
ide	-222
ost	-223
ge	-224
ud	-225
▁been	-226
▁ro	-227
ra	-228
▁min	-229
ard	-230
ound	-231
ant	-232
▁president	-233
ther	-234
▁i	-235
▁its	-236
▁offic	-237
▁tw	-238
▁ir	-239
▁peop	-240
▁this	-241
▁people	-242
▁res	-243
▁their	-244
ount	-245
▁int	-246
▁about	-247
▁out	-248
▁ad	-249
ber	-250
ated	-251
▁more	-252
▁pr	-253
vern	-254
ign	-255
ine	-256
▁me	-257
ime	-258
▁say	-259
ree	-260
ke	-261
ions	-262
▁two	-263
▁part	-264
▁govern	-265
▁exp	-266
▁en	-267
▁3	-268
▁per	-269
uc	-270
▁sec	-271
ans	-272
▁acc	-273
▁inc	-274
▁her	-275
▁comp	-276
▁dis	-277
ks	-278
▁up	-279
ous	-280
ace	-281
▁which	-282
▁nor	-283
▁she	-284
der	-285
▁mil	-286
ations	-287
esday	-288
▁official	-289
▁man	-290
▁all	-291
▁over	-292
iz	-293
▁one	-294
▁cont	-295
ough	-296
▁government	-297
so	-298
ates	-299
▁att	-300
age	-301
▁would	-302
pt	-303
▁gr	-304
▁mar	-305
ib	-306
ip	-307
▁br	-308
▁state	-309
man	-310
▁than	-311
▁count	-312
▁korea	-313
cent	-314
▁te	-315
nn	-316
▁inter	-317
▁cnn	-318
▁also	-319
▁north	-320
▁us	-321
ational	-322
ors	-323
ub	-324
▁cr	-325
own	-326
▁other	-327
ass	-328
ang	-329
ure	-330
▁5	-331
av	-332
▁do	-333
▁im	-334
ical	-335
▁comm	-336
▁sc	-337
ake	-338
▁fir	-339
aq	-340
ters	-341
ff	-342
▁200	-343
ue	-344
▁police	-345
ile	-346
ite	-347
▁last	-348
▁no	-349
▁iraq	-350
au	-351
ail	-352
▁day	-353
▁ind	-354
▁can	-355
hed	-356
outh	-357
ish	-358
▁when	-359
ict	-360
▁mo	-361
lo	-362
▁milit	-363
ire	-364
▁4	-365
ition	-366
▁jo	-367
ited	-368
ence	-369
▁some	-370
▁first	-371
▁qu	-372
▁lead	-373
aw	-374
▁so	-375
▁south	-376
▁app	-377
▁there	-378
ond	-379
▁dem	-380
illion	-381
▁wee	-382
ton	-383
▁am	-384
▁car	-385
ll	-386
▁co	-387
▁report	-388
▁inv	-389
▁bus	-390
lect	-391
ase	-392
iss	-393
▁into	-394
▁fr	-395
ince	-396
act	-397
ade	-398
ied	-399
▁kill	-400
▁19	-401
▁cam	-402
▁chin	-403
▁bec	-404
▁ev	-405
one	-406
▁ser	-407
▁war	-408
ning	-409
▁ear	-410
og	-411
▁bl	-412
▁dec	-413
enc	-414
▁told	-415
lic	-416
▁op	-417
ep	-418
▁fin	-419
oup	-420
ose	-421
ell	-422
ned	-423
lear	-424
ved	-425
▁work	-426
▁tal	-427
ru	-428
▁sun	-429
ress	-430
▁years	-431
▁6	-432
▁call	-433
ance	-434
▁time	-435
▁fe	-436
▁pre	-437
li	-438
▁ob	-439
▁bo	-440
▁li	-441
▁world	-442
▁percent	-443
ens	-444
old	-445
▁officials	-446
ater	-447
ally	-448
▁00	-449
▁par	-450
▁again	-451
are	-452
▁month	-453
▁week	-454
▁elect	-455
itt	-456
ities	-457
▁000	-458
ces	-459
▁accor	-460
we	-461
▁act	-462
▁them	-463
very	-464
row	-465
▁could	-466
▁united	-467
▁fl	-468
▁under	-469
▁rec	-470
▁country	-471
ec	-472
▁you	-473
fe	-474
▁according	-475
ey	-476
▁if	-477
▁incl	-478
▁korean	-479
ister	-480
▁three	-481
▁military	-482
oll	-483
▁tu	-484
urs	-485
reat	-486
▁bet	-487
orts	-488
ons	-489
▁monday	-490
ach	-491
▁tuesday	-492
ese	-493
▁party	-494
ild	-495
orm	-496
▁imp	-497
▁air	-498
ected	-499
istan	-500
ama	-501
ked	-502
▁wed	-503
▁news	-504
ath	-505
ause	-506
▁kn	-507
arg	-508
▁sen	-509
▁national	-510
▁cent	-511
uring	-512
▁sur	-513
▁ter	-514
▁attack	-515
▁spok	-516
▁cons	-517
▁reg	-518
▁states	-519
▁intern	-520
▁plan	-521
▁minister	-522
▁ass	-523
ah	-524
ital	-525
vers	-526
▁lo	-527
ft	-528
▁just	-529
▁group	-530
ult	-531
▁supp	-532
▁wedn	-533
▁wednesday	-534
fore	-535
▁sunday	-536
▁8	-537
ory	-538
able	-539
▁old	-540
meric	-541
▁says	-542
▁americ	-543
▁him	-544
ublic	-545
▁down	-546
ased	-547
land	-548
▁fore	-549
▁may	-550
▁million	-551
▁aut	-552
▁against	-553
leg	-554
▁since	-555
▁rem	-556
▁dep	-557
▁before	-558
▁rel	-559
▁most	-560
▁ban	-561
rat	-562
ency	-563
▁killed	-564
apan	-565
▁near	-566
▁what	-567
▁japan	-568
▁cap	-569
ious	-570
▁win	-571
▁law	-572
▁any	-573
med	-574
ouse	-575
▁china	-576
▁gen	-577
▁back	-578
▁ann	-579
▁where	-580
▁show	-581
▁prov	-582
▁mem	-583
uclear	-584
▁spokes	-585
▁em	-586
con	-587
▁now	-588
app	-589
uss	-590
▁bush	-591
▁like	-592
▁how	-593
du	-594
ists	-595
ents	-596
▁ac	-597
▁end	-598
▁nuclear	-599
▁secur	-600
ced	-601
int	-602
▁invest	-603
ix	-604
▁des	-605
▁str	-606
▁prot	-607
ursday	-608
▁thursday	-609
rop	-610
▁city	-611
▁ph	-612
▁reported	-613
▁former	-614
ings	-615
▁med	-616
way	-617
▁security	-618
gan	-619
▁because	-620
led	-621
ord	-622
▁during	-623
▁made	-624
▁po	-625
▁democ	-626
aking	-627
▁z	-628
king	-629
▁only	-630
wn	-631
▁tur	-632
▁obama	-633
▁ap	-634
az	-635
▁ins	-636
ween	-637
ered	-638
rest	-639
vel	-640
▁four	-641
▁between	-642
▁bel	-643
▁cour	-644
▁bu	-645
ants	-646
▁inf	-647
conom	-648
▁while	-649
▁econom	-650
gr	-651
hing	-652
▁thr	-653
▁gu	-654
other	-655
air	-656
ame	-657
orn	-658
▁brit	-659
▁10	-660
▁ret	-661
▁bar	-662
ating	-663
▁col	-664
▁high	-665
▁def	-666
▁found	-667
▁many	-668
▁my	-669
▁miss	-670
▁being	-671
▁ma	-672
▁house	-673
omb	-674
▁compan	-675
ood	-676
▁wom	-677
ution	-678
▁camp	-679
oss	-680
ick	-681
eral	-682
▁add	-683
▁child	-684
hor	-685
▁meet	-686
▁get	-687
▁tri	-688
▁vis	-689
▁sm	-690
uding	-691
▁through	-692
rent	-693
▁rele	-694
▁hel	-695
▁called	-696
ops	-697
▁sy	-698
▁conf	-699
ments	-700
▁author	-701
ral	-702
▁fam	-703
ower	-704
ai	-705
▁including	-706
▁ref	-707
▁vi	-708
ision	-709
▁stud	-710
▁mus	-711
ert	-712
▁run	-713
▁long	-714
▁our	-715
▁head	-716
und	-717
▁eu	-718
ared	-719
▁spokesman	-720
▁mu	-721
▁opp	-722
ands	-723
▁tro	-724
anc	-725
▁press	-726
▁did	-727
ret	-728
les	-729
▁foreign	-730
xt	-731
ork	-732
▁ve	-733
▁international	-734
duct	-735
▁polit	-736
▁set	-737
ily	-738
▁bro	-739
als	-740
ward	-741
ee	-742
▁democrat	-743
▁won	-744
ife	-745
ric	-746
▁disc	-747
▁six	-748
min	-749
ung	-750
ange	-751
bers	-752
olog	-753
▁help	-754
▁9	-755
▁home	-756
▁days	-757
ester	-758
▁play	-759
ling	-760
used	-761
▁pak	-762
▁eff	-763
ise	-764
▁statement	-765
▁see	-766
▁death	-767
me	-768
ss	-769
ble	-770
▁eng	-771
▁che	-772
▁conc	-773
▁five	-774
▁pakistan	-775
▁clin	-776
▁20	-777
▁take	-778
▁iss	-779
ful	-780
ized	-781
▁second	-782
▁sch	-783
▁resp	-784
ms	-785
▁prime	-786
oul	-787
atur	-788
▁public	-789
rael	-790
▁terr	-791
▁still	-792
▁israel	-793
hern	-794
imes	-795
▁way	-796
▁least	-797
▁court	-798
ives	-799
▁troops	-800
▁those	-801
▁sus	-802
ief	-803
▁next	-804
▁sl	-805
▁num	-806
▁even	-807
▁bot	-808
▁loc	-809
▁serv	-810
ying	-811
▁open	-812
ries	-813
ting	-814
▁investig	-815
▁make	-816
io	-817
sel	-818
▁reports	-819
▁talks	-820
ual	-821
▁afgh	-822
▁maj	-823
▁announ	-824
ind	-825
▁susp	-826
▁iran	-827
iday	-828
gg	-829
iew	-830
▁hour	-831
▁afghan	-832
▁minist	-833
▁viol	-834
▁bomb	-835
▁vot	-836
▁need	-837
ven	-838
ics	-839
▁clinton	-840
ns	-841
gram	-842
ices	-843
▁around	-844
ross	-845
▁contin	-846
att	-847
▁program	-848
ivers	-849
▁vict	-850
istr	-851
▁ra	-852
▁ministry	-853
osed	-854
▁pal	-855
ures	-856
ady	-857
per	-858
▁top	-859
▁hum	-860
▁oper	-861
ool	-862
▁american	-863
▁want	-864
▁recent	-865
ink	-866
▁start	-867
▁ke	-868
ible	-869
ket	-870
▁leader	-871
ior	-872
▁russ	-873
▁seoul	-874
ather	-875
ollow	-876
▁another	-877
oci	-878
▁cor	-879
ages	-880
▁visit	-881
▁put	-882
ained	-883
▁then	-884
ians	-885
▁follow	-886
▁sign	-887
ash	-888
▁should	-889
▁dire	-890
▁ge	-891
▁det	-892
▁such	-893
ute	-894
▁major	-895
▁dead	-896
ody	-897
osp	-898
▁commun	-899
▁washing	-900
osition	-901
▁trans	-902
▁washington	-903
▁forces	-904
▁contro	-905
▁direct	-906
▁la	-907
▁sold	-908
▁belie	-909
▁mor	-910
▁fire	-911
▁agency	-912
ism	-913
▁joh	-914
▁saying	-915
▁expected	-916
▁far	-917
te	-918
ense	-919
▁retur	-920
▁members	-921
▁children	-922
▁every	-923
▁support	-924
▁big	-925
▁ed	-926
▁don	-927
▁spec	-928
▁company	-929
atch	-930
▁pers	-931
▁cond	-932
▁died	-933
ale	-934
▁power	-935
▁presidential	-936
aim	-937
▁chief	-938
ative	-939
feren	-940
▁pass	-941
▁sever	-942
▁secret	-943
ph	-944
oot	-945
▁pa	-946
alth	-947
ights	-948
▁authorities	-949
▁dr	-950
aster	-951
▁office	-952
ility	-953
ner	-954
▁earli	-955
hip	-956
aign	-957
ought	-958
▁nation	-959
▁well	-960
hes	-961
ving	-962
▁political	-963
▁main	-964
ull	-965
ular	-966
▁very	-967
▁satur	-968
▁campaign	-969
▁friday	-970
▁30	-971
▁199	-972
ament	-973
▁iraqi	-974
▁several	-975
▁coun	-976
▁fil	-977
ird	-978
▁york	-979
▁cur	-980
▁est	-981
▁rest	-982
▁saturday	-983
▁arrest	-984
ins	-985
ient	-986
▁ext	-987
ark	-988
▁ca	-989
▁earlier	-990
▁leaders	-991
▁inst	-992
▁british	-993
ured	-994
rope	-995
▁both	-996
▁europe	-997
arch	-998
▁sent	-999
▁terror	-1000
▁ent	-1001
ger	-1002
▁left	-1003
▁early	-1004
ged	-1005
ock	-1006
▁good	-1007
▁billion	-1008
ier	-1009
rib	-1010
▁hop	-1011
▁democratic	-1012
▁arm	-1013
▁sub	-1014
▁crit	-1015
amp	-1016
▁15	-1017
▁look	-1018
▁times	-1019
▁leg	-1020
▁chinese	-1021
▁school	-1022
▁art	-1023
▁countries	-1024
▁pop	-1025
▁bank	-1026
ene	-1027
orters	-1028
ug	-1029
▁deal	-1030
▁hal	-1031
▁know	-1032
cess	-1033
▁inj	-1034
arge	-1035
▁women	-1036
▁sw	-1037
▁wr	-1038
▁11	-1039
▁mcc	-1040
▁election	-1041
ty	-1042
reed	-1043
▁bur	-1044
▁kim	-1045
▁meeting	-1046
▁bag	-1047
▁months	-1048
▁12	-1049
▁hosp	-1050
▁spe	-1051
▁took	-1052
artment	-1053
▁white	-1054
▁number	-1055
▁ce	-1056
▁pri	-1057
gress	-1058
▁came	-1059
▁claim	-1060
▁hospital	-1061
▁tak	-1062
▁expl	-1063
▁family	-1064
▁capital	-1065
ator	-1066
▁incre	-1067
▁move	-1068
▁later	-1069
ines	-1070
▁dif	-1071
ued	-1072
ific	-1073
port	-1074
▁among	-1075
▁peace	-1076
gin	-1077
▁hol	-1078
▁neg	-1079
▁rul	-1080
▁cre	-1081
▁night	-1082
gy	-1083
ison	-1084
▁general	-1085
▁associ	-1086
▁organ	-1087
velop	-1088
▁poss	-1089
▁sout	-1090
▁har	-1091
▁prev	-1092
ov	-1093
ony	-1094
ided	-1095
▁ste	-1096
▁tele	-1097
▁used	-1098
▁sum	-1099
▁human	-1100
lam	-1101
▁cand	-1102
▁civ	-1103
▁pen	-1104
▁area	-1105
uel	-1106
▁aff	-1107
▁going	-1108
ised	-1109
▁cal	-1110
▁own	-1111
▁buil	-1112
▁team	-1113
▁men	-1114
▁grow	-1115
▁threat	-1116
▁tour	-1117
▁mid	-1118
ij	-1119
▁q	-1120
ched	-1121
▁lee	-1122
▁alleg	-1123
▁john	-1124
▁rese	-1125
ls	-1126
ues	-1127
▁fed	-1128
▁much	-1129
to	-1130
side	-1131
line	-1132
▁oil	-1133
▁charg	-1134
ude	-1135
▁health	-1136
up	-1137
ted	-1138
▁aust	-1139
▁develop	-1140
▁prom	-1141
▁person	-1142
icle	-1143
▁univers	-1144
ified	-1145
uck	-1146
▁host	-1147
▁ago	-1148
ened	-1149
▁san	-1150
mber	-1151
ys	-1152
ests	-1153
▁ant	-1154
▁fac	-1155
▁allow	-1156
▁region	-1157
estin	-1158
▁past	-1159
▁hit	-1160
stem	-1161
▁star	-1162
hd	-1163
▁den	-1164
ference	-1165
▁nort	-1166
▁site	-1167
sec	-1168
ves	-1169
▁ger	-1170
▁sim	-1171
iness	-1172
▁life	-1173
ones	-1174
iers	-1175
▁held	-1176
▁islam	-1177
▁concer	-1178
ains	-1179
▁adv	-1180
▁candid	-1181
▁secretary	-1182
▁system	-1183
▁post	-1184
ired	-1185
▁free	-1186
loy	-1187
ames	-1188
▁ur	-1189
▁same	-1190
▁based	-1191
▁think	-1192
ax	-1193
ject	-1194
▁invol	-1195
▁committ	-1196
▁civil	-1197
▁announced	-1198
▁dri	-1199
thing	-1200
▁vide	-1201
▁test	-1202
▁admin	-1203
▁department	-1204
ont	-1205
▁fight	-1206
▁place	-1207
▁economic	-1208
▁released	-1209
acy	-1210
▁pat	-1211
▁hill	-1212
ention	-1213
▁opposition	-1214
▁hom	-1215
▁case	-1216
▁media	-1217
bal	-1218
▁use	-1219
▁center	-1220
▁water	-1221
ness	-1222
▁sit	-1223
▁third	-1224
▁proble	-1225
▁el	-1226
cept	-1227
▁unt	-1228
ruct	-1229
▁prop	-1230
▁stri	-1231
▁const	-1232
▁50	-1233
▁agree	-1234
▁hours	-1235
ize	-1236
▁jun	-1237
▁hy	-1238
▁few	-1239
▁today	-1240
ck	-1241
ondon	-1242
▁london	-1243
riend	-1244
aring	-1245
▁record	-1246
▁market	-1247
iban	-1248
▁half	-1249
▁right	-1250
▁nearly	-1251
▁hand	-1252
▁tech	-1253
ds	-1254
aff	-1255
▁decl	-1256
▁local	-1257
▁quest	-1258
▁attacks	-1259
▁whether	-1260
▁palestin	-1261
view	-1262
▁inform	-1263
▁business	-1264
▁roh	-1265
▁republic	-1266
▁gre	-1267
▁baghd	-1268
▁close	-1269
▁100	-1270
aly	-1271
ides	-1272
▁bre	-1273
▁taliban	-1274
▁without	-1275
▁afghanistan	-1276
its	-1277
iate	-1278
▁del	-1279
aving	-1280
▁baghdad	-1281
▁late	-1282
▁these	-1283
▁university	-1284
▁strong	-1285
▁negot	-1286
▁until	-1287
▁workers	-1288
co	-1289
ended	-1290
▁bill	-1291
▁cut	-1292
▁defense	-1293
ats	-1294
▁glo	-1295
▁morning	-1296
▁25	-1297
head	-1298
▁led	-1299
ering	-1300
iting	-1301
▁emer	-1302
▁disp	-1303
▁prosec	-1304
amed	-1305
▁others	-1306
▁0	-1307
omin	-1308
▁stop	-1309
▁red	-1310
▁your	-1311
▁nations	-1312
▁come	-1313
ik	-1314
mp	-1315
▁requ	-1316
▁yester	-1317
▁yesterday	-1318
▁ang	-1319
aining	-1320
▁army	-1321
▁weap	-1322
▁conv	-1323
▁austral	-1324
▁chr	-1325
▁ris	-1326
▁geor	-1327
▁taken	-1328
bs	-1329
▁space	-1330
▁er	-1331
ators	-1332
▁step	-1333
▁appro	-1334
▁miles	-1335
▁german	-1336
augh	-1337
▁force	-1338
▁beij	-1339
▁youn	-1340
▁prof	-1341
▁short	-1342
▁trave	-1343
▁beijing	-1344
▁il	-1345
▁along	-1346
istration	-1347
▁vo	-1348
▁town	-1349
▁plans	-1350
ually	-1351
ever	-1352
rench	-1353
▁japanese	-1354
ived	-1355
▁emb	-1356
▁kid	-1357
▁met	-1358
▁province	-1359
▁does	-1360
ission	-1361
▁parli	-1362
▁polic	-1363
▁comple	-1364
▁organiz	-1365
▁dam	-1366
▁laun	-1367
self	-1368
ury	-1369
▁best	-1370
▁thous	-1371
▁parliament	-1372
by	-1373
▁product	-1374
▁service	-1375
▁13	-1376
▁bor	-1377
▁jud	-1378
▁clear	-1379
▁building	-1380
aged	-1381
▁sing	-1382
ounded	-1383
ky	-1384
ished	-1385
▁away	-1386
▁food	-1387
▁stand	-1388
ready	-1389
ove	-1390
▁began	-1391
pped	-1392
▁larg	-1393
▁indust	-1394
▁rights	-1395
▁18	-1396
ban	-1397
▁sour	-1398
▁known	-1399
ims	-1400
ium	-1401
▁jan	-1402
▁sex	-1403
▁trad	-1404
▁french	-1405
▁decision	-1406
▁soldiers	-1407
raw	-1408
ason	-1409
▁negoti	-1410
▁central	-1411
▁vote	-1412
▁confir	-1413
▁economy	-1414
▁sal	-1415
▁activ	-1416
▁financ	-1417
▁already	-1418
▁appe	-1419
els	-1420
▁py	-1421
▁beh	-1422
▁administration	-1423
▁hist	-1424
▁money	-1425
ney	-1426
mb	-1427
▁happ	-1428
▁mass	-1429
▁southern	-1430
ield	-1431
▁fail	-1432
▁land	-1433
▁conference	-1434
▁keep	-1435
▁es	-1436
▁gir	-1437
ined	-1438
▁small	-1439
▁14	-1440
▁ju	-1441
▁sn	-1442
utes	-1443
ology	-1444
aper	-1445
▁tot	-1446
▁wal	-1447
▁weeks	-1448
iving	-1449
▁violence	-1450
▁march	-1451
▁env	-1452
▁rece	-1453
▁prison	-1454
▁lat	-1455
▁exper	-1456
gency	-1457
▁level	-1458
har	-1459
▁each	-1460
▁mccain	-1461
▁however	-1462
ety	-1463
ards	-1464
▁video	-1465
▁militants	-1466
▁char	-1467
▁fund	-1468
▁woman	-1469
▁aid	-1470
▁vir	-1471
▁eight	-1472
ump	-1473
▁16	-1474
▁discuss	-1475
▁web	-1476
▁release	-1477
cil	-1478
ints	-1479
▁lab	-1480
str	-1481
▁av	-1482
▁hot	-1483
▁attem	-1484
▁thousands	-1485
▁40	-1486
▁let	-1487
▁return	-1488
▁arrested	-1489
▁deb	-1490
▁exec	-1491
▁relations	-1492
▁gas	-1493
▁russia	-1494
▁financial	-1495
▁information	-1496
▁east	-1497
▁article	-1498
▁killing	-1499
▁across	-1500
▁face	-1501
▁techn	-1502
▁asked	-1503
▁arri	-1504
▁demand	-1505
▁christ	-1506
▁current	-1507
avy	-1508
oon	-1509
idence	-1510
▁northern	-1511
▁ham	-1512
▁young	-1513
▁weapons	-1514
oo	-1515
erv	-1516
▁prices	-1517
▁22	-1518
yang	-1519
▁agreement	-1520
ae	-1521
▁black	-1522
sh	-1523
ina	-1524
mak	-1525
▁reb	-1526
eda	-1527
▁issue	-1528
▁mal	-1529
▁pay	-1530
▁here	-1531
▁real	-1532
▁ident	-1533
▁seven	-1534
▁change	-1535
▁gun	-1536
▁fact	-1537
olution	-1538
▁qa	-1539
less	-1540
▁european	-1541
mar	-1542
▁cas	-1543
estern	-1544
▁friend	-1545
▁students	-1546
▁britain	-1547
▁israeli	-1548
go	-1549
▁telev	-1550
▁control	-1551
▁form	-1552
▁fur	-1553
▁key	-1554
▁trade	-1555
▁largest	-1556
▁large	-1557
▁making	-1558
ically	-1559
▁afric	-1560
ried	-1561
▁body	-1562
▁port	-1563
▁point	-1564
▁elections	-1565
▁palestinian	-1566
▁coup	-1567
▁qaeda	-1568
son	-1569
▁seen	-1570
▁alleged	-1571
get	-1572
▁rad	-1573
▁final	-1574
▁internet	-1575
▁ri	-1576
▁cost	-1577
▁following	-1578
▁desp	-1579
▁film	-1580
▁inte	-1581
ending	-1582
▁agreed	-1583
▁outside	-1584
ects	-1585
▁foot	-1586
ongyang	-1587
oy	-1588
rem	-1589
▁bas	-1590
▁hold	-1591
▁park	-1592
▁added	-1593
▁import	-1594
▁flo	-1595
▁give	-1596
▁hund	-1597
ressed	-1598
mediate	-1599
▁appear	-1600
▁taking	-1601
▁hundred	-1602
be	-1603
ars	-1604
▁mos	-1605
ember	-1606
▁ahead	-1607
▁border	-1608
▁di	-1609
▁care	-1610
▁estim	-1611
▁associated	-1612
▁fall	-1613
▁must	-1614
▁immediate	-1615
▁je	-1616
▁calif	-1617
▁emergency	-1618
ne	-1619
ank	-1620
▁hig	-1621
▁global	-1622
▁pyongyang	-1623
mit	-1624
▁accused	-1625
duc	-1626
ploy	-1627
▁trying	-1628
▁despite	-1629
ape	-1630
ley	-1631
▁jour	-1632
ession	-1633
▁never	-1634
▁total	-1635
▁become	-1636
▁island	-1637
▁californ	-1638
lymp	-1639
▁west	-1640
▁olymp	-1641
▁california	-1642
▁stre	-1643
▁deleg	-1644
kets	-1645
ored	-1646
▁road	-1647
▁shot	-1648
▁execut	-1649
▁france	-1650
▁reporters	-1651
eng	-1652
▁broad	-1653
lom	-1654
uge	-1655
▁mod	-1656
▁congress	-1657
▁interview	-1658
raf	-1659
▁ord	-1660
▁list	-1661
▁great	-1662
▁scient	-1663
▁senior	-1664
▁tax	-1665
▁might	-1666
▁super	-1667
▁station	-1668
▁committee	-1669
▁amb	-1670
▁got	-1671
ially	-1672
▁coast	-1673
▁director	-1674
ham	-1675
atic	-1676
ached	-1677
ittle	-1678
▁batt	-1679
▁hard	-1680
▁barack	-1681
▁groups	-1682
▁charges	-1683
ract	-1684
urch	-1685
ef	-1686
▁dest	-1687
▁shar	-1688
ulation	-1689
▁process	-1690
▁working	-1691
par	-1692
rap	-1693
imin	-1694
▁fut	-1695
▁commission	-1696
ergy	-1697
ults	-1698
▁mean	-1699
▁believe	-1700
ption	-1701
▁critic	-1702
▁partic	-1703
▁council	-1704
▁continue	-1705
▁dip	-1706
▁500	-1707
▁union	-1708
▁federal	-1709
▁priv	-1710
▁sept	-1711
▁points	-1712
▁suic	-1713
▁earth	-1714
▁little	-1715
▁command	-1716
▁companies	-1717
br	-1718
▁occ	-1719
▁2006	-1720
astern	-1721
▁within	-1722
uary	-1723
▁prim	-1724
▁newsp	-1725
▁possible	-1726
▁boy	-1727
▁cho	-1728
▁too	-1729
▁coll	-1730
▁ship	-1731
▁went	-1732
▁prosecut	-1733
▁june	-1734
harraf	-1735
▁musharraf	-1736
ighb	-1737
▁less	-1738
▁carry	-1739
▁neighb	-1740
▁x	-1741
▁energy	-1742
▁net	-1743
▁fell	-1744
▁includ	-1745
▁research	-1746
pr	-1747
rug	-1748
ival	-1749
ience	-1750
▁dist	-1751
▁chair	-1752
▁watch	-1753
▁policy	-1754
▁question	-1755
▁explos	-1756
▁further	-1757
▁previous	-1758
▁investigation	-1759
▁los	-1760
▁asse	-1761
▁july	-1762
▁shut	-1763
▁storm	-1764
▁diplom	-1765
▁latest	-1766
▁24	-1767
lish	-1768
▁mat	-1769
▁val	-1770
▁capt	-1771
▁showed	-1772
com	-1773
▁likely	-1774
bo	-1775
▁desc	-1776
▁demon	-1777
▁attempt	-1778
▁television	-1779
▁mag	-1780
▁efforts	-1781
▁protect	-1782
▁respons	-1783
ta	-1784
▁198	-1785
▁dav	-1786
▁perf	-1787
▁front	-1788
▁england	-1789
nal	-1790
▁corp	-1791
▁toward	-1792
▁gl	-1793
▁lot	-1794
▁cust	-1795
che	-1796
▁mov	-1797
ccess	-1798
▁interest	-1799
▁tre	-1800
idents	-1801
ming	-1802
▁sk	-1803
▁due	-1804
▁mur	-1805
epend	-1806
▁begin	-1807
▁chang	-1808
▁george	-1809
▁independ	-1810
▁candidate	-1811
▁member	-1812
ya	-1813
urg	-1814
rown	-1815
uation	-1816
▁treat	-1817
▁suicide	-1818
ush	-1819
hers	-1820
▁once	-1821
▁january	-1822
ze	-1823
▁meas	-1824
▁cross	-1825
▁minutes	-1826
▁mot	-1827
▁live	-1828
itions	-1829
▁russian	-1830
raft	-1831
▁tell	-1832
▁deter	-1833
▁serious	-1834
▁wounded	-1835
ann	-1836
▁low	-1837
▁ran	-1838
▁line	-1839
▁suff	-1840
▁sugg	-1841
▁order	-1842
▁weekend	-1843
▁september	-1844
▁drug	-1845
▁side	-1846
▁comput	-1847
▁hundreds	-1848
▁hur	-1849
▁hus	-1850
▁soc	-1851
▁squ	-1852
▁anti	-1853
▁dece	-1854
▁lost	-1855
▁mess	-1856
▁special	-1857
ider	-1858
arget	-1859
▁name	-1860
ertain	-1861
▁target	-1862
▁airport	-1863
▁ky	-1864
▁blo	-1865
▁mount	-1866
ane	-1867
ler	-1868
▁nat	-1869
▁sea	-1870
use	-1871
▁feb	-1872
▁grand	-1873
▁mother	-1874
aced	-1875
▁equ	-1876
▁rev	-1877
▁game	-1878
▁repres	-1879
aza	-1880
uty	-1881
oman	-1882
▁pot	-1883
▁break	-1884
cl	-1885
ades	-1886
asing	-1887
icted	-1888
▁find	-1889
▁class	-1890
itution	-1891
inc	-1892
ona	-1893
akes	-1894
apped	-1895
▁poll	-1896
▁race	-1897
▁injured	-1898
▁victory	-1899
key	-1900
▁fuel	-1901
▁cit	-1902
ening	-1903
▁sched	-1904
▁medical	-1905
▁div	-1906
▁resc	-1907
▁plane	-1908
▁confirmed	-1909
ern	-1910
oring	-1911
▁cris	-1912
▁using	-1913
ili	-1914
most	-1915
▁trip	-1916
iam	-1917
▁anim	-1918
▁areas	-1919
▁lawmak	-1920
▁western	-1921
iven	-1922
▁rom	-1923
▁america	-1924
▁60	-1925
▁sol	-1926
▁tem	-1927
woman	-1928
▁soon	-1929
▁employ	-1930
▁ill	-1931
▁future	-1932
▁success	-1933
ril	-1934
▁ru	-1935
▁able	-1936
▁father	-1937
▁ruling	-1938
▁fighting	-1939
ada	-1940
ague	-1941
▁journal	-1942
na	-1943
▁street	-1944
pre	-1945
▁doll	-1946
▁room	-1947
ibility	-1948
▁inside	-1949
tt	-1950
▁aug	-1951
▁coal	-1952
▁view	-1953
▁nomin	-1954
▁react	-1955
▁better	-1956
bab	-1957
▁tv	-1958
▁yet	-1959
▁april	-1960
▁surve	-1961
▁december	-1962
▁communist	-1963
zy	-1964
▁alth	-1965
▁doct	-1966
▁girl	-1967
▁phot	-1968
▁homes	-1969
▁although	-1970
▁bring	-1971
▁crisis	-1972
▁involved	-1973
ani	-1974
▁ken	-1975
▁gaza	-1976
▁rice	-1977
▁produc	-1978
ari	-1979
▁21	-1980
oint	-1981
▁stay	-1982
▁series	-1983
▁though	-1984
ways	-1985
▁veh	-1986
▁book	-1987
▁hope	-1988
ino	-1989
▁amid	-1990
▁wife	-1991
▁round	-1992
▁enough	-1993
dle	-1994
que	-1995
yal	-1996
▁full	-1997
▁term	-1998
▁victims	-1999
▁ground	-2000
▁result	-2001
▁travel	-2002
▁vill	-2003
▁analy	-2004
▁behind	-2005
▁protest	-2006
▁arab	-2007
▁describ	-2008
cast	-2009
ising	-2010
▁americans	-2011
▁exch	-2012
eration	-2013
xic	-2014
▁ty	-2015
▁cle	-2016
▁event	-2017
▁consum	-2018
▁islamic	-2019
ees	-2020
▁cell	-2021
▁mich	-2022
▁angel	-2023
▁accept	-2024
▁action	-2025
▁india	-2026
▁flight	-2027
▁wa	-2028
itional	-2029
▁believed	-2030
▁ever	-2031
▁wall	-2032
▁having	-2033
▁important	-2034
ten	-2035
▁dou	-2036
▁lim	-2037
▁oct	-2038
▁nine	-2039
▁coming	-2040
arc	-2041
uled	-2042
▁dev	-2043
▁infl	-2044
▁whose	-2045
▁search	-2046
▁history	-2047
▁doz	-2048
▁init	-2049
▁shoot	-2050
▁august	-2051
ald	-2052
▁bh	-2053
▁arg	-2054
▁asia	-2055
▁fear	-2056
▁comes	-2057
▁stock	-2058
ruction	-2059
aker	-2060
▁cat	-2061
▁job	-2062
▁pet	-2063
▁base	-2064
▁private	-2065
▁republican	-2066
ring	-2067
▁ben	-2068
▁tib	-2069
ances	-2070
▁gave	-2071
▁newspaper	-2072
ole	-2073
tle	-2074
▁mission	-2075
▁project	-2076
▁sources	-2077
▁mer	-2078
▁quar	-2079
▁started	-2080
▁represent	-2081
iron	-2082
▁doc	-2083
▁vol	-2084
ruary	-2085
igence	-2086
▁heavy	-2087
▁tibet	-2088
▁conduct	-2089
▁koreans	-2090
▁february	-2091
▁industry	-2092
▁rich	-2093
ferent	-2094
▁almost	-2095
▁supporters	-2096
ida	-2097
▁son	-2098
▁nove	-2099
▁voters	-2100
▁environ	-2101
▁evidence	-2102
▁november	-2103
▁kidn	-2104
▁middle	-2105
▁problems	-2106
▁2005	-2107
▁distr	-2108
▁really	-2109
▁different	-2110
▁fig	-2111
▁surv	-2112
▁champ	-2113
▁given	-2114
▁deaths	-2115
▁leading	-2116
▁results	-2117
▁suggest	-2118
imate	-2119
▁crow	-2120
▁dise	-2121
▁detail	-2122
▁incident	-2123
▁environment	-2124
▁spokeswoman	-2125
▁king	-2126
▁intell	-2127
▁wanted	-2128
▁planned	-2129
▁chairman	-2130
▁organization	-2131
▁lawy	-2132
▁sell	-2133
▁withd	-2134
▁leban	-2135
uses	-2136
▁sad	-2137
▁david	-2138
▁heart	-2139
▁indic	-2140
▁crew	-2141
▁separ	-2142
▁labor	-2143
▁season	-2144
▁situation	-2145
umb	-2146
▁23	-2147
▁cab	-2148
▁dro	-2149
▁pan	-2150
▁read	-2151
▁problem	-2152
▁mic	-2153
itted	-2154
▁light	-2155
aughter	-2156
▁missing	-2157
aps	-2158
▁flor	-2159
▁mill	-2160
▁paul	-2161
▁judge	-2162
▁paris	-2163
▁summit	-2164
▁conserv	-2165
▁saf	-2166
arent	-2167
iding	-2168
▁comb	-2169
▁hyun	-2170
▁musl	-2171
▁role	-2172
▁hotel	-2173
▁coalition	-2174
▁pakistani	-2175
▁intelligence	-2176
12	-2177
bc	-2178
▁fat	-2179
ograp	-2180
▁ball	-2181
▁docu	-2182
▁insp	-2183
▁tried	-2184
▁analyst	-2185
▁australia	-2186
ma	-2187
fic	-2188
men	-2189
▁roc	-2190
using	-2191
▁turned	-2192
▁germany	-2193
▁officers	-2194
▁received	-2195
ging	-2196
▁kil	-2197
▁compet	-2198
han	-2199
bert	-2200
work	-2201
▁kar	-2202
▁ver	-2203
▁cause	-2204
▁music	-2205
ounding	-2206
▁resign	-2207
oted	-2208
▁cred	-2209
▁sark	-2210
▁brown	-2211
▁movie	-2212
▁train	-2213
▁wants	-2214
▁assist	-2215
▁district	-2216
oud	-2217
▁turn	-2218
ador	-2219
▁bad	-2220
ction	-2221
▁calls	-2222
▁green	-2223
▁sarko	-2224
▁church	-2225
▁florida	-2226
▁scheduled	-2227
ays	-2228
▁2004	-2229
▁bhut	-2230
▁board	-2231
▁colomb	-2232
▁design	-2233
▁announce	-2234
gest	-2235
▁bri	-2236
▁mark	-2237
▁citiz	-2238
▁eastern	-2239
▁reached	-2240
▁os	-2241
ster	-2242
atives	-2243
▁needed	-2244
▁summer	-2245
ify	-2246
▁ide	-2247
▁shi	-2248
▁didn	-2249
▁loss	-2250
▁caused	-2251
▁strike	-2252
▁sarkozy	-2253
▁scientists	-2254
ode	-2255
▁id	-2256
▁aim	-2257
▁bid	-2258
▁staff	-2259
▁increase	-2260
▁recently	-2261
pl	-2262
itz	-2263
lin	-2264
▁pack	-2265
esters	-2266
▁looking	-2267
▁appeared	-2268
roy	-2269
▁adm	-2270
▁lin	-2271
▁som	-2272
▁2003	-2273
▁feel	-2274
▁tens	-2275
▁illeg	-2276
▁protesters	-2277
▁immediately	-2278
ober	-2279
itive	-2280
▁study	-2281
▁democr	-2282
▁turkey	-2283
▁october	-2284
▁officer	-2285
▁foc	-2286
▁price	-2287
▁assemb	-2288
▁hillary	-2289
▁operation	-2290
▁something	-2291
kyo	-2292
▁fle	-2293
itness	-2294
▁tokyo	-2295
▁couple	-2296
iana	-2297
▁bhutto	-2298
ula	-2299
▁issues	-2300
▁protests	-2301
ni	-2302
band	-2303
orney	-2304
▁beat	-2305
▁deep	-2306
▁prep	-2307
▁hamas	-2308
▁reach	-2309
▁attorney	-2310
▁services	-2311
▁speaking	-2312
▁democracy	-2313
▁26	-2314
▁ll	-2315
▁bab	-2316
▁lif	-2317
ctions	-2318
▁apparent	-2319
▁technology	-2320
▁prosecutors	-2321
duce	-2322
▁goal	-2323
▁seem	-2324
▁simp	-2325
▁games	-2326
ael	-2327
wide	-2328
▁age	-2329
▁try	-2330
▁jail	-2331
▁rate	-2332
▁biggest	-2333
▁claimed	-2334
▁condition	-2335
▁constitution	-2336
ex	-2337
down	-2338
▁bra	-2339
▁mom	-2340
▁hong	-2341
▁exchange	-2342
cer	-2343
over	-2344
stand	-2345
verage	-2346
▁colle	-2347
▁impro	-2348
▁share	-2349
▁effort	-2350
▁warned	-2351
▁development	-2352
▁negotiations	-2353
hu	-2354
▁pub	-2355
▁vice	-2356
▁quick	-2357
▁lawmakers	-2358
▁tit	-2359
▁2008	-2360
▁cele	-2361
off	-2362
ots	-2363
eech	-2364
▁wat	-2365
▁speech	-2366
▁warning	-2367
50	-2368
ayed	-2369
▁eth	-2370
▁cann	-2371
▁failed	-2372
▁address	-2373
▁disease	-2374
▁primary	-2375
ager	-2376
▁nas	-2377
▁tor	-2378
▁chall	-2379
▁effect	-2380
▁embass	-2381
▁growth	-2382
▁issued	-2383
▁remain	-2384
▁growing	-2385
▁thought	-2386
▁assembly	-2387
udi	-2388
▁moo	-2389
▁pressure	-2390
▁civilians	-2391
den	-2392
hen	-2393
wan	-2394
▁82	-2395
▁esc	-2396
▁pos	-2397
▁tex	-2398
▁deli	-2399
▁county	-2400
▁disapp	-2401
▁expect	-2402
▁justice	-2403
▁markets	-2404
▁majority	-2405
wh	-2406
rew	-2407
▁jer	-2408
▁educ	-2409
▁lower	-2410
▁league	-2411
ez	-2412
▁fun	-2413
ounds	-2414
▁kind	-2415
gether	-2416
▁include	-2417
▁popular	-2418
▁running	-2419
▁together	-2420
val	-2421
anger	-2422
▁pain	-2423
▁match	-2424
▁phone	-2425
▁virgin	-2426
▁angeles	-2427
▁decided	-2428
▁provide	-2429
▁quarter	-2430
▁complete	-2431
▁saw	-2432
▁joint	-2433
▁mexic	-2434
▁olympic	-2435
yl	-2436
igr	-2437
ners	-2438
▁polls	-2439
▁forced	-2440
▁demonstr	-2441
anmar	-2442
ither	-2443
▁closed	-2444
▁counter	-2445
▁myanmar	-2446
▁gold	-2447
▁rule	-2448
▁safety	-2449
▁arrived	-2450
▁ordered	-2451
▁senator	-2452
▁carrying	-2453
▁identified	-2454
here	-2455
▁repl	-2456
▁texas	-2457
▁opened	-2458
▁senate	-2459
▁delegates	-2460
▁coop	-2461
▁rout	-2462
overed	-2463
▁sales	-2464
▁social	-2465
▁request	-2466
▁concerns	-2467
▁residents	-2468
ott	-2469
▁send	-2470
▁denied	-2471
▁survey	-2472
▁witness	-2473
ron	-2474
▁rob	-2475
ilies	-2476
▁dail	-2477
▁compl	-2478
▁river	-2479
▁charged	-2480
▁himself	-2481
▁indones	-2482
▁hostages	-2483
abe	-2484
▁ah	-2485
▁cult	-2486
lished	-2487
▁battle	-2488
▁diffic	-2489
▁getting	-2490
▁families	-2491
oid	-2492
iles	-2493
▁fav	-2494
rents	-2495
▁offer	-2496
▁destroy	-2497
▁experts	-2498
uted	-2499
▁hon	-2500
▁2002	-2501
▁clos	-2502
▁deputy	-2503
▁community	-2504
▁difficult	-2505
▁executive	-2506
aled	-2507
▁why	-2508
arian	-2509
▁conn	-2510
▁radio	-2511
▁iranian	-2512
▁australian	-2513
ana	-2514
ural	-2515
▁bod	-2516
▁mad	-2517
ories	-2518
uries	-2519
▁award	-2520
▁leave	-2521
▁legal	-2522
▁daughter	-2523
▁programs	-2524
ote	-2525
ilar	-2526
▁pred	-2527
ential	-2528
▁cerem	-2529
▁higher	-2530
▁embassy	-2531
▁parties	-2532
▁estimated	-2533
▁lives	-2534
▁instit	-2535
▁things	-2536
▁launched	-2537
▁terrorist	-2538
bi	-2539
ye	-2540
▁oh	-2541
ires	-2542
▁ten	-2543
heast	-2544
▁nato	-2545
▁talk	-2546
▁daily	-2547
▁traff	-2548
▁respon	-2549
▁message	-2550
▁continued	-2551
▁31	-2552
▁bir	-2553
▁tom	-2554
▁described	-2555
▁suspected	-2556
airs	-2557
▁hous	-2558
▁asian	-2559
▁similar	-2560
pted	-2561
ensive	-2562
▁damage	-2563
▁comment	-2564
▁william	-2565
let	-2566
mad	-2567
ashed	-2568
▁safe	-2569
▁wild	-2570
▁named	-2571
▁online	-2572
▁included	-2573
ago	-2574
▁abd	-2575
▁cop	-2576
▁cup	-2577
▁dism	-2578
jected	-2579
▁armed	-2580
▁ambass	-2581
▁launch	-2582
▁computer	-2583
iff	-2584
rugg	-2585
▁tim	-2586
ortun	-2587
while	-2588
▁stat	-2589
▁wide	-2590
▁field	-2591
▁putin	-2592
▁scene	-2593
▁urged	-2594
▁transf	-2595
▁husband	-2596
▁accident	-2597
▁29	-2598
ares	-2599
▁royal	-2600
▁shows	-2601
▁became	-2602
▁missile	-2603
▁prevent	-2604
▁withdraw	-2605
▁300	-2606
▁ber	-2607
▁ple	-2608
▁cars	-2609
▁cases	-2610
▁fired	-2611
▁calling	-2612
▁opening	-2613
▁comments	-2614
▁kong	-2615
▁chance	-2616
vere	-2617
reets	-2618
▁prem	-2619
▁freed	-2620
▁danger	-2621
▁engine	-2622
▁robert	-2623
▁struck	-2624
▁present	-2625
▁jobs	-2626
▁doing	-2627
▁guard	-2628
▁transport	-2629
▁population	-2630
hest	-2631
▁laws	-2632
▁wind	-2633
▁broke	-2634
▁bodies	-2635
▁reform	-2636
▁progress	-2637
uf	-2638
za	-2639
▁minute	-2640
▁carried	-2641
iod	-2642
▁28	-2643
▁cy	-2644
▁uk	-2645
ocks	-2646
▁enc	-2647
craft	-2648
▁cast	-2649
▁qual	-2650
▁turk	-2651
▁brief	-2652
▁often	-2653
ighters	-2654
▁celebr	-2655
▁refuge	-2656
▁parents	-2657
▁streets	-2658
▁meanwhile	-2659
▁non	-2660
▁story	-2661
▁africa	-2662
▁refused	-2663
▁researc	-2664
▁citizens	-2665
▁particip	-2666
▁terrorism	-2667
ask	-2668
▁cabin	-2669
▁ready	-2670
▁spent	-2671
▁store	-2672
▁interior	-2673
▁candidates	-2674
igin	-2675
▁bal	-2676
▁hun	-2677
▁sud	-2678
▁risk	-2679
ection	-2680
▁occur	-2681
▁strugg	-2682
▁sanctions	-2683
▁80	-2684
ania	-2685
▁buy	-2686
▁scre	-2687
▁access	-2688
▁custom	-2689
▁kilome	-2690
▁holding	-2691
▁michael	-2692
▁production	-2693
kn	-2694
aces	-2695
▁cub	-2696
▁pun	-2697
▁wel	-2698
▁pict	-2699
▁rise	-2700
▁rose	-2701
▁african	-2702
▁details	-2703
▁expressed	-2704
▁association	-2705
ches	-2706
▁bit	-2707
enced	-2708
▁braz	-2709
▁rain	-2710
▁snow	-2711
▁camer	-2712
▁parts	-2713
ination	-2714
▁period	-2715
▁allowed	-2716
▁average	-2717
▁certain	-2718
▁friends	-2719
▁illegal	-2720
▁ambassador	-2721
for	-2722
mal	-2723
iter	-2724
▁mis	-2725
▁blast	-2726
▁crowd	-2727
▁funds	-2728
▁trial	-2729
▁traffic	-2730
▁increasing	-2731
cy	-2732
ware	-2733
▁esp	-2734
▁done	-2735
▁ended	-2736
▁saudi	-2737
▁brought	-2738
▁returned	-2739
irc	-2740
▁bud	-2741
▁mob	-2742
▁evac	-2743
▁pled	-2744
▁doesn	-2745
▁rival	-2746
▁account	-2747
▁followed	-2748
▁democrats	-2749
▁resolution	-2750
agement	-2751
▁aftern	-2752
▁fourth	-2753
▁raised	-2754
▁concern	-2755
▁dom	-2756
▁imm	-2757
▁sure	-2758
▁claims	-2759
▁matter	-2760
▁consider	-2761
▁position	-2762
▁operations	-2763
▁feet	-2764
▁mult	-2765
▁repe	-2766
▁leaving	-2767
▁afternoon	-2768
▁nomination	-2769
ball	-2770
ceed	-2771
hood	-2772
iled	-2773
▁fif	-2774
▁tou	-2775
▁blood	-2776
▁means	-2777
▁worst	-2778
▁always	-2779
▁played	-2780
isl	-2781
aging	-2782
iance	-2783
▁mart	-2784
▁barre	-2785
▁brazil	-2786
▁english	-2787
▁related	-2788
▁personal	-2789
selves	-2790
▁rally	-2791
▁cities	-2792
▁insurg	-2793
▁cabinet	-2794
▁virginia	-2795
ha	-2796
ara	-2797
▁fem	-2798
engers	-2799
▁crack	-2800
▁crash	-2801
▁resol	-2802
▁muslim	-2803
▁millions	-2804
▁activities	-2805
ges	-2806
iet	-2807
ault	-2808
lled	-2809
▁obs	-2810
ences	-2811
▁poor	-2812
▁franc	-2813
▁gener	-2814
▁living	-2815
▁quoted	-2816
▁brother	-2817
▁doctors	-2818
ped	-2819
owed	-2820
▁circ	-2821
▁smok	-2822
lement	-2823
ability	-2824
▁origin	-2825
▁rescue	-2826
ata	-2827
avez	-2828
▁asp	-2829
aries	-2830
▁lear	-2831
▁chavez	-2832
▁passed	-2833
▁source	-2834
▁contract	-2835
een	-2836
read	-2837
▁400	-2838
▁ice	-2839
insula	-2840
▁birth	-2841
▁governor	-2842
▁peninsula	-2843
lant	-2844
▁pul	-2845
▁swe	-2846
izing	-2847
▁2001	-2848
▁aimed	-2849
▁micro	-2850
▁restr	-2851
▁communic	-2852
▁champions	-2853
uing	-2854
anish	-2855
▁temp	-2856
▁favor	-2857
▁charge	-2858
▁commer	-2859
▁crimin	-2860
▁murder	-2861
▁territ	-2862
▁measures	-2863
▁passengers	-2864
amb	-2865
▁unc	-2866
▁bene	-2867
▁carol	-2868
▁estab	-2869
▁mater	-2870
▁needs	-2871
▁prince	-2872
▁network	-2873
▁dar	-2874
▁hen	-2875
▁vac	-2876
▁toll	-2877
▁influ	-2878
▁histor	-2879
▁square	-2880
▁declared	-2881
▁investigators	-2882
uk	-2883
ria	-2884
arks	-2885
▁pur	-2886
▁ren	-2887
licop	-2888
▁love	-2889
▁mail	-2890
iation	-2891
▁advis	-2892
▁hopes	-2893
▁cannot	-2894
▁mexico	-2895
▁forward	-2896
▁helicop	-2897
▁destroyed	-2898
▁treatment	-2899
bed	-2900
ike	-2901
▁ol	-2902
▁typ	-2903
▁8212	-2904
▁surr	-2905
▁legisl	-2906
▁rebels	-2907
▁strate	-2908
▁injuries	-2909
▁conditions	-2910
▁relationship	-2911
aur	-2912
▁35	-2913
▁abb	-2914
▁fly	-2915
▁code	-2916
▁avail	-2917
▁plant	-2918
▁sites	-2919
▁smith	-2920
▁respond	-2921
▁ceremony	-2922
▁neighbor	-2923
np	-2924
ows	-2925
enez	-2926
▁draw	-2927
▁ital	-2928
▁above	-2929
▁displ	-2930
▁makes	-2931
▁stage	-2932
▁track	-2933
▁lawyer	-2934
▁rising	-2935
▁decades	-2936
▁nothing	-2937
▁turkish	-2938
▁movement	-2939
▁shooting	-2940
▁controvers	-2941
▁researchers	-2942
▁announcement	-2943
sp	-2944
▁32	-2945
▁lu	-2946
▁fel	-2947
▁nom	-2948
▁xin	-2949
▁hands	-2950
▁broadcast	-2951
▁education	-2952
ead	-2953
oned	-2954
west	-2955
▁bin	-2956
fully	-2957
ograph	-2958
▁liber	-2959
▁resum	-2960
▁credit	-2961
▁profess	-2962
uit	-2963
▁ts	-2964
aped	-2965
▁dog	-2966
▁dow	-2967
atory	-2968
pping	-2969
▁farm	-2970
▁huge	-2971
▁lack	-2972
▁italy	-2973
▁surpr	-2974
ization	-2975
▁evening	-2976
▁mountain	-2977
▁commander	-2978
▁kilometers	-2979
hua	-2980
iant	-2981
wood	-2982
▁natur	-2983
▁spain	-2984
▁steps	-2985
ilities	-2986
▁letter	-2987
▁nearby	-2988
▁affairs	-2989
▁instead	-2990
▁independent	-2991
emy	-2992
▁45	-2993
▁ho	-2994
aded	-2995
idge	-2996
▁nic	-2997
▁concl	-2998
▁moved	-2999
▁female	-3000
▁spread	-3001
▁available	-3002
▁aud	-3003
▁feat	-3004
▁adding	-3005
▁annual	-3006
▁course	-3007
▁earthqu	-3008
▁highest	-3009
▁analysts	-3010
▁diplomatic	-3011
yan	-3012
▁ii	-3013
rial	-3014
▁gnp	-3015
▁kur	-3016
icles	-3017
preme	-3018
▁astr	-3019
▁born	-3020
idered	-3021
▁common	-3022
▁either	-3023
▁supreme	-3024
▁questions	-3025
ift	-3026
aves	-3027
▁pac	-3028
▁pow	-3029
▁pus	-3030
▁tai	-3031
going	-3032
house	-3033
istic	-3034
ocked	-3035
▁venez	-3036
▁atlant	-3037
▁debate	-3038
▁nomine	-3039
▁worked	-3040
▁finding	-3041
▁weather	-3042
▁detained	-3043
▁response	-3044
▁venezuel	-3045
wa	-3046
cow	-3047
aling	-3048
▁2000	-3049
▁club	-3050
▁fort	-3051
▁soci	-3052
▁dozens	-3053
▁longer	-3054
▁hearing	-3055
▁material	-3056
▁employees	-3057
▁considered	-3058
ker	-3059
▁die	-3060
▁pil	-3061
atell	-3062
itude	-3063
oming	-3064
▁flood	-3065
▁condem	-3066
▁moment	-3067
▁moscow	-3068
▁posted	-3069
▁probab	-3070
ological	-3071
▁challen	-3072
▁collect	-3073
▁bang	-3074
▁fill	-3075
▁rock	-3076
ruption	-3077
▁helped	-3078
▁satell	-3079
▁signed	-3080
▁driving	-3081
hel	-3082
▁pic	-3083
hered	-3084
▁moon	-3085
▁cover	-3086
▁harry	-3087
▁index	-3088
▁speed	-3089
▁backed	-3090
▁contact	-3091
▁quickly	-3092
▁remains	-3093
▁seeking	-3094
▁vehicle	-3095
▁approved	-3096
▁carolina	-3097
▁suffered	-3098
▁currently	-3099
▁increased	-3100
▁understand	-3101
▁responsible	-3102
▁90	-3103
▁sil	-3104
▁chic	-3105
▁sect	-3106
▁spot	-3107
▁trou	-3108
itting	-3109
▁stren	-3110
▁shiite	-3111
▁italian	-3112
▁schools	-3113
▁trading	-3114
▁probably	-3115
▁published	-3116
▁themselves	-3117
▁allegations	-3118
hold	-3119
▁196	-3120
▁eas	-3121
▁fre	-3122
▁ful	-3123
itten	-3124
▁sens	-3125
▁teen	-3126
isters	-3127
▁creat	-3128
▁politic	-3129
▁allegedly	-3130
▁indonesia	-3131
omp	-3132
▁kh	-3133
mine	-3134
room	-3135
▁opt	-3136
▁thing	-3137
▁deploy	-3138
▁indian	-3139
ification	-3140
▁aircraft	-3141
▁signific	-3142
▁spending	-3143
▁explosion	-3144
▁particular	-3145
▁construction	-3146
▁hu	-3147
▁dub	-3148
▁unf	-3149
▁rare	-3150
▁abbas	-3151
▁streng	-3152
▁xinhua	-3153
▁student	-3154
▁additional	-3155
resp	-3156
▁dae	-3157
▁card	-3158
▁reason	-3159
▁taiwan	-3160
▁dollars	-3161
▁separate	-3162
▁convicted	-3163
▁apparently	-3164
▁parliamentary	-3165
of	-3166
▁jose	-3167
▁nasa	-3168
▁espec	-3169
▁georg	-3170
▁giving	-3171
▁appoint	-3172
▁century	-3173
▁products	-3174
▁suspects	-3175
▁visitors	-3176
▁discovered	-3177
▁especially	-3178
▁everything	-3179
▁conservative	-3180
▁independence	-3181
olf	-3182
erve	-3183
▁dig	-3184
▁und	-3185
ional	-3186
isted	-3187
▁defe	-3188
apping	-3189
▁cance	-3190
▁maint	-3191
▁marri	-3192
▁commit	-3193
▁propos	-3194
▁session	-3195
▁anything	-3196
▁attacked	-3197
▁critical	-3198
▁institute	-3199
▁criticized	-3200
ran	-3201
▁data	-3202
▁guil	-3203
▁song	-3204
inking	-3205
▁chung	-3206
▁crime	-3207
▁dropped	-3208
▁numbers	-3209
▁happened	-3210
▁opportun	-3211
▁buildings	-3212
▁investment	-3213
ev	-3214
gu	-3215
aks	-3216
nel	-3217
ston	-3218
▁abs	-3219
ients	-3220
▁jump	-3221
▁kept	-3222
▁muse	-3223
▁stra	-3224
▁monit	-3225
▁wrong	-3226
▁attend	-3227
▁manager	-3228
▁natural	-3229
▁playing	-3230
▁responsibility	-3231
ao	-3232
cing	-3233
come	-3234
quar	-3235
▁zim	-3236
onaut	-3237
phone	-3238
uters	-3239
▁blue	-3240
▁date	-3241
▁shin	-3242
▁build	-3243
▁regul	-3244
▁worth	-3245
▁levels	-3246
▁review	-3247
▁threatened	-3248
af	-3249
amin	-3250
▁reve	-3251
▁ties	-3252
▁jones	-3253
▁combat	-3254
▁necess	-3255
▁shortly	-3256
▁training	-3257
▁attention	-3258
ases	-3259
body	-3260
overy	-3261
▁paid	-3262
▁raid	-3263
▁rail	-3264
▁mayor	-3265
▁remarks	-3266
▁colombia	-3267
▁repeated	-3268
▁beginning	-3269
soft	-3270
▁201	-3271
▁bak	-3272
▁bul	-3273
orter	-3274
▁fans	-3275
▁check	-3276
▁domin	-3277
▁range	-3278
▁seats	-3279
▁title	-3280
▁changes	-3281
▁winning	-3282
▁admitted	-3283
▁alliance	-3284
▁occurred	-3285
▁committed	-3286
▁microsoft	-3287
ado	-3288
nam	-3289
omm	-3290
▁ans	-3291
aught	-3292
ufact	-3293
ullah	-3294
▁purs	-3295
▁vers	-3296
▁whom	-3297
▁extra	-3298
▁museum	-3299
▁overse	-3300
▁pacific	-3301
▁includes	-3302
▁manufact	-3303
▁authority	-3304
▁investors	-3305
hol	-3306
agon	-3307
gypt	-3308
ibly	-3309
▁haw	-3310
▁las	-3311
▁rod	-3312
▁sel	-3313
inois	-3314
ively	-3315
orate	-3316
▁arch	-3317
▁size	-3318
▁ahmad	-3319
▁evacu	-3320
▁penal	-3321
▁forest	-3322
▁chicago	-3323
▁custody	-3324
▁illinois	-3325
▁planning	-3326
▁insurgents	-3327
ylv	-3328
▁ale	-3329
▁arms	-3330
▁euro	-3331
▁hall	-3332
▁ohio	-3333
▁egypt	-3334
▁sides	-3335
▁defend	-3336
▁single	-3337
▁remained	-3338
▁transfer	-3339
▁industrial	-3340
▁prosecution	-3341
▁lib	-3342
babwe	-3343
lines	-3344
nsylv	-3345
▁bombing	-3346
▁massive	-3347
▁suspect	-3348
▁olympics	-3349
▁pennsylv	-3350
▁zimbabwe	-3351
▁significant	-3352
▁environmental	-3353
rs	-3354
arm	-3355
▁mac	-3356
▁join	-3357
▁phys	-3358
▁seed	-3359
▁soft	-3360
▁boost	-3361
▁costs	-3362
▁relig	-3363
▁create	-3364
▁dollar	-3365
▁marine	-3366
▁college	-3367
▁players	-3368
▁civilian	-3369
▁electric	-3370
▁lebanese	-3371
▁earthquake	-3372
▁leadership	-3373
bled	-3374
iger	-3375
mert	-3376
▁bay	-3377
estic	-3378
▁bird	-3379
▁idea	-3380
▁weak	-3381
▁zone	-3382
encies	-3383
▁reactor	-3384
▁rejected	-3385
▁previously	-3386
sey	-3387
ises	-3388
alled	-3389
▁girls	-3390
▁ruled	-3391
▁allies	-3392
▁assass	-3393
▁animals	-3394
▁offered	-3395
▁society	-3396
▁vehicles	-3397
▁documents	-3398
▁management	-3399
▁deg	-3400
▁lad	-3401
▁row	-3402
▁drop	-3403
▁fair	-3404
▁lang	-3405
ailand	-3406
▁banks	-3407
▁bombs	-3408
▁heard	-3409
▁joins	-3410
▁pract	-3411
▁rules	-3412
▁scand	-3413
▁rather	-3414
▁severe	-3415
▁restaur	-3416
▁determin	-3417
▁thailand	-3418
▁professor	-3419
▁pennsylvania	-3420
ken	-3421
wor	-3422
▁ep	-3423
▁et	-3424
chie	-3425
▁contr	-3426
▁faces	-3427
▁focus	-3428
▁minor	-3429
▁apolog	-3430
▁shares	-3431
▁georgia	-3432
▁nominee	-3433
▁regional	-3434
▁potential	-3435
▁prisoners	-3436
kes	-3437
pts	-3438
▁bi	-3439
▁ha	-3440
back	-3441
know	-3442
▁mel	-3443
▁sle	-3444
asion	-3445
where	-3446
▁adop	-3447
▁firm	-3448
▁hear	-3449
▁kurd	-3450
▁avoid	-3451
▁clean	-3452
▁subst	-3453
▁consid	-3454
▁respect	-3455
▁criminal	-3456
ttp	-3457
lict	-3458
ream	-3459
resh	-3460
rote	-3461
▁ali	-3462
▁gar	-3463
▁gat	-3464
▁http	-3465
▁quake	-3466
▁spoke	-3467
▁blamed	-3468
▁figure	-3469
▁perfor	-3470
▁sentence	-3471
ovo	-3472
▁36	-3473
anda	-3474
gery	-3475
sein	-3476
ties	-3477
▁bol	-3478
▁han	-3479
apers	-3480
ently	-3481
field	-3482
force	-3483
oting	-3484
▁hurt	-3485
▁jack	-3486
▁sale	-3487
▁serb	-3488
▁fifth	-3489
▁serve	-3490
▁votes	-3491
▁works	-3492
knowled	-3493
▁inspect	-3494
▁acknowled	-3495
ica	-3496
pper	-3497
▁jew	-3498
▁sher	-3499
▁shop	-3500
▁motor	-3501
▁recon	-3502
▁guilty	-3503
▁sexual	-3504
▁elected	-3505
▁francis	-3506
▁stopped	-3507
▁everyone	-3508
▁starting	-3509
▁tourists	-3510
ox	-3511
▁mc	-3512
▁ze	-3513
▁dut	-3514
▁shr	-3515
orial	-3516
▁mort	-3517
▁sant	-3518
▁seat	-3519
▁refer	-3520
▁linked	-3521
▁mosque	-3522
▁olmert	-3523
▁regime	-3524
▁attract	-3525
▁complex	-3526
▁improve	-3527
▁showing	-3528
▁written	-3529
▁proposed	-3530
▁criticism	-3531
▁worldwide	-3532
ota	-3533
▁ow	-3534
usal	-3535
▁fer	-3536
▁ram	-3537
▁fish	-3538
▁opin	-3539
▁winds	-3540
▁commerc	-3541
▁damaged	-3542
▁spanish	-3543
▁peaceful	-3544
▁dangerous	-3545
▁satellite	-3546
wer	-3547
ears	-3548
▁mug	-3549
vered	-3550
▁remo	-3551
▁word	-3552
lywood	-3553
rators	-3554
▁achie	-3555
▁moham	-3556
▁signs	-3557
▁holiday	-3558
▁corruption	-3559
iro	-3560
vez	-3561
mark	-3562
▁ele	-3563
▁phil	-3564
▁trig	-3565
▁built	-3566
▁crude	-3567
▁gates	-3568
▁truck	-3569
▁anyone	-3570
▁climate	-3571
▁actually	-3572
▁addition	-3573
▁electron	-3574
▁activists	-3575
▁terrorists	-3576
ba	-3577
rid	-3578
▁gul	-3579
▁jung	-3580
▁mach	-3581
▁fears	-3582
▁wrote	-3583
▁mostly	-3584
▁lebanon	-3585
▁militant	-3586
ogn	-3587
ris	-3588
ping	-3589
▁ens	-3590
▁kos	-3591
▁envoy	-3592
▁myung	-3593
▁tests	-3594
▁citing	-3595
▁normal	-3596
▁gathered	-3597
▁provided	-3598
▁concerned	-3599
▁ministers	-3600
▁performan	-3601
▁palestinians	-3602
ga	-3603
car	-3604
hib	-3605
▁beg	-3606
▁cru	-3607
▁mas	-3608
acter	-3609
ander	-3610
▁flag	-3611
▁gall	-3612
▁wing	-3613
▁blair	-3614
▁filed	-3615
▁langu	-3616
▁mugabe	-3617
▁recogn	-3618
▁seized	-3619
▁sought	-3620
▁shuttle	-3621
▁someone	-3622
▁conflict	-3623
▁domestic	-3624
▁remaining	-3625
▁commercial	-3626
▁neighborhood	-3627
unt	-3628
▁au	-3629
burg	-3630
keep	-3631
vert	-3632
▁alex	-3633
▁pick	-3634
▁names	-3635
▁paper	-3636
▁bridge	-3637
▁events	-3638
▁impact	-3639
▁flights	-3640
▁marriage	-3641
▁policies	-3642
▁suspended	-3643
dam	-3644
eing	-3645
ites	-3646
ivid	-3647
▁ask	-3648
▁gang	-3649
▁heav	-3650
▁jong	-3651
▁kids	-3652
▁yong	-3653
▁benef	-3654
▁giant	-3655
▁shown	-3656
▁words	-3657
▁animal	-3658
▁cancer	-3659
▁placed	-3660
▁contrib	-3661
▁reuters	-3662
▁affected	-3663
▁conducted	-3664
▁gh	-3665
aine	-3666
lies	-3667
friend	-3668
▁autom	-3669
▁dozen	-3670
▁medic	-3671
▁rates	-3672
▁sharp	-3673
▁hurric	-3674
▁joined	-3675
▁moving	-3676
▁screen	-3677
▁supply	-3678
▁confirm	-3679
▁critics	-3680
▁operating	-3681
▁suggested	-3682
▁journalists	-3683
nes	-3684
▁rap	-3685
▁self	-3686
▁slow	-3687
▁teac	-3688
▁enter	-3689
▁fresh	-3690
▁abduct	-3691
▁mobile	-3692
▁disaster	-3693
▁document	-3694
▁telephone	-3695
▁territory	-3696
▁throughout	-3697
▁ul	-3698
onym	-3699
▁box	-3700
▁inn	-3701
▁mah	-3702
▁oce	-3703
erson	-3704
▁navy	-3705
▁stem	-3706
▁yang	-3707
▁laden	-3708
▁takes	-3709
▁encour	-3710
▁itself	-3711
▁malays	-3712
▁collaps	-3713
▁dismiss	-3714
▁surgery	-3715
▁powerful	-3716
▁astronaut	-3717
▁developing	-3718
▁protection	-3719
▁cooperation	-3720
de	-3721
bre	-3722
dog	-3723
▁ly	-3724
▁fbi	-3725
▁sty	-3726
agers	-3727
apore	-3728
omber	-3729
▁cash	-3730
▁shel	-3731
▁wood	-3732
▁block	-3733
▁barrel	-3734
▁player	-3735
▁dispute	-3736
▁distrib	-3737
▁helping	-3738
▁village	-3739
▁fighters	-3740
▁meetings	-3741
▁singapore	-3742
ko	-3743
▁33	-3744
road	-3745
▁600	-3746
▁ron	-3747
iction	-3748
▁beach	-3749
▁lands	-3750
▁patro	-3751
▁terms	-3752
▁object	-3753
▁voting	-3754
▁figures	-3755
▁freedom	-3756
▁perform	-3757
▁violent	-3758
▁bombings	-3759
▁necessary	-3760
▁witnesses	-3761
aki	-3762
ips	-3763
vin	-3764
▁38	-3765
▁bed	-3766
▁lay	-3767
▁ton	-3768
▁uri	-3769
ature	-3770
▁bear	-3771
▁clim	-3772
▁else	-3773
▁magn	-3774
▁drugs	-3775
▁insur	-3776
▁lines	-3777
▁prize	-3778
▁somal	-3779
iversary	-3780
▁contest	-3781
▁created	-3782
▁soldier	-3783
▁wearing	-3784
▁compared	-3785
▁positive	-3786
▁promised	-3787
▁hurricane	-3788
▁anniversary	-3789
▁opportunity	-3790
het	-3791
ray	-3792
ror	-3793
uff	-3794
▁fa	-3795
uded	-3796
▁hav	-3797
▁pir	-3798
▁baby	-3799
▁seek	-3800
▁surf	-3801
utions	-3802
▁panel	-3803
▁amount	-3804
▁images	-3805
▁reduce	-3806
▁hussein	-3807
▁individ	-3808
▁involve	-3809
▁regular	-3810
▁sentenced	-3811
▁reportedly	-3812
▁investigating	-3813
▁ps	-3814
▁abe	-3815
▁cro	-3816
▁van	-3817
▁felt	-3818
▁downt	-3819
▁intro	-3820
▁queen	-3821
▁trail	-3822
▁immigr	-3823
▁pulled	-3824
▁initial	-3825
▁pledged	-3826
▁straight	-3827
cri	-3828
reg	-3829
▁150	-3830
▁pie	-3831
▁acad	-3832
▁fled	-3833
coming	-3834
▁magaz	-3835
▁raise	-3836
▁canada	-3837
▁casual	-3838
▁kosovo	-3839
▁stocks	-3840
▁corresp	-3841
▁science	-3842
▁hollywood	-3843
▁kidnapped	-3844
iki	-3845
rog	-3846
uan	-3847
▁48	-3848
▁ut	-3849
abul	-3850
ille	-3851
oded	-3852
omic	-3853
▁anc	-3854
▁eye	-3855
▁ven	-3856
▁item	-3857
▁prec	-3858
▁spir	-3859
▁below	-3860
▁drive	-3861
▁james	-3862
▁sudan	-3863
▁sunni	-3864
▁trust	-3865
▁career	-3866
▁rocket	-3867
▁suspic	-3868
▁waters	-3869
▁largely	-3870
▁complain	-3871
▁headquar	-3872
ew	-3873
hi	-3874
ps	-3875
ych	-3876
abad	-3877
igan	-3878
ordon	-3879
▁fast	-3880
▁pent	-3881
▁push	-3882
ulated	-3883
▁chann	-3884
▁owner	-3885
▁appeal	-3886
▁recomm	-3887
▁finance	-3888
▁measure	-3889
▁agencies	-3890
▁consumer	-3891
▁customers	-3892
▁surrounding	-3893
my	-3894
rer	-3895
▁42	-3896
▁ko	-3897
asts	-3898
olas	-3899
olic	-3900
▁god	-3901
▁gon	-3902
▁bott	-3903
▁page	-3904
▁wasn	-3905
▁speak	-3906
▁voted	-3907
▁entire	-3908
▁victim	-3909
▁appears	-3910
▁replace	-3911
▁selling	-3912
▁deadline	-3913
▁declined	-3914
▁missiles	-3915
▁patients	-3916
▁correspond	-3917
can	-3918
ery	-3919
isc	-3920
itch	-3921
▁fra	-3922
▁goes	-3923
▁mine	-3924
▁pervez	-3925
▁sharif	-3926
▁actions	-3927
▁demonst	-3928
▁failure	-3929
▁establish	-3930
▁francisco	-3931
▁headquarters	-3932
mon	-3933
abil	-3934
ales	-3935
azir	-3936
ends	-3937
▁bbc	-3938
▁sky	-3939
ender	-3940
erate	-3941
iling	-3942
isher	-3943
ounts	-3944
▁boyc	-3945
▁grad	-3946
▁mist	-3947
▁actor	-3948
▁ocean	-3949
▁prior	-3950
▁twice	-3951
▁veter	-3952
▁howard	-3953
▁opinion	-3954
▁williams	-3955
▁christian	-3956
▁demanding	-3957
▁determine	-3958
erc	-3959
ova	-3960
▁ku	-3961
▁ok	-3962
ores	-3963
wang	-3964
▁kyi	-3965
▁nar	-3966
▁sov	-3967
▁teh	-3968
arily	-3969
inary	-3970
▁mary	-3971
▁true	-3972
▁unit	-3973
▁treas	-3974
▁double	-3975
▁ending	-3976
▁surviv	-3977
▁assault	-3978
▁demands	-3979
▁systems	-3980
▁proposal	-3981
▁targeted	-3982
▁challenge	-3983
▁52	-3984
▁ki	-3985
rupt	-3986
tern	-3987
▁flu	-3988
▁jet	-3989
▁var	-3990
▁ves	-3991
iment	-3992
▁bail	-3993
▁cold	-3994
▁fine	-3995
▁behav	-3996
▁homel	-3997
▁caught	-3998
▁express	-3999
▁pentagon	-4000
▁resignation	-4001
ams	-4002
ube	-4003
▁800	-4004
▁abu	-4005
ashes	-4006
ilipp	-4007
▁1999	-4008
▁fest	-4009
▁gone	-4010
▁ways	-4011
▁burma	-4012
▁deadly	-4013
▁decade	-4014
▁defeat	-4015
▁headed	-4016
▁houses	-4017
▁madrid	-4018
▁soviet	-4019
▁imposed	-4020
▁philipp	-4021
▁richard	-4022
▁computers	-4023
▁involving	-4024
▁convention	-4025
▁helicopter	-4026
▁governments	-4027
▁ba	-4028
ancy	-4029
▁din	-4030
▁hil	-4031
▁lic	-4032
▁rat	-4033
astic	-4034
▁dial	-4035
▁plot	-4036
▁aband	-4037
▁happy	-4038
▁heads	-4039
▁purch	-4040
▁rebel	-4041
▁syria	-4042
▁voice	-4043
ictions	-4044
▁doctor	-4045
▁resort	-4046
▁settle	-4047
▁winter	-4048
heastern	-4049
▁assistant	-4050
▁northeast	-4051
▁controlled	-4052
▁considering	-4053
▁possibility	-4054
illa	-4055
▁eru	-4056
▁gal	-4057
▁yah	-4058
oleez	-4059
▁apple	-4060
▁lived	-4061
▁oppon	-4062
▁route	-4063
▁torch	-4064
ologist	-4065
▁gather	-4066
▁herald	-4067
▁looked	-4068
▁meters	-4069
▁secure	-4070
▁tehran	-4071
▁highway	-4072
▁designed	-4073
▁directly	-4074
▁produced	-4075
▁condoleez	-4076
▁neighboring	-4077
▁performance	-4078
nic	-4079
set	-4080
▁rub	-4081
▁suu	-4082
▁male	-4083
▁color	-4084
▁frank	-4085
▁junta	-4086
▁peter	-4087
▁reduc	-4088
▁surge	-4089
▁anonym	-4090
▁arabia	-4091
▁atomic	-4092
▁crimes	-4093
▁famous	-4094
▁gordon	-4095
▁maliki	-4096
▁portug	-4097
▁vessel	-4098
▁winner	-4099
▁airline	-4100
▁serving	-4101
▁setting	-4102
▁willing	-4103
▁software	-4104
▁southeast	-4105
▁condoleezza	-4106
do	-4107
iri	-4108
▁51	-4109
▁55	-4110
ably	-4111
imum	-4112
like	-4113
▁ign	-4114
asons	-4115
incip	-4116
▁tony	-4117
▁somet	-4118
▁steve	-4119
▁palace	-4120
▁temper	-4121
▁consult	-4122
▁kurdish	-4123
▁premier	-4124
▁princip	-4125
▁records	-4126
▁scandal	-4127
▁sending	-4128
▁waiting	-4129
▁language	-4130
▁consumers	-4131
▁determined	-4132
▁controversial	-4133
▁demonstrators	-4134
▁demonstrations	-4135
bon	-4136
owa	-4137
▁exc	-4138
▁corn	-4139
▁door	-4140
▁doub	-4141
▁lone	-4142
▁spar	-4143
▁walk	-4144
▁alone	-4145
▁diana	-4146
▁firef	-4147
▁fully	-4148
▁tight	-4149
oration	-4150
▁losses	-4151
▁relief	-4152
▁served	-4153
▁resolve	-4154
▁tibetan	-4155
▁approach	-4156
▁pictures	-4157
▁prepared	-4158
▁crackdown	-4159
▁traditional	-4160
bel	-4161
fur	-4162
mas	-4163
oes	-4164
▁34	-4165
▁44	-4166
aked	-4167
reme	-4168
▁ari	-4169
▁nep	-4170
▁band	-4171
▁coach	-4172
▁declar	-4173
▁actress	-4174
▁content	-4175
▁ongoing	-4176
▁christop	-4177
▁magazine	-4178
▁politics	-4179
▁supplies	-4180
▁islamabad	-4181
▁religious	-4182
▁traveling	-4183
▁republicans	-4184
▁constitutional	-4185
iced	-4186
ogue	-4187
▁der	-4188
▁scr	-4189
anged	-4190
wards	-4191
▁boat	-4192
▁clot	-4193
▁dark	-4194
▁prin	-4195
▁rape	-4196
ateral	-4197
▁model	-4198
▁occup	-4199
▁yahoo	-4200
itarian	-4201
▁expand	-4202
▁punish	-4203
▁widely	-4204
▁extreme	-4205
▁propert	-4206
▁overseas	-4207
▁tensions	-4208
▁facilities	-4209
gn	-4210
ront	-4211
▁194	-4212
▁isn	-4213
▁nev	-4214
▁spl	-4215
anium	-4216
▁pull	-4217
▁tank	-4218
▁dream	-4219
▁happen	-4220
▁saddam	-4221
▁causing	-4222
▁hostage	-4223
▁lawyers	-4224
▁overall	-4225
▁removed	-4226
▁original	-4227
▁presence	-4228
▁estimates	-4229
▁influence	-4230
▁experience	-4231
▁explosives	-4232
▁christopher	-4233
▁politicians	-4234
▁particularly	-4235
une	-4236
aska	-4237
fort	-4238
lets	-4239
▁wen	-4240
light	-4241
▁inqu	-4242
▁knew	-4243
▁purp	-4244
ension	-4245
▁alert	-4246
▁draft	-4247
▁equip	-4248
▁kabul	-4249
▁psych	-4250
▁sleep	-4251
▁bomber	-4252
▁highly	-4253
▁pounds	-4254
▁spring	-4255
▁uranium	-4256
▁visited	-4257
▁warming	-4258
▁activity	-4259
▁behavior	-4260
▁demanded	-4261
▁required	-4262
▁prosecutor	-4263
uth	-4264
win	-4265
zai	-4266
▁ib	-4267
berg	-4268
oral	-4269
▁gay	-4270
▁cauc	-4271
▁cong	-4272
▁mind	-4273
▁fraud	-4274
▁honor	-4275
▁kenya	-4276
▁owned	-4277
itation	-4278
▁belong	-4279
▁spears	-4280
▁clashes	-4281
▁deliver	-4282
▁located	-4283
▁married	-4284
▁penalty	-4285
▁quality	-4286
▁accepted	-4287
▁captured	-4288
▁dialogue	-4289
▁division	-4290
▁historic	-4291
▁apartment	-4292
▁collapsed	-4293
▁continues	-4294
▁developed	-4295
gas	-4296
▁62	-4297
▁bat	-4298
▁gra	-4299
▁mir	-4300
▁orb	-4301
gered	-4302
▁gree	-4303
▁iowa	-4304
▁mahm	-4305
▁image	-4306
▁tells	-4307
▁touch	-4308
▁vowed	-4309
▁choice	-4310
▁housing	-4311
▁various	-4312
▁airlines	-4313
▁downtown	-4314
▁exploded	-4315
▁christmas	-4316
▁withdrawal	-4317
▁declaration	-4318
▁transportation	-4319
apt	-4320
▁43	-4321
▁46	-4322
▁od	-4323
rawn	-4324
▁cha	-4325
▁enj	-4326
▁fal	-4327
▁lou	-4328
▁rac	-4329
▁rus	-4330
aksin	-4331
▁1980	-4332
▁symb	-4333
▁abuse	-4334
▁floor	-4335
▁rapid	-4336
▁teams	-4337
▁koreas	-4338
▁places	-4339
▁singer	-4340
▁wealth	-4341
▁heavily	-4342
▁reflect	-4343
▁require	-4344
▁thaksin	-4345
▁football	-4346
▁evacuated	-4347
▁providing	-4348
aro	-4349
ein	-4350
▁ey	-4351
apse	-4352
hens	-4353
ique	-4354
▁bey	-4355
▁bil	-4356
▁ult	-4357
akers	-4358
aming	-4359
▁alco	-4360
▁beck	-4361
▁rall	-4362
▁trib	-4363
▁viet	-4364
arding	-4365
▁brain	-4366
▁cells	-4367
▁hoped	-4368
▁items	-4369
▁losing	-4370
▁tribal	-4371
▁changed	-4372
▁approval	-4373
▁refugees	-4374
ob	-4375
unch	-4376
▁pra	-4377
▁sev	-4378
▁1990	-4379
▁cate	-4380
▁rein	-4381
anging	-4382
enders	-4383
▁colon	-4384
▁holds	-4385
▁stood	-4386
▁troop	-4387
▁virus	-4388
western	-4389
▁driver	-4390
▁finish	-4391
▁kenned	-4392
▁slight	-4393
▁unlike	-4394
▁channel	-4395
▁keeping	-4396
▁nicolas	-4397
▁package	-4398
▁vietnam	-4399
▁possibly	-4400
▁attempted	-4401
ami	-4402
sen	-4403
bing	-4404
thod	-4405
▁gri	-4406
▁nad	-4407
▁uns	-4408
adian	-4409
▁1998	-4410
▁cuba	-4411
▁diss	-4412
▁ilbo	-4413
▁mile	-4414
▁sadr	-4415
▁trop	-4416
▁wolf	-4417
▁nepal	-4418
▁ships	-4419
▁depart	-4420
▁ethnic	-4421
▁sports	-4422
▁weight	-4423
▁alcohol	-4424
▁species	-4425
▁usually	-4426
▁forecast	-4427
▁michigan	-4428
▁visiting	-4429
▁equipment	-4430
▁initially	-4431
▁foreigners	-4432
▁competition	-4433
ums	-4434
oses	-4435
▁eld	-4436
ately	-4437
rency	-4438
▁acqu	-4439
▁cler	-4440
▁warr	-4441
▁carri	-4442
▁faced	-4443
▁camera	-4444
▁cruise	-4445
▁picked	-4446
▁select	-4447
▁contain	-4448
▁kennedy	-4449
▁produce	-4450
▁talking	-4451
▁bringing	-4452
▁solution	-4453
▁entertain	-4454
▁implement	-4455
▁confidence	-4456
▁journalist	-4457
▁questioned	-4458
▁supporting	-4459
▁discussions	-4460
▁threatening	-4461
▁organizations	-4462
acts	-4463
▁cbs	-4464
▁fix	-4465
▁hab	-4466
▁mix	-4467
ented	-4468
lling	-4469
▁ally	-4470
▁cath	-4471
▁pope	-4472
▁save	-4473
▁stad	-4474
▁tons	-4475
▁fatah	-4476
▁innoc	-4477
▁obser	-4478
▁probe	-4479
▁table	-4480
issions	-4481
▁affect	-4482
▁argent	-4483
▁fellow	-4484
ferences	-4485
▁culture	-4486
▁sheriff	-4487
▁strengt	-4488
▁telling	-4489
▁personnel	-4490
▁disappoint	-4491
iny	-4492
ipp	-4493
oph	-4494
▁du	-4495
▁hor	-4496
elled	-4497
itzer	-4498
▁chec	-4499
▁chem	-4500
▁ones	-4501
▁ring	-4502
▁zeal	-4503
ifying	-4504
usalem	-4505
▁alive	-4506
▁exact	-4507
▁goods	-4508
▁meant	-4509
▁pregn	-4510
▁users	-4511
▁accomp	-4512
▁beyond	-4513
▁extrem	-4514
▁karzai	-4515
▁nevada	-4516
▁unless	-4517
▁adviser	-4518
▁crashed	-4519
▁footage	-4520
▁collapse	-4521
▁jerusalem	-4522
▁magnitude	-4523
▁seriously	-4524
▁businesses	-4525
▁delegation	-4526
▁revolution	-4527
▁commissioner	-4528
ici	-4529
▁53	-4530
time	-4531
ucks	-4532
oning	-4533
▁blow	-4534
▁hair	-4535
isions	-4536
▁frequ	-4537
▁rough	-4538
▁seems	-4539
▁stars	-4540
▁style	-4541
▁whole	-4542
▁banned	-4543
▁flying	-4544
▁offices	-4545
▁receive	-4546
▁believes	-4547
▁killings	-4548
▁partners	-4549
▁stations	-4550
▁dismissed	-4551
▁indicated	-4552
▁sometimes	-4553
▁connection	-4554
new	-4555
ols	-4556
▁ji	-4557
rian	-4558
▁bea	-4559
▁cia	-4560
▁dna	-4561
▁fro	-4562
▁bern	-4563
▁cruc	-4564
▁heat	-4565
▁pret	-4566
▁consp	-4567
▁dutch	-4568
▁tough	-4569
▁modern	-4570
▁planet	-4571
▁remote	-4572
▁resume	-4573
▁retail	-4574
▁scored	-4575
▁finally	-4576
▁mahmoud	-4577
▁stadium	-4578
▁attempts	-4579
▁standing	-4580
▁character	-4581
▁condemned	-4582
▁relatives	-4583
▁struggling	-4584
▁involvement	-4585
▁assassination	-4586
oe	-4587
tts	-4588
▁gm	-4589
▁ic	-4590
idel	-4591
▁arr	-4592
▁max	-4593
rison	-4594
▁ariz	-4595
▁gain	-4596
▁hung	-4597
▁onto	-4598
▁sams	-4599
▁thin	-4600
▁wine	-4601
▁wire	-4602
achuse	-4603
ounced	-4604
▁examp	-4605
▁reven	-4606
▁taxes	-4607
▁vegas	-4608
ructure	-4609
▁babies	-4610
▁budget	-4611
▁guards	-4612
▁narrow	-4613
▁beckham	-4614
▁enforce	-4615
▁reserve	-4616
▁simpson	-4617
▁tourism	-4618
▁treated	-4619
▁walking	-4620
achusetts	-4621
▁facility	-4622
▁intended	-4623
▁completed	-4624
▁suffering	-4625
▁survivors	-4626
▁nationwide	-4627
▁increasingly	-4628
▁massachusetts	-4629
lad	-4630
udd	-4631
rect	-4632
rees	-4633
rich	-4634
▁zoo	-4635
lands	-4636
usive	-4637
▁bure	-4638
▁mand	-4639
▁text	-4640
▁virt	-4641
▁wake	-4642
ground	-4643
idency	-4644
isting	-4645
▁delay	-4646
▁equal	-4647
▁sense	-4648
ression	-4649
▁broken	-4650
▁carbon	-4651
▁columb	-4652
▁iraqis	-4653
▁photos	-4654
▁thanks	-4655
▁ancient	-4656
▁arizona	-4657
▁opposed	-4658
▁picture	-4659
▁speaker	-4660
▁strateg	-4661
▁threats	-4662
▁strategy	-4663
▁detention	-4664
▁assistance	-4665
▁organizers	-4666
cle	-4667
▁jim	-4668
usion	-4669
▁unve	-4670
nament	-4671
▁agric	-4672
▁defin	-4673
▁exerc	-4674
▁value	-4675
▁berlin	-4676
▁facing	-4677
▁hilton	-4678
▁academy	-4679
▁farmers	-4680
▁allowing	-4681
▁appearance	-4682
▁tournament	-4683
▁representatives	-4684
la	-4685
ny	-4686
aze	-4687
ena	-4688
ford	-4689
ills	-4690
▁250	-4691
▁pel	-4692
▁rid	-4693
▁sat	-4694
▁tun	-4695
iring	-4696
osing	-4697
pread	-4698
verse	-4699
▁outr	-4700
▁path	-4701
▁thai	-4702
incial	-4703
▁categ	-4704
▁deton	-4705
▁fatal	-4706
▁goals	-4707
▁johns	-4708
▁noted	-4709
▁relay	-4710
▁spons	-4711
▁wides	-4712
▁asking	-4713
▁ensure	-4714
▁potter	-4715
▁walked	-4716
▁charles	-4717
▁clearly	-4718
▁comfort	-4719
▁entered	-4720
▁greater	-4721
▁partner	-4722
▁canceled	-4723
▁governing	-4724
▁casualties	-4725
▁photograph	-4726
▁provincial	-4727
▁widespread	-4728
dom	-4729
▁41	-4730
▁64	-4731
▁eve	-4732
▁obt	-4733
inger	-4734
orrow	-4735
ropri	-4736
usted	-4737
▁cart	-4738
▁cuts	-4739
▁exam	-4740
▁gamb	-4741
▁hamp	-4742
▁isol	-4743
▁slam	-4744
▁subs	-4745
▁cents	-4746
▁roads	-4747
▁scale	-4748
▁subur	-4749
▁abroad	-4750
▁gunmen	-4751
▁resour	-4752
▁display	-4753
▁samsung	-4754
▁tonight	-4755
▁agricult	-4756
▁extended	-4757
▁property	-4758
▁roadside	-4759
▁strongly	-4760
▁venezuela	-4761
▁completely	-4762
▁kidnapping	-4763
▁profession	-4764
▁speculation	-4765
da	-4766
pe	-4767
ule	-4768
▁54	-4769
fire	-4770
oney	-4771
icket	-4772
ivity	-4773
▁bond	-4774
▁kang	-4775
▁mike	-4776
▁mont	-4777
▁pray	-4778
▁rome	-4779
▁suit	-4780
▁torn	-4781
▁tort	-4782
ighter	-4783
▁coord	-4784
▁films	-4785
▁louis	-4786
▁advert	-4787
▁device	-4788
▁handed	-4789
▁martin	-4790
▁movies	-4791
▁phones	-4792
▁spirit	-4793
▁status	-4794
▁tempor	-4795
▁crucial	-4796
▁reasons	-4797
▁watched	-4798
▁invasion	-4799
▁princess	-4800
▁relative	-4801
▁wounding	-4802
▁colombian	-4803
▁diplomats	-4804
ki	-4805
mo	-4806
oke	-4807
▁rh	-4808
icip	-4809
oked	-4810
well	-4811
▁ker	-4812
▁log	-4813
▁syd	-4814
anted	-4815
▁auto	-4816
▁stal	-4817
▁books	-4818
▁haven	-4819
▁oscar	-4820
▁assess	-4821
▁patrol	-4822
▁presum	-4823
▁profit	-4824
▁recall	-4825
▁unable	-4826
▁install	-4827
▁trapped	-4828
▁insisted	-4829
▁mohammed	-4830
▁eventually	-4831
▁negotiator	-4832
▁presidency	-4833
▁correspondent	-4834
▁communications	-4835
cel	-4836
enty	-4837
iami	-4838
▁alb	-4839
▁bow	-4840
▁lie	-4841
aches	-4842
enger	-4843
▁dong	-4844
▁edit	-4845
▁ford	-4846
▁khan	-4847
▁tape	-4848
▁cited	-4849
▁liver	-4850
▁miami	-4851
▁altern	-4852
▁decide	-4853
▁formal	-4854
▁jersey	-4855
▁regard	-4856
▁sydney	-4857
▁treaty	-4858
▁delayed	-4859
▁limited	-4860
▁muslims	-4861
▁unclear	-4862
▁windows	-4863
▁abdullah	-4864
▁audience	-4865
▁specific	-4866
▁surprise	-4867
▁photograp	-4868
▁destruction	-4869
awa	-4870
bac	-4871
gen	-4872
ikh	-4873
mun	-4874
▁km	-4875
zing	-4876
▁ash	-4877
▁ric	-4878
▁sac	-4879
anced	-4880
inces	-4881
oding	-4882
▁dani	-4883
▁flow	-4884
atures	-4885
icient	-4886
mitted	-4887
▁enemy	-4888
▁niger	-4889
▁smoke	-4890
▁active	-4891
▁outbre	-4892
▁planes	-4893
▁ronald	-4894
▁weapon	-4895
▁proceed	-4896
▁smaller	-4897
▁finished	-4898
▁lawmaker	-4899
▁memorial	-4900
▁reporter	-4901
▁appointed	-4902
▁provinces	-4903
▁recession	-4904
▁standards	-4905
▁electronic	-4906
▁humanitarian	-4907
ura	-4908
▁65	-4909
▁az	-4910
▁ec	-4911
iang	-4912
itan	-4913
sequ	-4914
▁awa	-4915
▁riv	-4916
▁sar	-4917
▁spr	-4918
▁unp	-4919
ously	-4920
▁dram	-4921
▁fash	-4922
▁lady	-4923
▁lose	-4924
▁wars	-4925
▁wave	-4926
antage	-4927
▁leads	-4928
▁monks	-4929
▁quite	-4930
▁rooms	-4931
▁answer	-4932
▁buying	-4933
▁closer	-4934
▁injury	-4935
▁weekly	-4936
▁benazir	-4937
▁liberal	-4938
▁perfect	-4939
▁zealand	-4940
▁administ	-4941
▁becoming	-4942
▁projects	-4943
▁discovery	-4944
▁tradition	-4945
▁foundation	-4946
▁championship	-4947
▁entertainment	-4948
bar	-4949
uri	-4950
▁lt	-4951
arta	-4952
erer	-4953
onom	-4954
▁gov	-4955
▁nbc	-4956
ville	-4957
▁budd	-4958
▁jury	-4959
▁thom	-4960
▁yell	-4961
▁angry	-4962
▁delta	-4963
▁diego	-4964
▁knows	-4965
▁recru	-4966
▁stone	-4967
▁enrich	-4968
▁export	-4969
▁income	-4970
▁sudden	-4971
▁aggress	-4972
▁johnson	-4973
▁putting	-4974
▁champion	-4975
▁malaysia	-4976
▁anonymity	-4977
▁discussed	-4978
▁offensive	-4979
▁electricity	-4980
nd	-4981
▁39	-4982
▁pc	-4983
byon	-4984
inal	-4985
oard	-4986
uals	-4987
▁atm	-4988
▁toy	-4989
▁yon	-4990
▁boss	-4991
▁ghaz	-4992
▁lake	-4993
▁prel	-4994
▁task	-4995
▁exile	-4996
▁sound	-4997
▁towns	-4998
▁devast	-4999
▁except	-5000
▁judges	-5001
▁owners	-5002
▁perman	-5003
▁seeing	-5004
▁soccer	-5005
▁apology	-5006
▁boycott	-5007
▁concert	-5008
▁covered	-5009
▁example	-5010
▁fashion	-5011
▁federer	-5012
▁internal	-5013
▁resident	-5014
▁revealed	-5015
▁treasury	-5016
▁trillion	-5017
▁yongbyon	-5018
▁returning	-5019
▁statements	-5020
chi	-5021
ets	-5022
hem	-5023
him	-5024
sea	-5025
unk	-5026
▁ble	-5027
▁bob	-5028
▁pit	-5029
▁ukr	-5030
arant	-5031
ipped	-5032
▁coff	-5033
▁dogs	-5034
▁fier	-5035
▁gets	-5036
▁outp	-5037
▁upon	-5038
▁vlad	-5039
akarta	-5040
▁agend	-5041
▁bench	-5042
▁comed	-5043
▁looks	-5044
▁renew	-5045
▁stake	-5046
essions	-5047
▁aboard	-5048
▁bought	-5049
▁burned	-5050
▁darfur	-5051
▁jumped	-5052
▁proced	-5053
▁prompt	-5054
▁achieve	-5055
▁conspir	-5056
▁cutting	-5057
▁heading	-5058
▁islands	-5059
▁radical	-5060
▁sparked	-5061
▁turning	-5062
▁claiming	-5063
▁festival	-5064
▁reaction	-5065
▁watching	-5066
▁electoral	-5067
▁inflation	-5068
▁preparing	-5069
▁newspapers	-5070
▁acknowledged	-5071
▁ak	-5072
tery	-5073
uers	-5074
▁195	-5075
▁lah	-5076
▁luc	-5077
▁mph	-5078
▁suc	-5079
leine	-5080
oline	-5081
▁dump	-5082
▁eyes	-5083
▁feed	-5084
▁gonz	-5085
▁guns	-5086
▁hero	-5087
▁none	-5088
▁swim	-5089
▁tear	-5090
▁toys	-5091
▁agent	-5092
▁catch	-5093
▁enjoy	-5094
▁hwang	-5095
▁maker	-5096
▁milan	-5097
▁santa	-5098
▁cheney	-5099
▁driven	-5100
▁filled	-5101
▁hoping	-5102
▁stress	-5103
▁valley	-5104
▁edwards	-5105
▁exports	-5106
▁founder	-5107
▁herself	-5108
▁indiana	-5109
▁ranking	-5110
▁smoking	-5111
▁subject	-5112
▁currency	-5113
▁drinking	-5114
▁flooding	-5115
▁tomorrow	-5116
▁concluded	-5117
▁corporate	-5118
▁insurance	-5119
▁northwest	-5120
▁travelers	-5121
▁triggered	-5122
▁regulations	-5123
ea	-5124
ita	-5125
lig	-5126
rae	-5127
ugg	-5128
otic	-5129
▁ceo	-5130
▁cow	-5131
▁dod	-5132
ollah	-5133
▁boats	-5134
▁corps	-5135
▁dubai	-5136
▁maybe	-5137
▁nadal	-5138
▁pound	-5139
▁youth	-5140
chester	-5141
▁agenda	-5142
▁buried	-5143
▁detain	-5144
▁expert	-5145
▁fisher	-5146
▁powers	-5147
▁remove	-5148
▁trains	-5149
▁volcan	-5150
▁advance	-5151
▁promote	-5152
▁seconds	-5153
▁studies	-5154
▁version	-5155
▁rescuers	-5156
▁standard	-5157
▁upcoming	-5158
▁hospitals	-5159
▁referring	-5160
▁commitment	-5161
▁executives	-5162
▁firefighters	-5163
▁restrictions	-5164
kk	-5165
hap	-5166
rig	-5167
▁ia	-5168
fall	-5169
fare	-5170
gage	-5171
▁jes	-5172
▁lob	-5173
ading	-5174
ulate	-5175
▁calm	-5176
▁chos	-5177
▁dict	-5178
▁harm	-5179
▁matt	-5180
▁runs	-5181
▁samp	-5182
▁type	-5183
▁forum	-5184
imately	-5185
▁broadc	-5186
▁experi	-5187
▁landed	-5188
▁lifted	-5189
▁marked	-5190
▁urging	-5191
▁welcom	-5192
▁connect	-5193
▁raising	-5194
▁trouble	-5195
▁wedding	-5196
▁canadian	-5197
▁confront	-5198
▁deployed	-5199
▁prelimin	-5200
▁organized	-5201
▁officially	-5202
▁56	-5203
▁da	-5204
▁eh	-5205
icks	-5206
rend	-5207
▁ath	-5208
▁dal	-5209
▁kat	-5210
▁raf	-5211
▁sem	-5212
▁spy	-5213
▁tab	-5214
stein	-5215
works	-5216
▁boys	-5217
▁goog	-5218
▁grab	-5219
▁mars	-5220
▁plus	-5221
▁pref	-5222
▁skin	-5223
▁sust	-5224
▁visa	-5225
▁wins	-5226
▁yout	-5227
▁absol	-5228
▁joong	-5229
▁overw	-5230
▁petro	-5231
▁worse	-5232
duction	-5233
▁alaska	-5234
▁atmosp	-5235
▁choose	-5236
▁convoy	-5237
▁daniel	-5238
▁disney	-5239
▁gained	-5240
▁proper	-5241
▁reject	-5242
▁sister	-5243
▁auction	-5244
▁falling	-5245
▁follows	-5246
▁landing	-5247
▁succeed	-5248
▁youtube	-5249
▁chemical	-5250
▁cultural	-5251
▁physical	-5252
▁disappear	-5253
▁madeleine	-5254
▁resources	-5255
▁southwest	-5256
▁supported	-5257
▁percentage	-5258
▁investigate	-5259
▁legislation	-5260
uj	-5261
zb	-5262
enn	-5263
kel	-5264
uts	-5265
haps	-5266
▁bon	-5267
▁cla	-5268
▁cry	-5269
▁hat	-5270
▁wil	-5271
uster	-5272
▁flew	-5273
▁gulf	-5274
▁hezb	-5275
▁shan	-5276
▁unus	-5277
iously	-5278
▁apart	-5279
▁begun	-5280
▁overn	-5281
▁stret	-5282
▁acting	-5283
▁campus	-5284
▁gunman	-5285
▁rivals	-5286
▁serbia	-5287
▁simply	-5288
▁yellow	-5289
▁centers	-5290
▁digital	-5291
▁perhaps	-5292
▁promise	-5293
▁breaking	-5294
▁catholic	-5295
▁practice	-5296
▁substant	-5297
▁advantage	-5298
▁certainly	-5299
▁interests	-5300
▁neighbors	-5301
▁opponents	-5302
▁overnight	-5303
▁passenger	-5304
▁reporting	-5305
▁differences	-5306
▁preliminary	-5307
aug	-5308
awi	-5309
gar	-5310
ipe	-5311
lor	-5312
zen	-5313
▁49	-5314
ctic	-5315
▁fab	-5316
▁fan	-5317
▁via	-5318
raeus	-5319
▁2009	-5320
▁aide	-5321
▁excl	-5322
▁sick	-5323
argets	-5324
ivered	-5325
▁adopt	-5326
▁aides	-5327
▁brand	-5328
▁buddh	-5329
▁drove	-5330
▁faith	-5331
▁fires	-5332
▁optim	-5333
▁prove	-5334
▁spend	-5335
▁throw	-5336
▁truth	-5337
▁assets	-5338
▁fought	-5339
▁interp	-5340
▁landsl	-5341
▁method	-5342
▁resist	-5343
▁vladim	-5344
▁atlanta	-5345
▁guarant	-5346
▁lawsuit	-5347
▁learned	-5348
▁refugee	-5349
▁targets	-5350
▁absolute	-5351
▁gasoline	-5352
▁introduc	-5353
▁location	-5354
▁offering	-5355
▁petraeus	-5356
▁publicly	-5357
▁confident	-5358
▁emissions	-5359
▁hezbollah	-5360
▁materials	-5361
▁requested	-5362
▁manchester	-5363
▁repeatedly	-5364
▁restaurant	-5365
zz	-5366
jad	-5367
nis	-5368
uce	-5369
war	-5370
▁58	-5371
esty	-5372
iest	-5373
ouri	-5374
unte	-5375
▁ped	-5376
▁sin	-5377
attle	-5378
osure	-5379
▁cool	-5380
▁cycl	-5381
▁edge	-5382
▁exit	-5383
▁leng	-5384
▁mour	-5385
▁prol	-5386
▁pump	-5387
▁quit	-5388
▁sand	-5389
▁unem	-5390
▁glass	-5391
▁initi	-5392
▁learn	-5393
▁macau	-5394
▁osama	-5395
▁piece	-5396
▁steel	-5397
mission	-5398
▁stores	-5399
▁tested	-5400
▁wonder	-5401
▁reading	-5402
▁statist	-5403
▁volunte	-5404
▁accompan	-5405
▁attended	-5406
▁estimate	-5407
▁homeland	-5408
▁maryland	-5409
▁negative	-5410
▁prompted	-5411
▁recovery	-5412
▁slightly	-5413
▁extremely	-5414
▁continuing	-5415
▁venezuelan	-5416
▁questioning	-5417
▁restaurants	-5418
bur	-5419
eed	-5420
era	-5421
hab	-5422
▁iv	-5423
▁ka	-5424
▁mr	-5425
feld	-5426
pool	-5427
▁era	-5428
▁kaz	-5429
▁lar	-5430
▁rig	-5431
▁tan	-5432
▁yes	-5433
acity	-5434
ansas	-5435
▁argu	-5436
▁farc	-5437
▁jeff	-5438
▁manh	-5439
▁sean	-5440
olitan	-5441
▁accus	-5442
▁older	-5443
▁split	-5444
▁google	-5445
▁humans	-5446
▁larger	-5447
▁pushed	-5448
▁seemed	-5449
▁thomas	-5450
▁coastal	-5451
▁compens	-5452
▁engaged	-5453
▁journey	-5454
▁kingdom	-5455
▁tourist	-5456
▁unemploy	-5457
▁delivered	-5458
▁permanent	-5459
▁stability	-5460
▁temperatures	-5461
va	-5462
▁66	-5463
▁68	-5464
book	-5465
oria	-5466
outs	-5467
▁abc	-5468
▁aer	-5469
▁jam	-5470
▁jul	-5471
abeth	-5472
iters	-5473
shire	-5474
water	-5475
▁bell	-5476
▁copy	-5477
▁easy	-5478
▁ehud	-5479
▁hole	-5480
▁jord	-5481
▁sail	-5482
action	-5483
▁dress	-5484
▁fayed	-5485
▁fewer	-5486
▁gives	-5487
▁prost	-5488
▁solar	-5489
▁allows	-5490
▁counts	-5491
▁degree	-5492
▁estate	-5493
▁complic	-5494
▁couples	-5495
▁erupted	-5496
▁invited	-5497
▁profile	-5498
▁pushing	-5499
▁reduced	-5500
▁benefits	-5501
▁challeng	-5502
▁contests	-5503
▁creating	-5504
▁delivery	-5505
▁islamist	-5506
▁vladimir	-5507
▁searching	-5508
▁conspiracy	-5509
▁inspectors	-5510
▁conservation	-5511
ju	-5512
ini	-5513
▁pu	-5514
agan	-5515
cher	-5516
iano	-5517
lsea	-5518
▁cos	-5519
▁hug	-5520
▁mun	-5521
▁sam	-5522
▁wid	-5523
illed	-5524
▁brut	-5525
▁diam	-5526
▁gore	-5527
▁holy	-5528
▁lind	-5529
▁neck	-5530
▁pace	-5531
▁sony	-5532
▁tiny	-5533
▁veto	-5534
inated	-5535
▁abdul	-5536
▁birds	-5537
▁grave	-5538
▁trees	-5539
▁applic	-5540
▁bureau	-5541
▁jailed	-5542
▁pretty	-5543
▁runner	-5544
▁simple	-5545
▁yonhap	-5546
▁arrival	-5547
▁chances	-5548
▁chelsea	-5549
▁divided	-5550
▁options	-5551
▁recover	-5552
▁retired	-5553
▁caucuses	-5554
▁identify	-5555
▁innocent	-5556
▁messages	-5557
▁overwhel	-5558
▁alexander	-5559
▁presented	-5560
▁enrichment	-5561
▁generation	-5562
▁successful	-5563
▁helicopters	-5564
▁hospitalized	-5565
▁representative	-5566
ho	-5567
ett	-5568
rys	-5569
▁61	-5570
▁95	-5571
bery	-5572
▁120	-5573
▁130	-5574
▁gop	-5575
▁mut	-5576
▁pkk	-5577
▁tay	-5578
deleg	-5579
erous	-5580
▁acts	-5581
▁iaea	-5582
▁rebu	-5583
▁tall	-5584
inejad	-5585
minent	-5586
▁basis	-5587
▁cease	-5588
▁lohan	-5589
▁lying	-5590
▁overt	-5591
▁plung	-5592
▁proud	-5593
▁spect	-5594
▁threw	-5595
▁awards	-5596
▁boeing	-5597
▁bottom	-5598
▁corner	-5599
▁couldn	-5600
▁desert	-5601
▁fallen	-5602
▁margin	-5603
▁morgan	-5604
▁regist	-5605
▁shrine	-5606
ropriate	-5607
▁ability	-5608
▁closely	-5609
▁focused	-5610
▁healthy	-5611
▁jakarta	-5612
▁meaning	-5613
▁rockets	-5614
▁counterp	-5615
▁formally	-5616
▁infected	-5617
▁outbreak	-5618
▁reaching	-5619
▁struggle	-5620
▁bilateral	-5621
▁detonated	-5622
▁hampshire	-5623
▁predicted	-5624
▁responded	-5625
▁targeting	-5626
▁superdeleg	-5627
▁ahmadinejad	-5628
fl	-5629
oth	-5630
ume	-5631
▁69	-5632
ques	-5633
▁daw	-5634
▁eat	-5635
▁gap	-5636
▁1994	-5637
▁belg	-5638
▁crop	-5639
▁liqu	-5640
▁peru	-5641
▁roll	-5642
▁scen	-5643
▁scot	-5644
▁sets	-5645
▁shir	-5646
▁tied	-5647
▁tsun	-5648
atican	-5649
rating	-5650
▁basic	-5651
▁basra	-5652
▁drawn	-5653
▁exhib	-5654
▁loans	-5655
▁rural	-5656
▁shout	-5657
▁circum	-5658
▁disarm	-5659
▁frozen	-5660
▁intens	-5661
▁jordan	-5662
▁length	-5663
▁multip	-5664
▁nature	-5665
▁offers	-5666
▁remark	-5667
▁shared	-5668
▁termin	-5669
▁diamond	-5670
▁funding	-5671
▁matches	-5672
▁regions	-5673
▁routine	-5674
▁secular	-5675
▁staying	-5676
▁stepped	-5677
▁vatican	-5678
▁favorite	-5679
▁friendly	-5680
▁producer	-5681
▁strength	-5682
▁welcomed	-5683
▁recovered	-5684
▁violation	-5685
▁philippines	-5686
▁unification	-5687
▁broadcasting	-5688
▁expectations	-5689
▁congressional	-5690
▁demonstration	-5691
ola	-5692
ope	-5693
rey	-5694
▁59	-5695
▁63	-5696
▁gi	-5697
▁ox	-5698
chen	-5699
ucky	-5700
▁bah	-5701
▁gib	-5702
▁kib	-5703
ailed	-5704
ledge	-5705
oking	-5706
owitz	-5707
▁2010	-5708
▁aids	-5709
▁airb	-5710
▁bost	-5711
▁duty	-5712
▁ease	-5713
▁emph	-5714
▁ends	-5715
▁fate	-5716
▁gard	-5717
▁note	-5718
▁swed	-5719
▁vari	-5720
▁vast	-5721
▁vent	-5722
▁chile	-5723
▁gains	-5724
▁label	-5725
▁limit	-5726
▁paint	-5727
▁unity	-5728
▁upper	-5729
▁arrive	-5730
▁bloody	-5731
▁cleric	-5732
▁floods	-5733
▁formed	-5734
▁ghazni	-5735
▁bombers	-5736
▁closing	-5737
▁cyclone	-5738
▁dismant	-5739
▁effects	-5740
▁license	-5741
▁plastic	-5742
▁strikes	-5743
▁teacher	-5744
▁tsunami	-5745
▁ukraine	-5746
▁atlantic	-5747
▁findings	-5748
▁portugal	-5749
▁survived	-5750
▁unveiled	-5751
▁producing	-5752
▁participate	-5753
dc	-5754
pa	-5755
kin	-5756
rec	-5757
see	-5758
etic	-5759
orse	-5760
rell	-5761
stri	-5762
▁fox	-5763
▁lev	-5764
▁lux	-5765
▁rio	-5766
agues	-5767
ental	-5768
inals	-5769
osite	-5770
▁amaz	-5771
▁beef	-5772
▁brig	-5773
▁bull	-5774
▁chad	-5775
▁drag	-5776
▁lama	-5777
▁lift	-5778
▁norm	-5779
▁dalai	-5780
▁divor	-5781
▁jesus	-5782
▁kevin	-5783
▁manip	-5784
▁nobel	-5785
▁pilot	-5786
▁squad	-5787
▁waste	-5788
▁inches	-5789
▁stance	-5790
▁ticket	-5791
▁adopted	-5792
▁convers	-5793
▁edition	-5794
▁jackson	-5795
▁surface	-5796
▁welcome	-5797
▁whaling	-5798
▁writing	-5799
▁buddhist	-5800
▁capacity	-5801
▁circumst	-5802
▁diplomat	-5803
▁medicine	-5804
▁pregnant	-5805
▁standoff	-5806
▁tropical	-5807
▁vacation	-5808
▁gathering	-5809
▁liverpool	-5810
▁peacekeep	-5811
▁astronauts	-5812
▁transition	-5813
▁administrat	-5814
▁controversy	-5815
▁enforcement	-5816
▁immigration	-5817
▁manufacture	-5818
gl	-5819
ded	-5820
ias	-5821
iat	-5822
ios	-5823
isf	-5824
thr	-5825
▁ms	-5826
▁guy	-5827
▁ire	-5828
▁pad	-5829
adesh	-5830
eared	-5831
▁grew	-5832
▁pair	-5833
▁patr	-5834
▁plat	-5835
▁ride	-5836
▁tree	-5837
rysler	-5838
▁anton	-5839
▁hawai	-5840
▁marks	-5841
▁reloc	-5842
▁sport	-5843
▁views	-5844
▁athlet	-5845
▁brutal	-5846
▁crowds	-5847
▁detect	-5848
▁escape	-5849
▁kibaki	-5850
▁ranked	-5851
▁videos	-5852
▁worker	-5853
entially	-5854
▁airstri	-5855
▁managed	-5856
▁mention	-5857
▁neither	-5858
▁rallies	-5859
▁telecom	-5860
▁younger	-5861
▁colorado	-5862
▁compound	-5863
▁entering	-5864
▁numerous	-5865
▁resigned	-5866
▁villages	-5867
▁knowledge	-5868
▁positions	-5869
▁primaries	-5870
▁apologized	-5871
▁girlfriend	-5872
▁counterpart	-5873
▁southeastern	-5874
rad	-5875
▁dv	-5876
life	-5877
olis	-5878
▁ess	-5879
▁carl	-5880
▁chun	-5881
▁debt	-5882
▁drew	-5883
▁eliz	-5884
▁emot	-5885
▁halt	-5886
▁stro	-5887
orders	-5888
▁arsen	-5889
▁bangl	-5890
▁breat	-5891
▁habit	-5892
▁newly	-5893
▁scott	-5894
▁sixth	-5895
▁strip	-5896
▁adults	-5897
▁afford	-5898
▁beaten	-5899
▁boston	-5900
▁cooper	-5901
▁leaves	-5902
▁beating	-5903
▁blocked	-5904
▁decline	-5905
▁drivers	-5906
▁illness	-5907
▁imports	-5908
▁maximum	-5909
▁reforms	-5910
▁abducted	-5911
▁columbia	-5912
▁exercise	-5913
▁maintain	-5914
▁troubled	-5915
▁warnings	-5916
▁colleagues	-5917
▁monitoring	-5918
▁punishment	-5919
▁registered	-5920
▁communication	-5921
zo	-5922
arr	-5923
▁aw	-5924
▁ye	-5925
airo	-5926
emic	-5927
ilit	-5928
ovic	-5929
▁adj	-5930
▁nav	-5931
▁raw	-5932
▁sli	-5933
▁slo	-5934
▁unn	-5935
▁yem	-5936
acing	-5937
attan	-5938
ports	-5939
ptive	-5940
asters	-5941
▁bound	-5942
▁delhi	-5943
▁disag	-5944
▁firms	-5945
▁grown	-5946
▁hills	-5947
▁wheel	-5948
▁bright	-5949
▁earned	-5950
▁golden	-5951
▁lowest	-5952
▁plants	-5953
▁scores	-5954
▁sector	-5955
▁unions	-5956
▁deliber	-5957
▁mississ	-5958
▁patient	-5959
▁warrant	-5960
▁worried	-5961
▁scotland	-5962
▁shopping	-5963
▁engineers	-5964
▁observers	-5965
▁atmosphere	-5966
▁engineering	-5967
▁individuals	-5968
▁disappointed	-5969
kok	-5970
oen	-5971
ook	-5972
roc	-5973
uct	-5974
uni	-5975
▁85	-5976
▁ay	-5977
▁ta	-5978
enth	-5979
form	-5980
ghai	-5981
ippi	-5982
pass	-5983
▁obv	-5984
▁sri	-5985
antly	-5986
▁2012	-5987
▁chap	-5988
▁chen	-5989
▁guer	-5990
▁lank	-5991
▁prob	-5992
▁typh	-5993
▁vacc	-5994
▁doubt	-5995
▁inaug	-5996
▁kerry	-5997
▁schol	-5998
▁yemen	-5999
▁bitter	-6000
▁deeply	-6001
▁dinner	-6002
▁firing	-6003
▁flames	-6004
▁master	-6005
▁packed	-6006
▁stands	-6007
▁string	-6008
▁superv	-6009
▁bangkok	-6010
▁captain	-6011
▁cleared	-6012
▁expects	-6013
▁failing	-6014
▁feeling	-6015
▁machine	-6016
▁pirates	-6017
▁reality	-6018
▁roughly	-6019
▁accounts	-6020
▁birthday	-6021
▁reconcil	-6022
▁recorded	-6023
▁shanghai	-6024
▁watchdog	-6025
▁argentina	-6026
▁effective	-6027
▁elizabeth	-6028
▁indonesian	-6029
▁introduced	-6030
▁disarmament	-6031
▁established	-6032
▁mississippi	-6033
▁professional	-6034
▁unemployment	-6035
▁manufacturing	-6036
80	-6037
dy	-6038
dro	-6039
oma	-6040
▁ug	-6041
rete	-6042
wart	-6043
▁191	-6044
▁ank	-6045
▁gmt	-6046
▁seg	-6047
▁sha	-6048
▁aren	-6049
▁hang	-6050
▁hasn	-6051
▁migr	-6052
▁toug	-6053
▁uses	-6054
▁alban	-6055
▁barri	-6056
▁blame	-6057
▁escal	-6058
▁gradu	-6059
▁shops	-6060
▁shots	-6061
▁swiss	-6062
▁jewish	-6063
▁option	-6064
▁orders	-6065
▁somali	-6066
▁subsid	-6067
▁backing	-6068
▁burning	-6069
▁degrees	-6070
▁emerged	-6071
▁endorse	-6072
▁escaped	-6073
▁sharing	-6074
▁towards	-6075
▁replaced	-6076
▁suggests	-6077
▁unlikely	-6078
▁boyfriend	-6079
▁brazilian	-6080
▁intention	-6081
▁deployment	-6082
▁alternative	-6083
▁negotiators	-6084
▁southwestern	-6085
▁circumstances	-6086
▁revolutionary	-6087
▁superdelegates	-6088
pet	-6089
vey	-6090
zed	-6091
▁eb	-6092
▁si	-6093
achi	-6094
anes	-6095
bour	-6096
gged	-6097
▁coc	-6098
▁ray	-6099
▁vit	-6100
dinga	-6101
icial	-6102
night	-6103
rated	-6104
verty	-6105
▁ages	-6106
▁appl	-6107
▁bags	-6108
▁dick	-6109
▁epic	-6110
▁glac	-6111
▁imag	-6112
▁merc	-6113
▁sort	-6114
▁tack	-6115
▁yous	-6116
atever	-6117
▁camps	-6118
▁error	-6119
▁metal	-6120
▁mouth	-6121
▁shock	-6122
▁sight	-6123
attered	-6124
illance	-6125
▁barcel	-6126
▁bigger	-6127
▁depend	-6128
▁eating	-6129
▁fierce	-6130
▁hawaii	-6131
▁mccann	-6132
▁odinga	-6133
▁prohib	-6134
▁symbol	-6135
▁anticip	-6136
▁bailout	-6137
▁banking	-6138
▁barrels	-6139
▁citizen	-6140
▁consequ	-6141
▁correct	-6142
▁earning	-6143
▁intense	-6144
▁poverty	-6145
▁rescued	-6146
▁restore	-6147
▁stories	-6148
▁briefing	-6149
▁changing	-6150
▁multiple	-6151
▁stressed	-6152
▁whatever	-6153
▁alongside	-6154
▁dominated	-6155
▁attempting	-6156
▁difference	-6157
▁discussion	-6158
▁surveillance	-6159
▁investigations	-6160
aka	-6161
oli	-6162
pan	-6163
anch	-6164
ourt	-6165
rill	-6166
▁lit	-6167
▁moh	-6168
bacco	-6169
inson	-6170
inted	-6171
undai	-6172
▁hide	-6173
▁lung	-6174
▁nick	-6175
▁sons	-6176
▁stim	-6177
▁wait	-6178
illing	-6179
▁civic	-6180
▁globe	-6181
▁moves	-6182
▁novel	-6183
▁oblig	-6184
▁swept	-6185
▁castro	-6186
▁elimin	-6187
▁faster	-6188
▁gallon	-6189
▁memory	-6190
▁metrop	-6191
▁paying	-6192
▁romney	-6193
▁arsenal	-6194
▁forcing	-6195
▁hyundai	-6196
▁outrage	-6197
▁rapidly	-6198
▁referen	-6199
▁testing	-6200
▁tobacco	-6201
▁mortgage	-6202
▁obtained	-6203
▁stronger	-6204
▁traveled	-6205
▁barcelona	-6206
▁household	-6207
▁manhattan	-6208
▁scientist	-6209
▁bangladesh	-6210
▁complained	-6211
▁individual	-6212
▁originally	-6213
▁transferred	-6214
▁understanding	-6215
30	-6216
bod	-6217
bor	-6218
iop	-6219
irty	-6220
omes	-6221
▁gor	-6222
▁hid	-6223
▁jon	-6224
▁lew	-6225
▁ske	-6226
dogan	-6227
enses	-6228
iliar	-6229
imony	-6230
point	-6231
▁1996	-6232
▁beer	-6233
▁link	-6234
▁ramp	-6235
▁reun	-6236
▁sole	-6237
▁stun	-6238
▁unif	-6239
▁warm	-6240
▁wors	-6241
ocking	-6242
▁anger	-6243
▁false	-6244
▁forec	-6245
▁henry	-6246
▁liter	-6247
▁loyal	-6248
▁nowak	-6249
▁phoen	-6250
▁quiet	-6251
▁stern	-6252
▁sweet	-6253
▁accord	-6254
▁causes	-6255
▁coffee	-6256
▁debris	-6257
▁greece	-6258
▁guests	-6259
▁inquir	-6260
▁mccorm	-6261
▁prepar	-6262
▁specif	-6263
▁thirds	-6264
▁cameras	-6265
▁capable	-6266
▁erdogan	-6267
▁exactly	-6268
▁funeral	-6269
▁hopeful	-6270
▁militia	-6271
▁somalia	-6272
▁accusing	-6273
▁chrysler	-6274
▁remember	-6275
▁expensive	-6276
▁televised	-6277
▁wolfowitz	-6278
▁reconciliation	-6279
alf	-6280
ero	-6281
osi	-6282
▁yi	-6283
irai	-6284
mand	-6285
▁pin	-6286
▁sor	-6287
▁tam	-6288
▁tsv	-6289
▁yan	-6290
aters	-6291
ecess	-6292
erves	-6293
itely	-6294
▁1950	-6295
▁cave	-6296
▁hunt	-6297
▁verd	-6298
▁amend	-6299
▁loved	-6300
▁prosp	-6301
▁shift	-6302
▁urban	-6303
▁vital	-6304
ception	-6305
▁assert	-6306
▁carter	-6307
▁comedy	-6308
▁emphas	-6309
▁joseph	-6310
▁native	-6311
▁storms	-6312
▁strict	-6313
▁founded	-6314
▁gambari	-6315
▁phoenix	-6316
▁privacy	-6317
▁section	-6318
▁separat	-6319
▁stalled	-6320
▁typhoon	-6321
▁controls	-6322
▁imprison	-6323
▁isolated	-6324
▁violated	-6325
▁prompting	-6326
▁disappeared	-6327
daq	-6328
had	-6329
oms	-6330
quo	-6331
uls	-6332
▁na	-6333
ache	-6334
adel	-6335
aint	-6336
aret	-6337
iani	-6338
icit	-6339
▁900	-6340
▁alt	-6341
▁cig	-6342
▁jol	-6343
▁mit	-6344
▁wim	-6345
acked	-6346
essed	-6347
known	-6348
▁aung	-6349
▁busy	-6350
▁file	-6351
▁harv	-6352
▁mate	-6353
▁outs	-6354
▁porn	-6355
▁shah	-6356
▁stan	-6357
▁summ	-6358
▁aware	-6359
▁bened	-6360
▁flags	-6361
▁paulo	-6362
▁persu	-6363
▁roman	-6364
▁sarah	-6365
▁solid	-6366
▁sweep	-6367
▁worry	-6368
angirai	-6369
vereign	-6370
▁airbus	-6371
▁conver	-6372
▁copies	-6373
▁mainly	-6374
▁papers	-6375
▁pledge	-6376
▁promot	-6377
▁wounds	-6378
▁devices	-6379
▁fishing	-6380
▁kidnapp	-6381
▁letters	-6382
▁mohamed	-6383
▁unknown	-6384
▁category	-6385
▁identity	-6386
▁mainland	-6387
▁midnight	-6388
▁ordinary	-6389
▁teachers	-6390
▁wildlife	-6391
▁attending	-6392
▁decisions	-6393
▁everybody	-6394
▁illegally	-6395
▁nominated	-6396
▁reduction	-6397
▁shootings	-6398
▁sovereign	-6399
▁testimony	-6400
▁conducting	-6401
▁tsvangirai	-6402
▁underground	-6403
di	-6404
gs	-6405
ka	-6406
ori	-6407
wal	-6408
onic	-6409
oren	-6410
uter	-6411
▁cra	-6412
▁gro	-6413
▁hub	-6414
▁rif	-6415
▁rum	-6416
board	-6417
rence	-6418
▁1995	-6419
▁fern	-6420
▁huck	-6421
▁marc	-6422
▁pose	-6423
tering	-6424
▁adult	-6425
▁album	-6426
▁antar	-6427
▁bills	-6428
▁deals	-6429
▁debut	-6430
▁elder	-6431
▁multi	-6432
▁pilgr	-6433
▁argued	-6434
▁chosen	-6435
▁dubbed	-6436
▁hotels	-6437
▁integr	-6438
▁miners	-6439
▁stalin	-6440
▁temple	-6441
▁yangon	-6442
▁charity	-6443
▁fortune	-6444
▁patrick	-6445
▁battling	-6446
▁brothers	-6447
▁directed	-6448
▁familiar	-6449
▁interrog	-6450
▁networks	-6451
▁normally	-6452
▁referend	-6453
▁schedule	-6454
▁striking	-6455
▁unfortun	-6456
▁pollution	-6457
▁recommend	-6458
▁regarding	-6459
▁suspicion	-6460
▁technical	-6461
▁villagers	-6462
▁absolutely	-6463
▁authorized	-6464
▁containing	-6465
▁campaigning	-6466
esc	-6467
ius	-6468
atra	-6469
inct	-6470
reck	-6471
wait	-6472
▁emp	-6473
▁fit	-6474
▁jac	-6475
▁jin	-6476
▁pav	-6477
▁woo	-6478
onium	-6479
▁1991	-6480
▁cham	-6481
▁dust	-6482
▁kick	-6483
▁ryan	-6484
▁tend	-6485
dering	-6486
encing	-6487
ortion	-6488
▁greet	-6489
▁laure	-6490
▁links	-6491
▁begins	-6492
▁courts	-6493
▁darwin	-6494
▁ethiop	-6495
▁excess	-6496
▁imposs	-6497
▁kuwait	-6498
▁runway	-6499
▁stable	-6500
▁talked	-6501
standing	-6502
▁antonio	-6503
▁briefly	-6504
▁comprom	-6505
▁dealing	-6506
▁factory	-6507
▁ireland	-6508
▁marines	-6509
▁mexican	-6510
▁sitting	-6511
▁theater	-6512
▁uniform	-6513
▁writers	-6514
▁appealed	-6515
▁athletes	-6516
▁delegate	-6517
▁gonzales	-6518
▁instruct	-6519
▁priority	-6520
▁benchmark	-6521
▁contained	-6522
▁explosive	-6523
▁highlight	-6524
▁mccormack	-6525
▁sensitive	-6526
▁transform	-6527
▁classified	-6528
▁initiative	-6529
▁settlement	-6530
▁accusations	-6531
▁advertising	-6532
▁agriculture	-6533
▁metropolitan	-6534
eor	-6535
▁81	-6536
chan	-6537
enna	-6538
mont	-6539
oons	-6540
▁jae	-6541
▁nik	-6542
▁pap	-6543
berto	-6544
erved	-6545
liest	-6546
▁aged	-6547
▁anal	-6548
▁bath	-6549
▁hugo	-6550
▁roof	-6551
▁soil	-6552
ichuan	-6553
▁apply	-6554
▁conce	-6555
▁gross	-6556
▁latin	-6557
▁walls	-6558
▁whale	-6559
▁bullet	-6560
▁editor	-6561
▁orange	-6562
▁reagan	-6563
▁runoff	-6564
▁sheikh	-6565
▁staged	-6566
▁arrests	-6567
▁austria	-6568
▁borders	-6569
▁capture	-6570
▁explain	-6571
▁fernand	-6572
▁hitting	-6573
▁operate	-6574
▁pleaded	-6575
▁praised	-6576
▁prepare	-6577
▁returns	-6578
▁striker	-6579
▁torture	-6580
▁trigger	-6581
▁turnout	-6582
▁concrete	-6583
▁dramatic	-6584
▁moderate	-6585
▁attorneys	-6586
▁direction	-6587
▁generally	-6588
▁mountains	-6589
▁recognize	-6590
▁temporary	-6591
▁relatively	-6592
▁responding	-6593
▁scientific	-6594
▁surrounded	-6595
▁compensation	-6596
dd	-6597
zh	-6598
akh	-6599
bow	-6600
ema	-6601
isa	-6602
ram	-6603
san	-6604
won	-6605
▁91	-6606
▁kl	-6607
gers	-6608
ipel	-6609
look	-6610
wise	-6611
zech	-6612
▁bes	-6613
▁dol	-6614
▁dry	-6615
▁mog	-6616
▁ski	-6617
▁yen	-6618
▁1992	-6619
▁1993	-6620
▁boom	-6621
▁crus	-6622
▁palm	-6623
▁wear	-6624
▁wish	-6625
ansion	-6626
apolis	-6627
ashing	-6628
▁cargo	-6629
▁chong	-6630
▁czech	-6631
▁drama	-6632
▁hamid	-6633
▁harsh	-6634
▁legit	-6635
▁libya	-6636
▁lobby	-6637
▁raquo	-6638
▁score	-6639
▁agents	-6640
▁chiefs	-6641
▁client	-6642
▁endors	-6643
▁feared	-6644
▁height	-6645
▁lights	-6646
▁meteor	-6647
▁observ	-6648
▁ousted	-6649
▁rivers	-6650
▁steven	-6651
▁tennes	-6652
▁visits	-6653
ologists	-6654
▁balance	-6655
▁carrier	-6656
▁hunting	-6657
▁passing	-6658
▁survive	-6659
▁suspend	-6660
▁viewers	-6661
▁arriving	-6662
▁benedict	-6663
▁distance	-6664
▁momentum	-6665
▁quarterf	-6666
▁improving	-6667
▁negotiate	-6668
▁producers	-6669
▁sectarian	-6670
▁structure	-6671
▁successor	-6672
▁violating	-6673
▁collection	-6674
▁impossible	-6675
▁referendum	-6676
▁suggesting	-6677
je	-6678
vi	-6679
ads	-6680
aph	-6681
asc	-6682
ella	-6683
gans	-6684
hips	-6685
izes	-6686
onia	-6687
▁dan	-6688
▁hin	-6689
ighth	-6690
uting	-6691
▁chip	-6692
▁eric	-6693
▁giul	-6694
▁inch	-6695
▁kent	-6696
▁khal	-6697
▁knee	-6698
▁legs	-6699
▁loan	-6700
▁murd	-6701
▁chain	-6702
▁chest	-6703
▁chris	-6704
▁discl	-6705
▁exist	-6706
▁lanka	-6707
▁photo	-6708
▁raids	-6709
▁thank	-6710
entions	-6711
holders	-6712
through	-6713
▁advice	-6714
▁donald	-6715
▁easily	-6716
▁examin	-6717
▁factor	-6718
▁fields	-6719
▁makers	-6720
▁merkel	-6721
▁myster	-6722
▁nasdaq	-6723
▁pelosi	-6724
▁shield	-6725
▁surren	-6726
▁trucks	-6727
▁values	-6728
▁airways	-6729
▁awarded	-6730
▁clothes	-6731
▁declare	-6732
▁monitor	-6733
▁musical	-6734
▁profits	-6735
▁purpose	-6736
▁sailors	-6737
▁shelter	-6738
▁switzer	-6739
▁egyptian	-6740
▁informed	-6741
▁missouri	-6742
▁mohammad	-6743
▁petition	-6744
▁sexually	-6745
▁supposed	-6746
▁thinking	-6747
▁thousand	-6748
▁attacking	-6749
▁deadliest	-6750
▁encourage	-6751
▁fundament	-6752
▁tennessee	-6753
▁greenhouse	-6754
▁communities	-6755
▁switzerland	-6756
▁breakthrough	-6757
▁overwhelming	-6758
▁participants	-6759
gi	-6760
km	-6761
ua	-6762
ira	-6763
law	-6764
rie	-6765
rit	-6766
▁99	-6767
▁fo	-6768
abee	-6769
aman	-6770
apes	-6771
lock	-6772
mond	-6773
▁amn	-6774
▁fta	-6775
▁hee	-6776
▁naz	-6777
▁que	-6778
▁yas	-6779
orted	-6780
▁1960	-6781
▁anch	-6782
▁barb	-6783
▁emir	-6784
▁kate	-6785
▁mall	-6786
▁omar	-6787
▁peak	-6788
▁utah	-6789
bledon	-6790
istent	-6791
ration	-6792
▁bases	-6793
▁crews	-6794
▁explo	-6795
▁fleet	-6796
▁heath	-6797
▁posed	-6798
▁rains	-6799
▁risks	-6800
▁solve	-6801
▁toxic	-6802
▁upset	-6803
▁extend	-6804
▁lahore	-6805
▁michel	-6806
▁oldest	-6807
▁satisf	-6808
▁spoken	-6809
▁warner	-6810
▁window	-6811
▁amnesty	-6812
▁dressed	-6813
▁karachi	-6814
▁mistake	-6815
▁renewed	-6816
▁spotted	-6817
▁stephen	-6818
▁unusual	-6819
▁advanced	-6820
▁combined	-6821
▁disputed	-6822
▁executed	-6823
▁giuliani	-6824
▁huckabee	-6825
▁inspired	-6826
▁purchase	-6827
▁recalled	-6828
▁senators	-6829
▁incidents	-6830
▁increases	-6831
▁promoting	-6832
▁shortages	-6833
▁wimbledon	-6834
▁assessment	-6835
▁defendants	-6836
▁federation	-6837
▁violations	-6838
▁electronics	-6839
▁negotiating	-6840
▁northeastern	-6841
oto	-6842
udh	-6843
uez	-6844
uma	-6845
umi	-6846
▁86	-6847
▁88	-6848
▁dy	-6849
▁ark	-6850
▁hou	-6851
▁mam	-6852
▁mud	-6853
▁tee	-6854
▁yel	-6855
mates	-6856
owing	-6857
ulner	-6858
▁1989	-6859
▁blan	-6860
▁dean	-6861
▁embr	-6862
▁gray	-6863
▁plut	-6864
▁shif	-6865
▁unac	-6866
aching	-6867
arched	-6868
makers	-6869
rupted	-6870
▁aside	-6871
▁burst	-6872
▁entry	-6873
▁frame	-6874
▁frust	-6875
▁grass	-6876
▁nancy	-6877
▁orbit	-6878
▁plays	-6879
▁shore	-6880
▁smugg	-6881
▁wreck	-6882
uration	-6883
▁ahmadi	-6884
▁athens	-6885
▁cambod	-6886
▁centre	-6887
▁defect	-6888
▁destin	-6889
▁divers	-6890
▁liquid	-6891
▁nether	-6892
▁parent	-6893
▁poland	-6894
▁stimul	-6895
▁thinks	-6896
▁transl	-6897
▁underw	-6898
▁aftersh	-6899
▁caution	-6900
▁tension	-6901
▁worries	-6902
▁employee	-6903
▁features	-6904
▁greatest	-6905
▁indicate	-6906
▁platform	-6907
▁richards	-6908
▁addressed	-6909
▁complaint	-6910
▁otherwise	-6911
▁performed	-6912
▁plutonium	-6913
▁strategic	-6914
▁strengthe	-6915
▁testified	-6916
▁winehouse	-6917
▁complaints	-6918
▁extremists	-6919
▁historical	-6920
▁occupation	-6921
▁politician	-6922
▁netherlands	-6923
▁photographs	-6924
▁presumptive	-6925
▁institutions	-6926
▁successfully	-6927
▁confrontation	-6928
▁disappearance	-6929
hs	-6930
agn	-6931
ila	-6932
met	-6933
the	-6934
▁uh	-6935
brid	-6936
otti	-6937
▁dad	-6938
▁gad	-6939
▁hij	-6940
▁nov	-6941
▁sao	-6942
▁tel	-6943
▁tie	-6944
▁urg	-6945
▁vig	-6946
igned	-6947
ining	-6948
maker	-6949
▁bars	-6950
▁dawn	-6951
▁impe	-6952
▁lapt	-6953
▁rudd	-6954
▁sung	-6955
▁todd	-6956
▁touc	-6957
▁yoon	-6958
▁zero	-6959
▁advoc	-6960
▁breed	-6961
▁chaos	-6962
▁cloud	-6963
▁doors	-6964
▁motiv	-6965
▁popul	-6966
▁saved	-6967
▁tiger	-6968
▁toile	-6969
▁units	-6970
▁advent	-6971
▁beauty	-6972
▁bodygu	-6973
▁listed	-6974
▁listen	-6975
▁rodrig	-6976
▁syrian	-6977
▁traged	-6978
▁unrest	-6979
atically	-6980
idelines	-6981
▁abandon	-6982
▁benefit	-6983
▁compete	-6984
▁concent	-6985
▁constit	-6986
▁disable	-6987
▁exposed	-6988
▁houston	-6989
▁inquiry	-6990
▁ranging	-6991
▁revenue	-6992
▁stretch	-6993
▁variety	-6994
▁welfare	-6995
▁commerce	-6996
▁handling	-6997
▁referred	-6998
▁wireless	-6999
▁celebrity	-7000
▁defending	-7001
▁detainees	-7002
▁elsewhere	-7003
▁followers	-7004
▁louisiana	-7005
▁receiving	-7006
▁socialist	-7007
▁surprised	-7008
▁virtually	-7009
▁interested	-7010
▁presidents	-7011
▁broadcaster	-7012
▁corporation	-7013
▁investigated	-7014
sc	-7015
ala	-7016
hdi	-7017
imp	-7018
iox	-7019
iya	-7020
osa	-7021
cont	-7022
phia	-7023
sett	-7024
wers	-7025
▁140	-7026
▁160	-7027
▁ads	-7028
▁cul	-7029
▁ded	-7030
▁dvd	-7031
▁ecu	-7032
▁egg	-7033
▁jav	-7034
▁les	-7035
▁unh	-7036
cious	-7037
icked	-7038
oster	-7039
rahim	-7040
▁caps	-7041
▁clar	-7042
▁empt	-7043
▁flat	-7044
▁jews	-7045
▁nuri	-7046
▁nurs	-7047
▁opec	-7048
▁rang	-7049
▁sche	-7050
▁sequ	-7051
▁spur	-7052
ancing	-7053
▁annan	-7054
▁buses	-7055
▁chose	-7056
▁ideas	-7057
▁jihad	-7058
▁larry	-7059
▁mehdi	-7060
▁moore	-7061
▁mosul	-7062
▁postp	-7063
▁turns	-7064
▁unpre	-7065
▁waves	-7066
▁write	-7067
▁andrew	-7068
▁archae	-7069
▁behalf	-7070
▁hybrid	-7071
▁impose	-7072
▁infant	-7073
▁kansas	-7074
▁kenyan	-7075
▁motion	-7076
▁pursue	-7077
▁raided	-7078
▁regret	-7079
▁strain	-7080
▁twenty	-7081
adelphia	-7082
▁classes	-7083
▁cloning	-7084
▁counsel	-7085
▁element	-7086
▁legally	-7087
▁minimum	-7088
▁pointed	-7089
▁quoting	-7090
▁rowling	-7091
▁sharply	-7092
▁trained	-7093
▁unident	-7094
▁veteran	-7095
▁dictator	-7096
▁improved	-7097
▁payments	-7098
▁resolved	-7099
▁accidents	-7100
▁denuclear	-7101
▁displaced	-7102
▁locations	-7103
▁residence	-7104
▁sentiment	-7105
▁spreading	-7106
▁challenges	-7107
▁economists	-7108
▁protesting	-7109
▁represents	-7110
▁strengthen	-7111
▁investigator	-7112
▁philadelphia	-7113
▁unidentified	-7114
bes	-7115
iel	-7116
ien	-7117
ito	-7118
odo	-7119
▁gy	-7120
ardo	-7121
dick	-7122
ribe	-7123
tsin	-7124
uese	-7125
▁fol	-7126
▁joe	-7127
▁len	-7128
▁lun	-7129
▁sir	-7130
▁zaw	-7131
burgh	-7132
icken	-7133
▁acce	-7134
▁brad	-7135
▁brow	-7136
▁core	-7137
▁fred	-7138
▁fulf	-7139
▁gate	-7140
▁gren	-7141
▁kath	-7142
▁orle	-7143
▁sang	-7144
▁acres	-7145
▁capit	-7146
▁charl	-7147
▁crops	-7148
▁davis	-7149
▁embry	-7150
▁fever	-7151
▁galax	-7152
▁mixed	-7153
▁opens	-7154
▁polar	-7155
▁posts	-7156
▁robot	-7157
▁semif	-7158
▁terri	-7159
▁theme	-7160
▁timet	-7161
ography	-7162
▁apprec	-7163
▁easier	-7164
▁hosted	-7165
▁nobody	-7166
▁peters	-7167
▁proved	-7168
▁reiter	-7169
▁rumors	-7170
▁rushed	-7171
▁salmon	-7172
▁unfair	-7173
▁amounts	-7174
▁becomes	-7175
▁ceremon	-7176
▁cocaine	-7177
▁coordin	-7178
▁ecuador	-7179
▁enterpr	-7180
▁feature	-7181
▁ibrahim	-7182
▁plunged	-7183
▁reconst	-7184
▁tornado	-7185
▁tragedy	-7186
▁underst	-7187
▁verdict	-7188
▁yeltsin	-7189
▁colonial	-7190
▁crossing	-7191
▁injuring	-7192
▁provides	-7193
▁purposes	-7194
▁requires	-7195
▁studying	-7196
▁swimming	-7197
▁abandoned	-7198
▁contracts	-7199
▁releasing	-7200
▁spiritual	-7201
▁surrender	-7202
▁sustained	-7203
▁approached	-7204
▁insurgency	-7205
▁portuguese	-7206
▁appointment	-7207
▁documentary	-7208
▁experienced	-7209
has	-7210
ima	-7211
inn	-7212
▁pp	-7213
ahar	-7214
aste	-7215
more	-7216
▁gye	-7217
▁nin	-7218
▁rav	-7219
▁sab	-7220
rimin	-7221
space	-7222
▁blew	-7223
▁dall	-7224
▁eval	-7225
▁fert	-7226
▁laid	-7227
▁meat	-7228
▁recl	-7229
▁rums	-7230
▁sees	-7231
▁wart	-7232
intend	-7233
▁acted	-7234
▁cleve	-7235
▁cuban	-7236
▁flown	-7237
▁preca	-7238
▁retal	-7239
▁arabic	-7240
▁blasts	-7241
▁mechan	-7242
▁retire	-7243
▁stabil	-7244
▁tackle	-7245
▁topped	-7246
▁viewed	-7247
▁vulner	-7248
▁wouldn	-7249
▁arrange	-7250
▁beneath	-7251
▁knocked	-7252
▁monthly	-7253
▁orleans	-7254
▁parking	-7255
▁roddick	-7256
▁samples	-7257
▁seattle	-7258
▁winners	-7259
▁airports	-7260
▁contrast	-7261
▁detected	-7262
▁deterior	-7263
▁earnings	-7264
▁interven	-7265
▁israelis	-7266
▁longtime	-7267
▁occasion	-7268
▁prisoner	-7269
▁rumsfeld	-7270
▁searched	-7271
▁apologize	-7272
▁economist	-7273
▁malaysian	-7274
▁sentences	-7275
▁submitted	-7276
▁agreements	-7277
▁commanders	-7278
▁permission	-7279
▁popularity	-7280
▁administrative	-7281
ji	-7282
po	-7283
sl	-7284
ui	-7285
uz	-7286
yc	-7287
azz	-7288
eme	-7289
▁84	-7290
ario	-7291
cape	-7292
held	-7293
iece	-7294
kins	-7295
▁dim	-7296
▁mrs	-7297
▁soo	-7298
antic	-7299
apova	-7300
onsin	-7301
ooter	-7302
▁anth	-7303
▁brus	-7304
▁calc	-7305
▁earn	-7306
▁iron	-7307
▁mide	-7308
▁riot	-7309
▁unre	-7310
▁wisc	-7311
▁blaze	-7312
▁bones	-7313
▁cable	-7314
▁clash	-7315
▁crist	-7316
▁feels	-7317
▁genoc	-7318
▁meter	-7319
▁orche	-7320
▁recor	-7321
▁relax	-7322
▁repro	-7323
▁risen	-7324
▁rocks	-7325
▁roger	-7326
▁spill	-7327
▁stuff	-7328
▁trend	-7329
▁weigh	-7330
▁zawah	-7331
achment	-7332
angered	-7333
▁carlos	-7334
▁conced	-7335
▁delays	-7336
▁freeze	-7337
▁shinzo	-7338
▁suburb	-7339
▁volunt	-7340
▁broader	-7341
▁capitol	-7342
▁crossed	-7343
▁joining	-7344
▁marched	-7345
▁matters	-7346
▁mideast	-7347
▁outcome	-7348
▁pending	-7349
▁polling	-7350
▁resumed	-7351
▁seventh	-7352
▁slammed	-7353
▁tougher	-7354
▁vitamin	-7355
▁wartime	-7356
▁astronom	-7357
▁bankrupt	-7358
▁centered	-7359
▁defended	-7360
▁diseases	-7361
▁endorsed	-7362
▁homeless	-7363
▁landmark	-7364
▁pilgrims	-7365
▁resulted	-7366
▁departure	-7367
▁execution	-7368
▁happening	-7369
▁marketing	-7370
▁offenders	-7371
▁projected	-7372
▁protected	-7373
▁sharapova	-7374
▁wisconsin	-7375
▁employment	-7376
▁endangered	-7377
▁interviews	-7378
▁maintained	-7379
▁protecting	-7380
▁securities	-7381
▁ultimately	-7382
▁appropriate	-7383
▁devastating	-7384
▁potentially	-7385
▁conversation	-7386
▁representing	-7387
▁shareholders	-7388
ek	-7389
don	-7390
eav	-7391
mor	-7392
▁sg	-7393
▁wy	-7394
bell	-7395
cker	-7396
droe	-7397
iful	-7398
indi	-7399
irut	-7400
sell	-7401
ysis	-7402
▁350	-7403
▁ast	-7404
▁dak	-7405
▁fuj	-7406
▁jay	-7407
igers	-7408
ishes	-7409
oping	-7410
umbai	-7411
under	-7412
▁cats	-7413
▁dign	-7414
▁diox	-7415
▁dorm	-7416
▁entr	-7417
▁evil	-7418
▁flee	-7419
▁golf	-7420
▁hits	-7421
▁leak	-7422
▁lord	-7423
▁obst	-7424
▁scar	-7425
▁sett	-7426
▁tact	-7427
▁tomb	-7428
▁unco	-7429
▁urge	-7430
▁yuan	-7431
arrass	-7432
atched	-7433
▁badly	-7434
▁beaut	-7435
▁cards	-7436
▁cheap	-7437
▁climb	-7438
▁daugh	-7439
▁drink	-7440
▁flame	-7441
▁flash	-7442
▁greek	-7443
▁henin	-7444
▁imper	-7445
▁intel	-7446
▁maria	-7447
▁phase	-7448
▁timor	-7449
▁trips	-7450
▁beirut	-7451
▁belief	-7452
▁charts	-7453
▁consec	-7454
▁consol	-7455
▁denies	-7456
▁distur	-7457
▁endeav	-7458
▁engage	-7459
▁luxury	-7460
▁missed	-7461
▁mumbai	-7462
▁notice	-7463
▁pieces	-7464
▁safely	-7465
▁videot	-7466
▁vienna	-7467
▁whales	-7468
cedented	-7469
▁condemn	-7470
▁dioxide	-7471
▁futures	-7472
▁knowing	-7473
▁sichuan	-7474
▁totally	-7475
▁vessels	-7476
▁virtual	-7477
▁anderson	-7478
▁existing	-7479
▁genocide	-7480
▁indicted	-7481
▁ballistic	-7482
▁cooperate	-7483
▁criminals	-7484
▁daughters	-7485
▁denounced	-7486
▁embarrass	-7487
▁expansion	-7488
▁stationed	-7489
▁undermine	-7490
▁explosions	-7491
▁frequently	-7492
▁geological	-7493
▁importance	-7494
▁personally	-7495
▁volunteers	-7496
▁fundamental	-7497
▁proceedings	-7498
▁recommended	-7499
▁sovereignty	-7500
▁substantial	-7501
▁trafficking	-7502
▁specifically	-7503
▁universities	-7504
▁unprecedented	-7505
20	-7506
cho	-7507
exp	-7508
ezz	-7509
gue	-7510
phy	-7511
tan	-7512
uda	-7513
fast	-7514
ocol	-7515
omen	-7516
rack	-7517
roll	-7518
sper	-7519
vili	-7520
▁fos	-7521
▁gig	-7522
▁keb	-7523
▁lav	-7524
▁map	-7525
▁nam	-7526
▁ppp	-7527
▁raj	-7528
▁sav	-7529
▁tic	-7530
iders	-7531
▁cosm	-7532
▁elab	-7533
▁elev	-7534
▁fant	-7535
▁jane	-7536
▁mans	-7537
▁pron	-7538
▁publ	-7539
▁puts	-7540
▁wore	-7541
icated	-7542
keeper	-7543
▁aired	-7544
▁ambul	-7545
▁empty	-7546
▁lewis	-7547
▁monet	-7548
▁naked	-7549
▁patri	-7550
▁puert	-7551
▁swift	-7552
▁teens	-7553
▁wales	-7554
▁wider	-7555
actions	-7556
▁arctic	-7557
▁artist	-7558
▁attrib	-7559
▁conven	-7560
▁desper	-7561
▁eighth	-7562
▁embezz	-7563
▁extrad	-7564
▁finger	-7565
▁gyeong	-7566
▁hunger	-7567
▁rubble	-7568
▁signal	-7569
▁starts	-7570
▁switch	-7571
▁tunnel	-7572
▁writer	-7573
▁barbara	-7574
▁bottles	-7575
▁divorce	-7576
▁fighter	-7577
▁inquest	-7578
▁interim	-7579
▁pleased	-7580
▁pressed	-7581
▁robbery	-7582
▁soaring	-7583
▁teenage	-7584
▁unnamed	-7585
▁attitude	-7586
▁chancell	-7587
▁clothing	-7588
▁disagree	-7589
▁mounting	-7590
▁overcome	-7591
▁selected	-7592
▁stepping	-7593
▁throwing	-7594
▁wreckage	-7595
▁centuries	-7596
▁cleveland	-7597
▁diplomacy	-7598
▁efficient	-7599
▁extensive	-7600
▁predecess	-7601
▁rodriguez	-7602
▁timetable	-7603
▁uncertain	-7604
▁aggressive	-7605
▁announcing	-7606
▁conviction	-7607
▁membership	-7608
▁procedures	-7609
▁recognized	-7610
▁spacecraft	-7611
▁suspicious	-7612
▁legislative	-7613
▁conservatives	-7614
jo	-7615
xi	-7616
amo	-7617
efa	-7618
esh	-7619
gun	-7620
ilt	-7621
uro	-7622
▁83	-7623
▁dj	-7624
▁om	-7625
▁pm	-7626
▁zh	-7627
aire	-7628
ials	-7629
irac	-7630
iser	-7631
itis	-7632
lers	-7633
loid	-7634
ouch	-7635
rast	-7636
shot	-7637
ylum	-7638
▁180	-7639
▁dur	-7640
▁jur	-7641
▁kel	-7642
▁nut	-7643
▁oxy	-7644
▁tae	-7645
anded	-7646
ensus	-7647
utive	-7648
▁burn	-7649
▁clay	-7650
▁gian	-7651
▁jets	-7652
▁jint	-7653
▁kand	-7654
▁nice	-7655
▁pitt	-7656
▁refr	-7657
▁stol	-7658
▁topp	-7659
▁uefa	-7660
bourne	-7661
icting	-7662
rehens	-7663
▁ahmed	-7664
▁crown	-7665
▁dolph	-7666
▁euros	-7667
▁ramos	-7668
▁raped	-7669
▁scrap	-7670
▁seung	-7671
▁skept	-7672
▁slump	-7673
▁spani	-7674
▁usual	-7675
ologies	-7676
▁abuses	-7677
▁accuse	-7678
▁affili	-7679
▁asylum	-7680
▁bacter	-7681
▁massac	-7682
▁nicole	-7683
▁physic	-7684
▁reluct	-7685
▁tracks	-7686
▁wright	-7687
▁approve	-7688
▁autonom	-7689
▁carries	-7690
▁crowded	-7691
▁drawing	-7692
▁impover	-7693
▁longest	-7694
▁moments	-7695
▁nigeria	-7696
▁pulling	-7697
▁studios	-7698
▁tabloid	-7699
▁traders	-7700
▁volcano	-7701
▁billions	-7702
▁describe	-7703
▁extraord	-7704
▁frequent	-7705
▁kandahar	-7706
▁minority	-7707
▁missions	-7708
▁teenager	-7709
▁withdrew	-7710
▁construct	-7711
▁evolution	-7712
▁insurgent	-7713
▁nationals	-7714
▁penalties	-7715
▁prominent	-7716
▁therefore	-7717
▁addressing	-7718
▁everywhere	-7719
▁indicating	-7720
▁inspection	-7721
▁relocation	-7722
▁resistance	-7723
▁richardson	-7724
▁suspension	-7725
▁accompanied	-7726
▁effectively	-7727
▁consequences	-7728
▁impoverished	-7729
▁significantly	-7730
aid	-7731
ela	-7732
ico	-7733
oys	-7734
zer	-7735
▁98	-7736
▁ja	-7737
▁pf	-7738
▁zo	-7739
acas	-7740
cles	-7741
ette	-7742
moil	-7743
oner	-7744
uous	-7745
yala	-7746
▁dor	-7747
▁kun	-7748
▁reh	-7749
▁sgt	-7750
▁tra	-7751
▁uni	-7752
▁yoo	-7753
ables	-7754
gment	-7755
olved	-7756
ounce	-7757
▁barg	-7758
▁curb	-7759
▁fake	-7760
▁flex	-7761
▁kash	-7762
▁mats	-7763
▁pich	-7764
▁plea	-7765
▁seas	-7766
▁shed	-7767
▁tent	-7768
▁whit	-7769
▁yard	-7770
attled	-7771
▁bears	-7772
▁coinc	-7773
▁jolie	-7774
▁mobil	-7775
▁parks	-7776
▁proof	-7777
▁seeks	-7778
▁shook	-7779
▁skull	-7780
▁thick	-7781
▁trick	-7782
iveness	-7783
▁actors	-7784
▁amazon	-7785
▁downlo	-7786
▁implic	-7787
▁incred	-7788
▁jintao	-7789
▁limits	-7790
▁motors	-7791
▁oxygen	-7792
▁panama	-7793
▁prefer	-7794
▁rafael	-7795
▁skills	-7796
▁slated	-7797
▁stolen	-7798
▁submit	-7799
▁sweden	-7800
cription	-7801
▁belgium	-7802
▁clashed	-7803
▁granted	-7804
▁insists	-7805
▁leftist	-7806
▁overtur	-7807
▁passion	-7808
▁ronaldo	-7809
▁serbian	-7810
▁slipped	-7811
▁touched	-7812
▁transpl	-7813
▁turmoil	-7814
▁vermont	-7815
▁achieved	-7816
▁attached	-7817
▁aviation	-7818
▁baseball	-7819
▁campbell	-7820
▁detailed	-7821
▁elements	-7822
▁exposure	-7823
▁function	-7824
▁interpol	-7825
▁properly	-7826
▁shoulder	-7827
▁stimulus	-7828
▁suddenly	-7829
▁unaccept	-7830
▁celebrate	-7831
▁guarantee	-7832
▁launching	-7833
▁recording	-7834
▁resulting	-7835
▁universal	-7836
▁chancellor	-7837
▁experiment	-7838
▁prevention	-7839
▁reiterated	-7840
▁celebrities	-7841
▁consecutive	-7842
▁distribution	-7843
▁inauguration	-7844
▁northwestern	-7845
▁technologies	-7846
bl	-7847
dp	-7848
ja	-7849
sa	-7850
wr	-7851
bul	-7852
iot	-7853
iti	-7854
lah	-7855
▁89	-7856
agic	-7857
anim	-7858
ican	-7859
mate	-7860
raid	-7861
rist	-7862
roit	-7863
uten	-7864
wind	-7865
▁193	-7866
▁bio	-7867
▁fda	-7868
▁gil	-7869
▁kir	-7870
▁lag	-7871
▁lyn	-7872
▁pig	-7873
emies	-7874
enter	-7875
etown	-7876
▁bare	-7877
▁deny	-7878
▁gest	-7879
▁hack	-7880
▁lean	-7881
▁lies	-7882
▁pole	-7883
▁shim	-7884
▁stir	-7885
▁tale	-7886
airobi	-7887
▁assum	-7888
▁canal	-7889
▁casey	-7890
▁celeb	-7891
▁clock	-7892
▁congo	-7893
▁diver	-7894
▁fined	-7895
▁guide	-7896
▁kyung	-7897
▁moral	-7898
▁pipel	-7899
▁shark	-7900
▁theft	-7901
▁unpop	-7902
ulating	-7903
▁afraid	-7904
▁allied	-7905
▁blacks	-7906
▁chirac	-7907
▁collab	-7908
▁danish	-7909
▁funded	-7910
▁gender	-7911
▁handle	-7912
▁judici	-7913
▁models	-7914
▁myself	-7915
▁pilots	-7916
▁powell	-7917
▁revive	-7918
▁taylor	-7919
▁titles	-7920
▁uganda	-7921
▁warren	-7922
▁wilson	-7923
▁courage	-7924
▁customs	-7925
▁detroit	-7926
▁enemies	-7927
▁everest	-7928
▁fossett	-7929
▁genetic	-7930
▁infrast	-7931
▁marking	-7932
▁monarch	-7933
▁nairobi	-7934
▁portion	-7935
▁prosper	-7936
▁railway	-7937
▁signing	-7938
▁vaccine	-7939
▁wrapped	-7940
▁competit	-7941
▁contains	-7942
▁covering	-7943
▁disputes	-7944
▁learning	-7945
▁managers	-7946
▁midfield	-7947
▁mistakes	-7948
▁opponent	-7949
▁religion	-7950
▁victoria	-7951
▁declaring	-7952
▁landslide	-7953
▁probation	-7954
▁regularly	-7955
▁designated	-7956
▁immigrants	-7957
▁	-7958
e	-7959
a	-7960
t	-7961
i	-7962
n	-7963
o	-7964
s	-7965
r	-7966
h	-7967
d	-7968
l	-7969
c	-7970
u	-7971
m	-7972
p	-7973
f	-7974
g	-7975
w	-7976
y	-7977
b	-7978
.	-7979
,	-7980
v	-7981
k	-7982
0	-7983
j	-7984
1	-7985
x	-7986
2	-7987
z	-7988
q	-7989
5	-7990
3	-7991
9	-7992
4	-7993
6	-7994
8	-7995
